3D907029
3D1BE613
BD8C0380
3D9AA9AB
BD9AF93B
BD15329C
BD07B64B
3C9F1943
BDC1B6FA
3CCE65E0
BA0BD5DC
BCF2E474
BB693BA6
3DB8EEC2
3C939641
3ACF1951
BD46F29F
BD06BB38
BC925259
BB9CCFAC
3D70CAAF
3E0664A4
3CB3E192
BCB95549
3D354CD1
3BAAEC43
3D0770C8
3D438B88
BD6B9F9A
BD75AFE4
3D06CBD1
3C606B17
BD00505F
BC5E09BF
BBFC8171
BC503BDE
BD120EFD
3CC450CC
BD11BBAA
BD0208B3
BCA0BEB8
BCF03056
BD148853
3C9B4726
3D7F015F
BDAB7792
BD1C0247
BDA2BC2C
3CE5AB92
3D678295
3A957003
BCB97640
3D1754E3
BD4E435E
BDD3CA40
BCB26738
3C9238CF
BD2E260C
3D140394
3C1E8574
BD7D6E1F
BD6FF6F8
BD3F11AD
3D602007
BCB465A0
3BD23632
BD421545
3C9B4F47
3D8159BF
BB379928
BD27C7FE
BD6B0B4D
3D877BBF
BD80B438
BD4DC4F7
BD42230D
3BEC6509
3D05AF53
BAA852D3
3CD4BD6E
3D9B86F7
3CD5EE7E
3D344012
3D2188AE

