3BD23C73
BE3D9782
BE52D8E6
BE0ECE1A
BE0AECAB
3CE89A59
3DC8BE49
BE188D56
BE765115
BD99FD50
BD971964
BD9426BC
3D3A7F5F
BE176AC3
BCC64718
BDB138CC
3D59DE0F
3E578BE2
3D641D5D
3D7177A6
3E819BFB
3D10DA7F
3E253C23
3EA61B8D
3E1E0593
3D00A976
BDAC0513
3DCBF513
BD4AD428
3CAA1905
BE0859C6
BD5EA07B
BE2A3767
BD1AED10
3E4BFCFF
BE22A920
BD0790A2
BE5ED0A5
BE436B8C
3E6A02DC
BE0A8414
BD3AB82D
BE4151DB
BD18A368
3EA0F019
3CB9E721
BE0AE4BA
BD17862D
3E26A4D5
3E896660
3E0DC2AA
BDAD224A
3DECF4BC
BDE1EA28
BCE8B85D
BDA24E34
3E9702DC
3E27E668
BEA1608B
BE923B08
3D523D21
3DA4C714
3EBAF6BB
3D72A1EA
BEA89A5F
BE334FA0
3D582EF9
3DE679F1
3E86C947
BE58C2C1
3D217AF8
BE0B725A
3E31558A
3E922598
3E407F55
3E46D8E0
BD0040C5
3DDB5CB7
BE4C0C44
3C58234D
BCF5321D
3E21F2DC
3DBFAE3A
3EA28BB8
BD278454
3DFF5F16
3E4F7CA9
3EA66687
3E7DB180
3E7375E8
BD996782
BE37202C
BD661BC7
BDF03B96
3DBC1FDD
BEAA66EA
BE925163
BE94CFFD
BE51CB04
3D5F187A
3D8D3F54
3CAC8EDA
BD79D8AE
BCB5EFD7
3E131A6F
BE91293A
BE909512
BE7C81E8
3DB8B545
3E287B53
BDEAD16B
3DAEF1AE
3E4041ED
3D08BB44
BDAC15AE
3E901D19
3E1ECE72
3E4EFF02
BD3E2739
BC438AF1
3CE48622
3D2EF91C
BE28A5DF
BE362E34
3D91162F
BD62A703
3E41F01B
3E75D20F
3E5443B5
BD143BB3
3E265E8A
3DC44A97
3E3AF29A
BD138107
BCF547AC
3C7A2978
3E6E0FF5
3E20EA70
BE3D100A
BE7482C6
3E5A0785
BD5B3F82
3CBFEEEB
BD969D0A
BD468500
BD0F5A9D
3D7A361B
3BD71274
BD8CF2AA
BE8D664C

