BCC404DA
BD7EF70A
3D52F1D3
BD59A432
BB5B4C8E
3D842FF5
BD1F6C85
BDE576C1
BDA5A0F4
BCCC1CF1
BD502B50
3E19E259
3DA5152C
BD3AF4E9
BE1D98EB
BE82A9EC
BD0BAFF9
BD4057A3
BE6A337C
3CADDF27
BE011380
BE4BB4B0
BD32E576
BE37E58E
BBFA5FB4
3E59784B
3E425863
3E0A5DF6
BBF1C7DE
3DE0C660
3E49CD05
3D81EBE5
3C3279DE
BC76F9A6
3DC7BEE6
3E57AFF5
BE024BFA
3DDC82C8
BD3656A9
3DF49E4D
3CFD63B9
BD4970F9
3D9DFD24
BE559294
BE00217A
BE04B51A
BC110BC9
3D8AD615
BE34A186
3E16F75B
BD96F489
BDC57C3C
3CC531C2
3E43DE99
3D95124F
3D728568
3DD931B2
BD53CFD6
3D3A1E5F
3D109E99
BE15024D
3D90A474
BE60CE5A
BCC1A899
BD20A716
3BDFD588
3DC6FC86
BD551B94
BDF3AE9E
BE0321B7
BDAA22E7
BAB0B5A0
BB96DCCC
3CBDD94F
BDBD4EB3
BE3B9DA0
3DE27E45
3C223028
BDB9C0F5
3DA754A8
3E400702
3DB955AB
BDC0D1A3
BDA997CA
3E2EC3EB
BE1E1727
BE2A2099
BAC4F5AE
BE322718
3C10CD11
BD7F1AAC
BDD10D00
3C92EB76
BD5CACE9
3D2CD5F5
3DFB3F4E
3D8CB09B
3D00D0DA
3D5F6C38
BDC12582
3D41AF8C
3DD210E3
BDF7B643
BDE6B812
3E271627
3E403BBC
BE5F6ADB
3CE75592
3CE12C24
3DF9D629
3C2C02D8
3DDA00E4
BC537BAA
3D6E14A3
3C58B001
3E89B836
3C804CB4
BDB31310
BC75DC70
BD179832
3C800039
3D4A656A
3CC3CB80
3DF4EB89
3E059F4F
BDB3BCA1
BD582121
3D2A4450
3E0518DB
3C9536FD
3DB284B0
3DFE3FDD
BC4D478E
3E40E382
3DF9F3C7
3E6CC6ED
BC2E9BA3
3DEAA4C7
3E104974
3DAF61F7
BDE7FC08
3D47230A
BCDC18F5
3D7C816A
BD962805
BDF7BD6D
3C834394
BD0F0FE1
3D3F8EBA
BD0354D1
BE397CEC
3BDF6F3E
BE22BD6F
BE155BD9
BACAB6FE
BE2F329D
3D990EF5
BD50C560
3DC2A0EC
BD02DF0D
BD472ED3
BE0F3114
BCF839BC
BD7DC929
3DAAD0C7
3E3F59BF
3DE7D0EA
3E05EBE7
3DC9E442
BE1F1F69
BD61E2FB
3D95FCE7
BD88DEDD
BE3A7D5F
3DA531E3
BD105905
BDB43954
BD1E1A50
BD34BF70
3D117B39
3D41E6EF
3D98237E
3D26A0F5
3E220CA3
3D37910A
3D172470
BBD07CDE
3DFFE071
3E39008B
BD2907AB
3D786041
3D980E28
3E23CBEF
BD5B7642
3D0399D0
3D95301E
BDD474B2
3DE98706
3D54753E
3DF0CA82
BE08846C
3DF1C3D0
BD0F0F46
BD6B8F74
BDBAC1FA
BD10DE16
3C8F0399
BDE84138
3E1AF40F
BCE9A070
3CC98BFF
3E009958
BD68B6E5
BC49BD19
BD8CF555
BD5C648C
BD128F5D
3DF2FBD2
BE2EB528
BE0DE426
3DA5552C
BD17DCA8
3E300F28
3E2D83FF
3B44EF76
BD91A39E
BD3AB4FC
3C1941F8
3CFC5B01
BBAAF8A4
3E0942E4
3E05C516
3D2511C8
BD4D9377
3D0FFA18
3D04BC4D
3DCCBCD8
3DFC9A86
BE4341E9
BE0BA69D
BC89576D
BC84A4CD
3D0D7BC8
BD44A216
3CC5D7E0
3DA516C8
BD4F85F6
BE183103
3E3C07A7
BD184AED
3CEE1326
BE29D2A8
3C1BC27F
BC66B46B
3E144AAA
3D1E8127
BB188ED2
3C953724
3CC30FDB
BE51141D
3CD7D184
BDBB481E
BD2F6587
BDC0080D
BDBE1ED3
BCD16F98
BD7C7FCF
BC884A13
BDD03D25
BC8FB18B
BCF6111C
BDA743C0
BE0A0737
BD772F15
BC6A5D04
3E077F7C
3D1C76B7
BE0416C6
BE3E4A9A
BBE90F46
3E48DEFE
BD82F445
3DF50871
BD8CBF18
BDC43CC7
3BE456A7
3E03860B
BDB014D9
BDDDA96B
3D8E27A9
BD85129B
3CC0CE6C
BE01168C
3E264E18
BCAE15C2
3DC3783C
3E1229D0
BDB27C54
3C85CEE3
3DD37A35
BD13E36F
3D389718
3C75C908
3B9E34DE
BD289DAB
BD92DE33
3DABB7E5
BB7AD1D6
3CFC5819
3DDBEAFA
3C7165B1
3D6E2687
3E065035
BCF1B7D1
3C73225E
BC108E3C
3D8333EE
BD60D629
3D184A8F
3E43C615
BCC86448
3D1D7E71
BDD0CA1B
BD000939
3E3A0CD5
BDA19A8E
BDC7289F
BD4F3FEE
3C64B14B
BE40928C
BDCF892A
3D4EBB77
BDCB337F
BCC63F52
BB88A5F1
BA59F0EF
BDF00AF5
3B359E8F
BD67312F
BDBDCDBF
BCBC5839
3D59AA2E
3E23D322
BDAE5274
BD0DF4C4
BC3A6A2B
3DAB4FA9
BCDDE14F
BDB9B6BA
3E1723D4
3E111A70
3D2C4BBC
3D81658B
BD1A79B5
3E45E5D0
3D108C38
3E01E2A4
BC96B644
BDE3BB19
BDCBCEC4
3D9125BD
3CC23CB5
BE1EFAC5
3D726062
3C848B3B
3D463926
BB7667CE
BC8AAE06
3D2E4E1C
3DAC8FB3
BD97BD50
BD7EC254
BDB27EBE
BDF36884
3DB5662D
3CFEF923
BCBEFE55
3DB0B298
BDA7E720
BD3057AD
BCAA32D1
BDA3A7E4
3D3E3D34
3C9FA2CC
3CBC1AB3
BD5151EF
3E203E1E
BDEFE817
3A96E86B
BD0B0E84
3CF633BC
BE1F6819
3BD24792
BE49A67E
3D8DE076
BD3E0235
BD16C7A6
BD21A31A
BE2683AA
BD9BC148
3DA29E85
3D39EEFE
3E10B0E2
3D167C99
BDA81226
3E3C6905
BDF6F2F8
BD1863A6
3DB60A85
3D80EFFB
3C1F5C3A
BD0670A9
3BD19930
BC85B98D
BD823FC1
BD138329
BC9D4084
BC2C6A3D
BC99EB91
3CF1C655
BDECA615
3E2B0EEF
3DB7442C
3D650AAE
BC04FB72
3E03F50D
3D77D8C1
3D9B13D8
3CE3044C
3D6F90C6
BBD8AFC1
BDC2A22E
3C942F82
3DEA38AE
BD811E89
3DEAD665
3CBE5B6A
3DB73571
BD8C7DA0
3E14A04E
3DB4CA0B
3D1B28EA
BD8D11A7
3DACD40F
3D1EB5F9
3D867CF0
3CBE51CB
BD5F3AEF
BD84C582
BD307071
BD8E14D9
3C5E9656
3D8CB177
BE21CC0F
3CFA20C8
BDD4D545
3C7448BB
3D7EB8BF
BD62E7E5
BE07167A
3D04D895
3C5DE0F8
3D59ECF3
BDA91760
3DD68CBB
BCD1757E
3CEFF6BC
BDAB2312
BD871641
3DDB006D
3E12BBB4
BBE798B9
3CD31E28
BDACD447
3D183FD4
3D8E662D
3AE7DAAB
BDC0709C
BE012BCF
BDB8FA5E
BD4B1CCF
BC8B56D9
BDBB6B40
3CD627B0
BE36E955
3DA8959F
BC4793FB
3DCF4366
BE5A6920
3D8C531E
3B7B58B3
B9C3EA11
BD13C22C
3E34A559
3CD49407
3E3F279E
3D918C78
3E216AEC
3CEA9595
3C687F1A
BCFDF5D6
BAA52458
BE16ED3B
BD802225
3D6703EA
BDB14387
BE3BB7DA
3E10F31C
3CAED342
BD9E78A4
BB627853
3D34B855
BD905D8E
3DCDFFB8
BDEB4F21
3AEDE9C0
BC660A9F
3E00805A
3D8BAF7B
3D742980
BC4A01E8
BC518E1B
3DB94304
3E0B46BF
3B918D4E
BD73E8E4
3D3A8ABF
3CC11B7F
BE1C489C
BB96F861
3DDA7CDB
BC5FE724
3DF7CBB2
BE29865E
BDD9BDBE
3D6ABA29
3C5B04FC
3DCC4316
3CF488FC
3D365E4D
3E4870D9
BDF52420
BDDFB9C8
BE254315
BDB2A816
3DD1FA5A
BE5EFE3A
BD87798B
BE2E87CE
BCFB23FD
BE4FBE5E
3CC12EF2
BD9B2745
3D92B39B
3CF1004A
3DB8ACD9
BD049BD8
BD311D7E
3D6644F7
BE44FFAA
BD13DB84
BC194240
BD5DC950
BC0F95A2
BD5C87D3
BD8C764A
3DC2B860
BBD7B6BD
BE10EFE4
3DC8F347
3C10F1C3
BE2B3CAF
BE026590
3DFADB81
3E017AC1
BE1909C9
3D0ECAB1
3D1A5446
BD0AC9CA
3E065899
BD0098A3
BD098EDC
BE19E4DD
3D89A081
BD81FC26
BCCC21E8
3E43DB6D
3D744681
BDAAA4D0
BDA7265A
BD6B99DA
BDCD0DCA
BD92E014
3D4DC71D
BDC8E79A
3D41E57F
3E18C892
3D3AFF9D
3DEFE55F
3E1C02E6
3D1395EC
BD3BB2EA
3CD6230E
BD4A12C7
BD3D9291
3CDCF5EC
BD395DF1
BD436602
BD8F2BB5
BDE7EB6A
3D9D510B
3E5A2092
3D301F84
BD0D4223
3DD7F26C
3DFE608D
3E02DA1F
3D862A80
3D992BE2
3DBDE7BA
3DCFE309
3B4BEDCC
BB779655
3D818728
3DD61735
BB5BD766
3D7B32AE
3C8A467C
BE7C7181
3DBD4086
BE4F4C4F
3E15B60F
3D0A315E
3E24DCAF
3E29A3D1
BE551F77
BD8B8C2D
BE3C3FDA
3DE5ECBF
3D227E8E
3D427738
BBD5688E
3DBD690D
BE1831B4
3C15F9E1
BDBD556F
BDE3EC33
BD848436
BD7A8201
3DF0B06E
BE001571
3D444F78
BD8258C0
BCA845AE
3C8F7496
3DA9F5A4
3D9FC2B3
BD7F9AC8
3D4A13D4
3E54D0BA
3E078140
3D2A4B66
BDF36D06
BDA11F9E
BD16011E
3D85C998
3D47C2A4
BD4EBBD0
3D3D365A
BD916161
BE0FD6CF
3E03924A
3D2C2CA1
BD91144B
3CF3B89A
3D8840CB
3D9EE4AD
3DEF8DA4
BC8D3995
BD4AC649
BCA3734B
BD29E904
3E2370A5
BC58993C
3D938A07
3D7CCB56
BDFAB770
BDF3BD37
BDE88B03
3C9E160A
3C6774D5
3DE0869F
BD57991E
3E11BD20
BDCA6539
3C7C38A7
BD93CEF6
3DCFDBF5
BE35B045
3D0B8E74
3E14685A
3D84A693
3C3EB7F5
BC582311
3DAE7D97
3D2D1C32
3C353BC1
BCF2B651
3A5D786D
BE1BD17C
3D73C27E
3E1511FE
BDDE3FA6
BD09F606
3DAFD1DB
3AACA272
3AF94BB3
BDC7347E
3C4A89DF
3DF279E3
3D9C79E8
3DF076C0
BE434449
BDAB2554
3E4CC0D2
BB077D95
BE3CCCEA
3DA5A225
BDB22526
3D193FD0
BBAA0D91
3E16E808
BE4C9146
BD51744C
BCB12312
3CEBEBD9
BE6F9976
3DC74995
3D3FBA5B
3DF0E993
BD381B81
3E11E7D5
BE34B8C5
3D52CB03
3CFA6BCD
3D8DB07F
3C43E243
BD506DA4
BDE48576
BDD6C18B
3CD49C8E
BDCCCB8E
3E5B64BB
3D819DE9
BD9B8DAF
BD13AACA
3CE55553
3DEB6279
3E052D94
3DA84DF8
3D157EFC
3D450595
BE224C48
3E4932A0
39C5DCCC
BDB9C2AB
BC0E0CC7
3D9CEA87
3D822F84
BE126D7F
3E0CB7FE
3DCD2206
3E0A33EB
BD35ABA4
3C8EB59A
BDFDEB95
BDDFEDD0
3DFC32A9
BE000DBB
BD290A74
3D025BB3
3DEF118B
3DEF8C44
BE2AFF3C
3D6B7910
3D865E2A
3D1667B8
3D744697
BD8E27D5
BD30CDAE
3C9EADCE
BE035701
BDF39F30
3D8249B3
BE011EE4
3CFE5D4C
BC311ED5
3DA5EA8B
BDB7FE2F
BD20CD00
3C9F930A
3D526B41
3D682DB6
3DA833A6
BD30E074
3C2E2B1D
3E09C77E
3E237DB4
BDB0ADCB
3E0E7E79
BDA1D8E5
BD8307BE
3E0DAF9B
BD9B2EF7
3D863D67
3D8F177E
BDCC172E
BDDA9B19
3E091FEE
3DFA7D94
3D6031B6
3DCE7020
BE2B22BE
BD0F82BE
BD8CAE3F
BBDDB861
BD8FBA03
BD83B966
3A21C6C5
3D7DA2F4
BE0A940A
BD43C6F2
3C8C6F23
BD246405
BDDB08E7
BD25B2E2
BDB0DA3F
3E41B5AD
BC0C54AC
3C4DAE0A
BE079FE9
3D05E5C0
3DB4BBF9
3D927432
3981C613
BD5F5E10
3D770A9B
3D3CA203
3D025DD8
BD7D558A
3E1F72A6
BE617E63
3CBEEE73
BCECE005
BDE1A68C
BD094730
BD8713B7
BD4F705F
3CBB19BB
BDED1630
BD04AA33
BD1427B2
3D0A0217
BE25505E
BD0EBED8
3D1A9989
BE4547B4
3D8590C1
3E896B7D
BDA9277F
3E50B5A0
BE0F5BCE
BD0FBA7D
3C941B23
BD0C19E4
3E8FD7D9
BDABCEFE
3DE1D2D7
BDCF8607
3D109F9D
BD0CBF9B
3DA43CF2
3D462759
3D7A5657
3CEAD416
BDAFEAE0
3E42C3D4
BD94A3AC
BD9F915D
BDA07A62
BB348E37
BE139DC8
BD38CBE8
3DD3678E
BDE364B5
3CAB9E5F
3C8E25A1
BDC11809
BE2FB87F
3C4AB875
BE146C96
BE2E18AF
BDA0BEF4
BCF1D79E
3E2AD824
BDBF7874
BD941613
3CCE8D52
3D640356
3BC429F1
3D5C5705
3D0092EC
BDF57F80
BD171D5D
BBAA328C
BDF5567F
BE1128C9
3C699632
3D43455A
3D8107FD
3DA5CD40
3DA92572
BE3F6D39
BDADEEBB
3D30499E
3D0A4D69
3D115187
3DF24CC9
3DDC41A5
BE30715A
BB872757
BD10F87F
BC816D31
BCC8D2C9
3E170F5B
BD50E9A3
3D76DD05
BBF72098
BC8A0159
BD75C21D
BD8CD1A2
BC633FB6
3DD2D2EB
BDC545FC
BD17E6F0
3D11B367
3C934736
3D30E877
3D233F45
3E70C5D3
3CCBCF71
BCBA65E9
3E1C9804
BCD5811D
BE06B8B9
3D76FC18
BDA22B65
BD166E96
3D2AD8FC
BD3B870A
BD044115
BC9607C5
3C9D0DF0
BC71A67A
BD589F15
3DB59171
BDC473F8
3C8ABE3F
BE27283F
BD75B69C
3C2B3094
3DE531A5
BD9CD7D4
3E095A60
3DE0040D
3E127D93
3DF50320
3DDCB576
3E063538
BD910344
3BDCEFA9
BD541E84
BD07CC5E
BD10BBBB
3E52FAFF
BE30B3A1
BE3B5F1C
3D1B4E28
3D8C4823
3C343FBA
BD74F9FB
BD791BA2
BD24DA98
3D5CDC76
3DE26442
3C2D1421
BD34A2E9
BD416594
BD8A062F
3DF24043
BDD61214
BD9F009E
3CA67878
3CE8665E
BB77B99E
BD888DF7
3E5B4DF3
3DAE9AEF
BDB7E805
BD81E6BB
3C95F129
3DC48407
BDCA66B2
BB1B3E6D
3D195AEB
3DC59B20
3E1EC6A3
3D1D202B
3DB7C858
3D4773F5
3E04EBB7
BE2221C1
BCEE40A0
BD3BFBF7
BDA28F1B
3D106B56
BC916412
3D8CDA69
3D3F4104
BD3F3F9C
BDC7366C
3DB0DD32
3B894274
3D8CA2C8
BCA1F7A9
3C9B461A
3C9A0783
BD8DF039
BD954DCD
3DD6F1B9
BCA8868C
3D13FCAA
BDCB14BC
BE4AD451
BDA48A67
3D44CB43
BDEA4206
BD938530
3AE9ADEE
BE026C13
BC4DABFD
3D6FB207
BE131C4A
3D27A6B4
3DE30666
BD2F89A4
3D780C11
BD2C32E9
BD41521F
BBC3423E
BDAAC1CA
BCDF2CBA
BDEF6BA7
3B1857C9
BE1F9FF9
3DC073D2
3DC8D4E6
3DA4F1CB
3C3A1DE1
3D8F4819
3DC3FB73
BBB16467
3DF37BBE
BDA7AD29
3D359ACE
BD65C4AD
3E1F3B09
3E218039
BDE56B47
BCB58F22
3C338920
3DEC2F40
BDFE8DBC
3DE649B1
BC85BEAF
3D46D945
3D3D470F
3DACF81D
3D9B92C6
3DE70D81
3CC1CFF5
3DB415F5
BC92E451
BCD7E2D6
3E08EF64
3E2BE3F7
BE1C2C3A
3E139120
3E13A6E5
BDC77BDB
BD6F0470
3D36EEB5
BD1BB178
3D0A7A2B
BD8AFA53
BE456C24
BD65FED7
BDFAC1AD
BDC9791B
BDC6B8D4
BE3E59B1
BD8AA294
BDCC5B44
BD0C48AE
BDB26D62
BE060414
BD5EA99B
BE0AF3D4
BD2C3944
3C3983EB
3DA5C1B9
3C461CEE
BC32EA24
3CDF71A1
3DBCDBCE
3E0C4537
BDF2D185
BD9AFEFB
3E124E0A
3CFAC0B7
BD82DC08
3DA836FE
BC85AF2E
BE8034FB
3CBC4AB3
BB75E9E2
BCC4804B
3C9CC795
3D88A76A
3C8436FE
3D567077
3DCD5C7E
3E12D2F6
3CE40D1D
3CC006E2
3DB74760
BC2E6FD6
3E068997
3DA31611
3C675E22
3D3B6C45
BBF1247D
3E11CA44
BD346931
BDB9BF12
3DAA1324
BE013A54
3DC6FEA2
BD5582C1
3DD19606
BD3A9A52
3DCD5497
3C945371
BDEA7DFC
BD9DCA05
3D15B683
3DC34C5F
3B988E62
3D6E9089
3DF3FB41
BD4FA367
3E284D13
3CE3C21E
3D712FD1
3DB8070C
BB59E481
3C8F533E
3E3B8CF0
BD3F0DB0
BE1B29DF
3DE5AA2A
BD3EEABA
3E235214
3DD2C51B
BC97AA71
BCEDA30E
3CABC964
BDADC666
BCE8AAD4
BE1910C0
3DC0E3D2
BC0D08A5
BD2F4B51
3D368723
3DE8460E
BE494F70
3DB15EC3
3C312863
BDA3F3B7
BD03E8FC
3DC46836
BDB2BBB9
3D59FA26
3D25F3FD
3D0BFDD6
3CB734A3
3D1A07A8
BCC70050
3D789353
3E011F9E
3DB33C36
3E273F4C
BCECDE25
3E2CE2A7
3E05B5E8
3DC654FD
BD93B5E9
BC762648
BD9516EB
3D157DD0
3D661A02
3C194C34
3DFFA4A8
3D6FE0F2
BDCA4275
BB338598
3DE02DC5
BE2B0A4C
BDCA1970
3D94A756
BE0BC116
3C9F11A3
BD0450A4
BDAD12C2
3CBBF7E4
BE911ED3
3BEE586E
BE4B84F2
3DE3D2D6
BD55BCAA
BDA6CA00
BC893F42
BDA0714B
BDFACB69
3DE1D722
3E2BA05A
BDD103D5
3DD4331C
3D07612B
BD864CEC
3CE20493
BD4A2C6C
3D579A0F
BD9743B5
3DD27928
3DB251A4
BDDDA037
3C78F13B
3E2B1AE4
3E1BC1EB
3E392163
BB61CD17
BACB0A1F
3DF1DEEC
3D09C6B4
BD18DC97
BDE3ACF6
3E18E66C
3DB196B6
3DA5D2B1
BD89D4AE
3D801350
3DA3C670
BDFDB4D3
BD04AED5
3E2584C1
BD68A6B0
BD12498F
BC4C3305
BC752A43
BDB754A8
BD0D769A
3E1EF6E8
3D23DC9E
3CCC1BAE
BDF29762
3BB93E95
3D4AD740
3C554A4D
3C18D6E2
BD554A14
3E4A0635
BC849E85
3CF0AAB3
BDAA9D8B
BCFB5996
3D2671AE
3E6FBCAA
BE2145DE
BE29D23F
3DC19AEC
BDE41513
3D42C0A2
3DFCE43F
3E194857
3D0336C7
BD99852E
BC468DBE
3CF4FF23
BDFD471B
3E29B5B6
3E3533E7
3CD7EE29
3DBCB5A2
3DD637C8
3D299AB4
3D3E057E
3C31B6E4
BE1C8881
BD7F7645
BC43AB55
BC1D6AEF
3C5CE938
BB8CAF10
3E3283E2
BD653DF0
BC959B9A
3D3A4AEE
3D1F182A
BD7F675A
3DBCA9C4
3C06C124
3D25CE4F
BC7D0652
3DFB81E2
3D41A9DE
BD4EE220
3D1FB72B
BD1A2645
3D26B432
BD5B70AA
3D017293
BC3F3F0F
3C4EBAE2
BC92DCF7
BCE34651
BCF273D5
BD5EB5AD
BCF5395D
BD7C51B1
BE0CABE5
BD129315
BCFAC78E
BD523192
3E0BA959
BB85BE1B
BDB5B182
BE43F4D3
3DC4D915
3E1DFBA6
3E0068A0
BD114395
3A28EE9B
BDAFD1CC
BDB48418
3DA72F08
BD3068FF
BCE30AFA
BDB3302C
3DD26981
BC5DBEAB
B9AB4E3C
BBB89CEC
BE1304BE
3E082A0E
3D88B382
3DBDD16F
BE0FD0CC
BDDEAC3B
3DEFCC38
3D1AC0B4
BB991B75
BD7CD7E2
BD9853D9
BCF8E997
BDA18DC4
BDAD7738
3D9880CE
3C2504E6
3D67188C
BD5743F9
3E07A6C1
3D789B9F
3DC9E0F2
BD85DD1B
BDC03A42
3D0D5334
3D8BF76C
BD3BFB0B
3CAA1EEF
3D264AF8
3E30EA58
BD80DC9D
BDC15137
3DE02C92
BDA62AF0
BCC91B54
3D74D334
BC90CC6B
3D20AFC0
BD72AF76
3C2B5CDF
BDD28B2E
BD90BFEF
3CC8C26D
3D67C55B
BE0C7A65
BA9E091C
BDFA8143
BE19A635
3D4F7E8D
BD666295
3DC2CDED
BC731AD5
3CC3FB4B
3D95D2F2
BD5C8DEC
BD503635
BBBE72D8
3D1B913B
3E4B1184
3E1C276A
3DD7FCAF
3D8E18EC
3D3CA2A4
3C1665A4
3D4BA1B2
3C9FF7DE
BDD02E39
BDD0CBCB
BCAD0115
BE0263F6
3E1187EF
BD73EED2
BE456101
BDB99A0B
3DDEE371
BE34BA25
3DB0B581
3D26308C
3DF1C4BD
BD22DB15
3DDFFC7F
3DF53600
3E1308E5
3CEFAF89
3E732908
BDB58B8C
BC8E0EF3
BA19413C
BD370313
3DBFCE47
3DD26AD7
3DC2062F
3C48B2F8
3D232050
BDD1481E
3DF3ABD7
3CE72D78
3E1F60DF
BADFA4B9
3E03081E
BD518CC8
3E34A578
3D535FCD
BE16AF4B
BD021063
BDF44203
3D1B53F9
3D609FD0
3DB3AE9F
BC87CD44
3D8E87B3
BDE3975D
BCD66FA2
BB21E880
3E2EC276
BD7F1386
BDC135D8
3DD149AC
BE0214FA
BE1B002C
BE247493
3DB9C24F
BD06418A
3DE828A0
3D3DF57F
BCCB746B
3DA21332
3DEDFD07
3D9AC55B
BD694219
BE007245
3D9EFE08
3D1BE435
BD6AE6DD
BE0E9457
3D84E11D
BC92F254
BE1BC831
BD99C33F
3E535FFF
3D515609
BDB0A432
3DBC3C49
3C867A5E
3A74B1A4
BD3BCF69
3D489E04
BE0424B9
BDA6B073
BE00968A
BD916303
BB86820F
3DCE7E96
BE057C5C
BD5E0768
BDAD8416
3DB63676
BB879C73
BCC14BF0
BDAFA6FF
BAFC1B1E
3E061590
BDF681D2
BD1FC2A0
3DDC6DEC
3D8EE0FC
3BFF8024
3D4E8AB2
3E011C88
BCC35F82
BDDA016F
3E3D5279
3D2F4F03
3DB9B6E9
BD21DEA4
BE0BD05F
BD5000C6
BD873F59
3DC6F948
3DDE403A
3CF17E6F
3D93FD40
3DCD3A62
3BEBDE1B
3D9457CC
3D04A9DE
3DA31BEB
3E2995A9
BD01394C
BD75E587
3C41D7CB
3DD3C4A4
BDB7741F
3DE0013D
BB9A3FC7
BDA75F62
BCE62471
3DE5AD37
BDA991DE
BD283C48
3DEBDDC8
3D04E71A
3AEC01F4
BE17BC87
3E0FB028
BE0EEEA2
3A81545A
BD18BF6D
3D652948
BDCFE397
BAE2B2BF
3E0218DB
BE042DC5
BC770AAC
3D91EF86
3B925F85
BCBE31BF
3BE32E44
BD19C91D
BAE05218
BDC6478C
3CD2712A
3CE7AF42
BD5B5EB6
3DF2F2FD
3DA63D9C
3CBAC603
BE8CD548
BDE5B592
BDDB74E2
3DDBBEDA
3B8E1801
3D9AF3EA
BC8E130F
3AEEE44A
3D30CB89
3E209ADC
BC0A65EB
BCCC4099
BD33A5EC
BE061A23
3DC2E8BB
BDCB01E9
3DED468F
BDAB47F8
3D8A83B8
3DB29FBE
3D75FE25
3CACA935
3D594C10
BCD51044
3E47CE0C
BDB6D7CC
BD95D9ED
3D84A34F
BD18745D
3DE3EE6C
3DF55184
3BBA04F2
BD11851F
3E06BCE5
BDF3ED99
BCD5C473
3DF93A6F
BE0ABF18
BD8804C0
3DB935CE
BC1E414F
BD947639
BE10B4C0
BC7D553C
3DFD0435
BCA295BE
3DAA8FB9
BDF36A22
BD1B4496
BD21114F
3CB9F459
3DFA8BFD
3DEF4836
3D7A99B4
3D999782
BD759EEF
BC188F28
3E15FF76
3D72C3EA
BD3A351D
3CF8F21D
BD974B41
3CD7CEB7
3DCCFFED
BD2713D3
3D166B2C
BE2FCC5E
3D9D2DEC
3D11D7F9
3D4D86CB
BD633725
3D8278BF
3D29732B
BD0E35DE
3BC7C8BF
3DBB691C
BD7F27ED
3D323B8B
BDCDD202
3DAA0E40
3DAC3099
BD60A31B
3DA0610C
3D6CE799
BC049C6F
BABF457F
BD0B9DA0
BDA88CF9
3CC98D8B
3DD8D2CF
3C760972
3D68EB2F
BD10125A
BD801F50
BDFC70F2
3E164938
3E59A3A6
3D8D0E89
3DBD5D7A
3C1E8538
BDB38E54
BCFDB404
BDCD690C
BD0499B9
3CA17236
3D48075F
BE258EEF
BD99B539
3D05471A
BDD37992
BD80CCBC
BDAD1EBB
3D010045
3CC33A5D
BD82E7E7
BD520D1C
BCA29C76
BDC5FF98
BE030CD4
BE22BD51
3CE0A009
3E1FB3FE
BCD5268F
3D79598F
BDF997C3
BE061D8B
BD16C773
3DB3C256
3D4EC869
BCC6018D
3D9E74C8
BE0DF312
3DA1AC03
BE0AF072
3CF7DF04
BCBF2301
BC926AFE
3D98880E
3B582DCC
BCA68E33
3D83C4C7
BE0211DA
3B82ECDD
BDF88EC6
BD720918
BDC356EB
BD76375A
BD46CE2E
3DBD1E9D
3C4DF557
3D8F7D6C
BDE83197
BC8E39A9
3E37C4F6
BC123B24
3CFD2E89
BD0BD63A
3D32466A
3DCD80FA
3B85C433
3E122BFC
BCD1C3C2
BCE8C84D
3D7D9D09
3D0F2894
3D74B539
3D0012A6
3D9E0A35
BCA2EE97
BCB06C63
BE250A6F
BDB987A9
3D0ED276
3D70DFF7
3D80798E
3BACA942
BD9238B7
3CCDAB3A
3D3D08AE
BDFB5A7C
BE3B3E9F
3D2EF995
3DB6DBF6
3DE08C47
BE007410
BD0EB1C4
BD368CA3
BD176AD9
BDDC9169
BDDFCCD4
BD0928ED
3E169EC0
BCE1E4F7
3E12D1D1
BCB08B18
3E1D14FD
3C3732FC
3CDFCC83
BCCE309A
BD78AFCD
BD1D92F8
3D9F1A9B
3D9FA72C
3DCADE97
BADC924B
BDB2EB62
BD7033AD
3D084668
BE02D3C7
3D101123
BE4CE423
3D168D8A
BD17F37B
BDF9C2BD
BDD851B9
3CFCA3EF
3E31D5D9
3E2492C8
3DF50619
B90B83C2
BE0F91C1
3E08294F
BDDED555
3D88C6C8
BE0198EF
BDAACE9A
BDC4FFD9
3C8B6AA8
3DE7ED2F
BDF04B08
BB832D41
BD766C4B
3DB3D76A
3D3369BD
3D22A03F
3D7A6F40
BCED35F3
BE1E1D48
BD7FA175
BDC2FF06
BD09CCAB
3D925FEB
BD08A35B
3C1E8289
BDC421BF
BD93DBB5
3D43970C
BDD0F383
BE3A1574
3C7AF67C
3E1569DC
BD448CF1
3C3F007F
BDD52426
BDA01AF7
BD737E57
3D9B7262
3E52BFFA
BDABB148
3CCA4A48
3D9D9196
BD84A476
BBBDBD17
BD83FAFD
BCA5B32C
BD571010
3D4067D2
3C733E82
BD67BE5A
3D80B2CA
3D95F300
3D9A97AC
BCAC19E5
3D35986C
BDBD668D
BDD1B1C0
3E41A0EB
BC192E2A
BD858B31
BDBF9D1D
BD933B36
3DFFBFF6
3DCB6F86
BD85B367
BE364ED3
3DEE83A3
3C97248F
3DF1473F
BD0BF1CB
BDA85F00
BD0DEAD4
BD8274F7
BC56FB11
BCEFAAB2
3D5A402F
3C8131F3
BDA398E3
3C3E85CC
3DA71948
BD12CB9B
BD0E0833
3C261B0A
3D0A182C
3DC9A471
BD9EBD20
BC37D666
3D029ED1
BBCA08B9
3A5AE9EE
3C92554E
BD8AD579
3DD1AFDA
BDD2555D
BDF48AB6
BDEAB706
3D9AC8E7
BDC61167
BCEF9E4E
BD097B55
3E1562EF
3CC91A08
3D90AC6D
3CC8CB05
3D6F2940
BDE6A409
BD78950F
BD9EAE0A
3D57C36E
BE288E4E
3DC006E6
3D914B57
BDF62C9E
3DB81740
3E076C53
3B084F07
3E06AF9B
BDF65673
3D459D06
3D080716
BD257E7D
3D20D18C
3CE68FA7
BD75B03D
BDED732D
3DAE5DE6
3D34B66C
3D4272C4
3D92CD67
3E0379BD
3D50CD7A
3DB83A20
3DC99872
3D134B09
BD9B5699
BC1813F5
BCA2FE50
BD18CEF1
BCEB6C12
BDAACC34
BE2EAE1A
BD4B1DBB
BCF5A2DB
BC6383C3
BDD3376C
BDD3FC9F
BCE8D3C9
3DD2A2B6
BCFC6C62
3B136A3E
BD9740FF
BC605E1D
BD968881
3C212FC9
BD97F3C7
3E4004B8
BCE541A4
BD947EC0
3BF04845
3DF6E6D1
3D9354F0
BAA6D490
BC0B560D
3DC68639
BE3508AA
3E2DE00C
3D310D53
BC7BA516
3CBFCD60
BCC1AE2F
BC625ED6
BDB6D275
BDE55363
3D2C0B98
3DBF3CA7
BAB6CA62
3D2EA01A
BD2028CF
3DAC1FF0
3C8D084E
3DBB1939
BD7B332C
3C275C2F
BE0B466B
BC5CD838
3E27530A
3BB01EB7
BCD1EFDF
BC0084BA
BDF402F5
3D8397EB
BDC90BA5
BBD4CBEE
BE35B28D
3D7ABA9B
3D541656
3DB994DC
3C410E1B
3D479487
3C578222
BCFF741B
BDA9B26C
3D7037F0
3CBBFA94
BDBBF37B
3D1015E6
BCE3F1C9
BD6FC3B3
BDBC4391
BD6CA7F1
BDF1F474
3D264C7C
3BA6B924
3D55DC15
3E220798
BC8DAB3A
3E23EC5F
3DD9F0E8
3D202EE7
3C8DCD2C
BD44D786
3CB0D983
3C96189C
3D4D89A1
BC515625
3DB18391
BE34BB28
3B0FC91F
3DF03BCA
BDAFD5A9
BD943EF4
3DB0F0DD
BE077FF6
3D775EE9
3D04D537
3D8C401C
BC867F01
3C5C1F8D
3E01CBB8
3DB21842
BD7CC47A
BC4ACB96
BD0BF9CB
BCB405DC
BDB58051
3E150395
BE2B6EA8
BBFD6B1D
3DCC25B6
BE037811
BC55DFEA
3DEEACCE
3B576492
BB861396
BDFBE3BA
BC605596
BE1190C7
BE13780E
3DFB5D87
BA6AC1BC
3DBA1503
BE176A38
BD5F5496
3D53BA91
3D8D8F02
3D09ED85
3E071E9F
3DA743A8
BDA2AEFF
BDFCA69E
3E071A5A
3DE0CD7E
3DA480F9
BD62D84A
BDB68BAC
BDC27A33
BCBB77BA
3DE87342
BDE78483
3DF623DF
3E52F35D
BDA339C5
3E2AFCFC
3DE5A648
3D5D67FC
3E1FD2A8
BDEB4C69
3CBD2718
3D083C63
BDF12817
BD787B53
BCAE9E7E
BDAE20CC
BD9934B8
3E0EDC0B
3ACF3368
BBBB9A54
3E2F8C93
BE09511B
BCE5CF46
BD6240C2
BE29CC89
3BC88094
BE0AD819
BCE76D2F
3E02E1F3
BE1CD0C0
3D9FC140
3D06EA1B
3DD2C916
BDB1498C
3D0AE6DC
3DEC63D6
3C84D22F
3D4001C3
3D3932ED
BDE32E3D
BE159D3B
3D99E82F
BC01749D
BB5870F4
3C7ED2B2
BD01C88B
BD453D11
3D5B7C94
BCF03ACC
BDB609BF
BE11EC4B
BD6F5154
3D1FB34E
BDD3D5A2
BE1A741B
3D16E30F
3D0B34BE
BC2AEDDF
3DAC9E9F
BD7FAE70
BCF9D814
BB9DE75F
BB35E7B7
3D039985
3E0B403B
BE0EA24D
BD0CC5B4
3E09C0C8
3CF20067
3DD9A24F
3CE8C006
BDE39648
3DA98F06
BE5CBE5E
BD5B9E31
3B5B8884
3D870260
3D84041A
3E4C4D5E
BDDEBA6A
BCF156C2
BDBA8292
BE2E98BE
3D8AD786
3E2726D5
3C37D5FA
3CF601A6
3D3AD998
BB52575E
BD839903
3E1E5BC3
3D5EF888
BC0185FF
3DA575D0
BDAA7066
BD0697D7
3E05D5AC
3DA69090
BDE1275B
3D8388FF
3D951A6B
BD0B7431
3D915008
3E289B4E
3B9A6090
BDCB2573
BD4B2245
BDE9EB07
BD62B0E0
3D9FC0A5
BDA8A777
3D3E4FFB
3E297CBA
BD964B4F
BE0C8546
3DA90C40
BD7C36BD
3E53D277
BD826C5C
3E5FC31E
3D18F0B3
BCCDFB8A
BE1B1070
BD58F767
3E0CB548
3DA85F40
BE091F5C
3E2741ED
3AA80577
BD238FE3
BD5C2643
3C4CD88A
3D99AA5E
BD19102A
BCD73BBE
3DAEA4C8
3E3FE6CF
BD98B545
BD983DC3
3C8E98B9
BDBDE1FA
3DF853AF
BBACB881
3CF1D18C
BCAF51BD
3C1AFB35
3E35CDBF
3DFA3351
BD9EA8C3
BD03BFFB
3CDC9756
BC50E52C
3D1276DB
BBA725AD
3DB4CC2E
3C2C749C
3D5CE6D2
BDB7F237
B9EA4AE9
BDC34B73
3DC0EB63
BC303B23
BD6E8CFF
BBAAD166
3D13402E
3DA47FB6
BDB9911F
3D43BA8A
BCE619DD
3BC2D956
3E5320D2
3D259F75
3DF85839
3E1CDB3F
BD3AC204
BD98693D
3DDB03AE
BDAB22F5
3DAF58AB
BE18DA00
BC919FD2
37189CA6
3D21E623
BCED1A0F
BDB6B462
39047D86
3D01923F
BD05FBDB
3CD001C6
3D95E59D
3DBE6A5F
BDD03B9F
BB445159
BE29E92B
3D106A4B
BD30A93D
3D6B8C91
BB7525A6
3DC27FEF
BE06D03A
3ABF2C2F
3CFAA996
3D0786D0
BC1AF692
3DE93B50
3DC813BB
BCBD414F
BD2BDB8D
3C744ABC
3DF728AB
3D4AD8B1
3CA2772A
3DA1B903
BCF9D24D
3CB76766
BE1223A4
3C93696D
3C4B770B
BD518D0B
3DE92D26
BD6F79DD
BC66639A
BC9013FF
3D975EC1
3C9FEA13
BDC63EE5
3D99EC3E
BD89AA33
3B0156A5
3D3DA602
BDF8F362
BDD46872
3DE5EB24
3CD57F03
BC5B8919
3D7C90FF
3D5871D7
3DB36DC5
BD9460C0
BD54E24E
BC2AE441
3D71DEFE
BCD53BF4
3DBCC3B1
BDA63CCD
BCD4CEA5
BD8C181E
3D92B080
BDA0A653
BDDECFAD
3E1749ED
BB75B4B8
BAC426E2
BD192B3C
3D1114A0
3D6F85BC
3D9AA4D4
3B25A32D
BC26F50E
BCA40920
3DD1BADE
3E15D3A1
3CB54E87
BC9A2AD2
BD156F66
3D9983E6
BC848DCF
3D45DF5C
BD084D4C
BDE4A3E5
3C0F64EA
3DA8E3DD
3DA8B855
BB136D53
3DB181D8
3CFA4153
BBA77396
BD499FCB
BD5838AF
BDD3E188
BCF64B66
BDA8D6A4
BCDD09F5
BDA22AD7
3DFFD15D
BD777034
BC1294F0
BE179731
BDF392ED
3DCA4678
BD58B3DA
3D94091C
3D595F3C
3D9DEDDA
BDF4C2D9
BDC97717
BD2D19B5
BDDB3B57
3DB99F25
BDE67EA2
3C328B52
BDFBC25B
BC989AEC
3D758BAD
BCAAC1A4
3DEC943E
3D11B71D
3DA3FB03
BD4D86C5
BE2247A3
3DBF823A
BC65B638
BE718CC4
BD0E7269
BD4FECF7
3C0E3597
3E05B261
3E1D3212
BD0415C7
3DE8AF31
3C8E4077
3E86BAC0
BD9C3255
BE20EA11
BD1172FA
3E0991E7
BD48FF67
3DF1DA4D
BD631903
BDC2D4A2
3D0DA59D
3E01910C
3DF00ACE
BE3014A8
3E27EF47
BD4982FA
3DC383DA
BD3A8C1F
3E352115
3D8035C8
3C5D279F
BE09D9D9
BE0BBBFE
3CB330A6
3E17D156
3E075ECD
BB6C160D
3DB45C58
BE4AEDB6
BD93B26B
BCEA2A71
BE05E422
BD6336E3
BDB04EFD
3DC040F6
BC0533FA
3CFCE62C
BCC06759
3D6E5DE6
3D5E40C5
3E27FE5D
3DADA4D3
BA8B2D03
3E0C2903
3DCA44A4
BDB8741D
3DF88982
BDB11CAC
3CC01D6A
BDFFC079
BCEB132C
BD588E82
BD524711
BDC4756C
BBE87100
3D3541F7
3E08F8FF
3E07E2A1
3CFC71AA
BD7E5248
3DCF1F6E
3E0A6AC4
3D5FC8E3
BE0BD751
BBB31CCB
3D65C421
3D452F92
3B81A91A
BDFDB852
BCE1D406
3BF4952C
BDBD0873
BCB01673
BDA86717
3E47C104
BD835CEC
BCD9A7CC
BC061D03
3CA41311
BDB44859
BDA5D6D2
BD07EC41
3DCC0AD8
BE020360
BCDC74F3
3D995F9D
3D9060FE
3CE2E4FF
3D4F779B
3D92C58B
3D96574B
BDF02A32
3C4085F7
3D03019C
BDDD84B5
BC8325C8
3D44E271
BDE8515C
3E187C0B
3C641B74
3D9A6662
BC380A43
BC301886
3E05E328
3D6F6B7B
3D86810A
3D8CEAC2
BD2A0D84
BCEBF2C6
BD5E58FD
BDC4A621
BDC43A66
BDC3E48F
3E43702C
BDB70F52
BDDA27DA
BE16C962
3C60AC4A
BE32D6F0
BD9383C6
BE3C05DF
3BE65DBD
3D82CBE9
BD672E00
BD8C88A3
3C3A40DE
BDE2FE92
BD84F518
3D6ECF65
3E0D06FB
3DED8397
3DCE3B2C
BD76EFCE
BD3B1148
3CDA930B
3E3EBA1D
3B7CC16E
BD2C6DEB
BD9DF9E2
3CA54EA1
3E1DE12C
3D5A1B84
3D0A7FBC
BE4259C4
3D18B28D
3BC5DE3B
3E060FD5
3CEBBDE7
3DD825F8
BDF94C57
3D5D7252
BD07164F
3DAC8EB3
3DF0A8FB
BD949DA9
BDDEACF6
3DA0B011
BCE3D4E3
3E75ABE6
BE1C4A4E
BC69A077
BDE86F33
3E2A4C06
3A704034
BE4433F7
BE3E0E86
3DE569CE
BC0762C2
BD302C3A
3D079697
3D2D5911
3E1FE2B8
3B938B04
3C870499
3CCDF661
3D824D93
BE0FE0C1
3D0B1260
3DD413FE
3CD29E04
BD6BE4CC
BCE1FB55
BD06ADB7
3DB1AACF
3DB10D1E
3C678333
BC32C03D
3D8927F4
3DD4F937
3D63DC9C
3CEA24EC
3A846101
3D63C265
3CBB1CE2
BE09C60A
3C8FD865
BD561358
3E05E365
BE6080E1
3B1F315C
BCEDDE65
BD81B2AE
BDCB7614
3DC6749E
BD423B3D
BDA5A94A
384F0CBA
3DE77F7A
BE4000B1
BDFD1172
BC5DC102
BD2C3D54
BD4F7582
BD9097AC
3E1BED03
BDF9CFC1
BDDE3E82
3CFF35F4
BE126EAC
3DA1206E
3DC051D5
BCD5F3F1
3CAF53E5
3D17B272
3B559B2A
3E3D9359
3CA75A42
BD7F6FF0
BD389CEC
3DD43BB2
BBA7AAE5
BCBF44C7
BC12915D
3E2AB7F7
BC8817D6
3D9E357F
3E0706CD
BCA4E7B8
BE2F2492
3D893CBB
BBB59FF6
BE1B71AC
3C46D1BE
3CA77508
3D7433AA
3D316FE3
BB492A18
BD4C74C4
BDCE72F2
3D638473
3D97E5A1
3D6EC594
BD4C99E4
BDE22AD4
3C9F298A
3D937665
BDF66F61
3D9D8E17
BD5C037B
BDEA3B1A
38D95128
BD8BC5E8
BC88F2E0
BE0E8AF8
3DBF9A7F
3D9B2238
3D17A1FE
3C9C848F
BC31BA97
BDA9B541
3E0DDB7B
BE2B75F3
BDA45A59
BD0F76C8
3D9A9871
BE165FB9
3DD12EE4
BCA9D181
3CFA0B7D
3C6E699E
BC87F391
BD6963D7
3C8383E1
BDD408FA
BD7F24A3
BE0891A1
3D54EC4A
BD94ED05
3DE50262
3D83A9CF
BB06C84A
3D33CF9B
3C76DA7B
BD07EBD4
3DDDE7F9
BC152166
BD87F441
3CEAFB12
3D9CFA4D
BC0D8DCE
BD630738
3D3CDA75
3DA6B20E
BDF96728
3CBA0DA5
3D96C96B
BD6C342C
3DA465E5
3E036A9F
3D456EA3
BD4280D2
3DBB44B5
3DBABC77
3D04E3F9
3C0E0830
BD448E25
BCCF0FAC
3E12B8B6
BDDD11E8
3D3B2528
BD08D5C7
BDEF5DBA
3DBAC122
BB63E27C
BE3EE1C5
3DE9858F
BCF8BE49
3D8C1181
3C54AB79
3E094974
BCDF9572
BD749E94
BE394F81
BD195382
BB372E1B
3D317E21
3DA791E2
BC9C7FD2
3BC3F763
BC937200
3C52F57C
BE20C960
BD93BBFC
BE1574C9
BD08DF8F
3DCF1F61
3D7FB32F
BBAED831
3C81CF16
3E441475
3CF1FD04
BE2CC204
3E3874A9
BE180B56
BDB4F73B
3C8F9AB0
3D8B3F25
BDBA09A5
3D68B139
3B6CD7BB
3DF7D062
BE58663E
3DD9377E
3E02C0C8
BDD80186
3C7D46C6
3D99A121
BE22E2BC
BDB1490A
3DDE428C
BDAE1896
3D380C34
3D4FD3E9
BDD33BC6
BDA4C718
BD0E69FF
BC714C85
3D99E74D
BCE1F3FC
3D867E78
3CDAE439
BDDF92DF
3D8A19D4
3AEC42AD
3E24BAD6
BD8392E1
3CC5231B
3DA82C76
3DF4506A
3C8E87AA
BB9AC129
BD798764
3DE498E1
3D7D31E4
BD841D5C
3CD50518
3E2D1460
3D1FBFC5
BE32E647
3DDE30DC
3BEC4472
3D7B1591
BD75366B
BD97B5B1
BB8DFC1D
3D3E742C
BDAE4EE4
3D6670D2
BE4C66CA
3D9E167C
3B863246
BD52A8DB
BD572185
BDCE23B4
BC7E6E48
BBC84BA8
BE0D723C
3CF82A55
3D28F9A1
BDF16509
BB3957BF
3E272F30
3DF3CD77
3C5C4929
3E09CA01
3D8E1E61
3E49142D
3C82BE60
BE31F5F5
BD04B484
BD94496E
3DEF9027
3DFC4C8B
BCE23ABC
3DBB7308
BD881BFF
BB27CB41
BD8CCD1B
BBE4F2A6
3D46F074
3D7C32BF
3B8DC83C
BDCF14A9
BCBFB79E
3DF2DF09
BDAD5CDD
3BFFFE20
BD33582A
3D036650
BB71E62F
3DC27BEF
3DE3C1E4
3DDB82C3
3BC7026B
3DC69AB1
3C02D634
BDED5251
3D91B0A7
BCA438DF
3C0E9055
BB7A0247
BD4B5600
3E0D936D
BDBAA397
BD6D20ED
BCCDDFEB
BC5ADB04
3D18C5E6
3DBD9AC8
3E1C2829
BD8F5680
3D88E07A
3DAFB3D5
3E20E18B
BE039885
3C42B570
BE3CC3F1
BC472FF7
BDD72010
BCCA5263
BD510F0F
BD917F79
BC55BBF2
BE06A0A8
BDA5B0DC
3D02619C
BD9F91FA
3DC0BB8D
BD11831E
BDDEA194
3CA26B85
BDEECA5F
BE029752
BC593DDE
BD854F74
3D4CD1FA
3D3B355A
BD00E122
BE19B7A6
3DCC5DB4
3E29716C
BDF47324
BD4B595D
3CF1C1C6
3DDCF838
3DA80C1E
BD9149A1
3E014C32
BDBF4A9C
BDD9EF0B
3D2B757D
3DBE1407
BD864A77
BDC2519E
BD160892
BE2EBBC4
BDCB656A
BDB6051D
BCE1F570
3DF1BD77
3D88E203
3E0899B3
BDDCFFDA
BE15D167
3C6C868B
BDA07077
BDE2A616
BC88CA15
3DB67B67
3C302F41
BCF80450
3DCF0F14
3CA85E2F
BCDAF091
3D85C7FD
3DB79C06
3C4BC3F9
BCE5DB0A
BD0C3BE9
BD84A3EE
3BFADDDC
BD4C0295
3D91C18F
3D0866D3
3DE72C4F
3DE60C43
3C849310
3C551704
BDD1FFB6
3DB6206C
BDC9E7FA
3D457A0F
3B6B8F38
3DAD03F3
BE431150
BBCCE471
3D824684
BCFCCE30
BDCB7644
BD033F40
3D2F4C5A
BE0355BE
3E1FB99F
BCABA770
BD97B154
3D4601FA
BD554B0A
3E475DDF
3AD0C81F
3E37C2DD
3D96962D
BDA6350C
BD526483
3C3F938C
BC689B49
3DE40BE2
3C332B8E
3BE15E16
BC6521AD
BD2A474A
BD0F0DD2
BC8900DD
BD9C15EE
BE3B4C81
BC1E65D8
3D32D346
BDDE597C
BD0130F1
3D2B4919
BDA8C050
BD5C25B6
3DD9E166
3D923B36
BDC55105
3CF0A5D9
3E356052
BE00EF85
BE1B6817
BD64D352
BDD19DE8
3E06EC9E
3BCD1F6A
3D8554B4
3BC5C458
BAFA8002
3D02C3F0
3DB13EE6
3D5F3FCF
BCF659BE
BE3534E1
BD3B5FD6
BE39B1F7
BCF6276B
3E254F3C
3A56EF4E
BB8DBCF5
3D04CA58
3C3004D4
BD31D42D
BDC1E62C
3D1D8AD8
BD41931C
3DDA4B29
3D8683CF
3D4303C6
BA87A0D1
3C49BCEA
3D959DC8
3D0CCA59
BD1141EC
BB92AAAE
3E17C3F0
BE37011F
BDEE907A
3D395259
3DACF0E5
3C84B6EC
3C3E0476
BE0C7100
BC0A3632
3DA16618
3D91662E
BE0F5F56
3D287C1C
3D4BE892
3BA9799C
BE159F02
BA7ADFC5
3B83E673
3DA266C7
BE065935
BE18EA50
BCCAAC50
BD9C0BA8
BD88D7CC
3D325FB0
BD936B28
BDC7E608
BD4D4E8D
BDDD165E
3E43928B
BE511E38
3CE95123
BD15DE40
BE1C8536
3D7F33AA
3DA481B6
BDFBCAD2
3B1ADD77
3D74A31B
BB9803B3
3DFA5550
3D7A8CC1
BD5FC76C
3DEDAE56
BCC53496
3CC4CE20
BD85991F
3DB63223
BC804D64
BE0C1FB4
BB6835ED
BD17D8B8
3D575D14
BD2D1309
BD8BA394
BD9B6A73
BD56AF79
3E05D676
BCF1D387
BDFAEBAE
3DACFE21
BC133F02
3CA6E4C7
3DB2F08D
3C9F23A4
BD9619C5
BD68DBBF
BDCF2E29
BC2F4BDF
BDA2F8A2
3D5F665B
BCAFE8D8
BC87E9E5
BC0207DB
3D821A99
BD22390B
BD246DDA
3DCF3819
BBDF1A9E
3D72777E
BD59173B
3D99A57A
3DB38055
BD393848
3DCBFD7C
BDBDB4D0
BD74A911
3D820E60
BDF5B5BF
BD654340
BDF12711
3C949E8B
3D2224AD
BD3089AC
BCD2F59C
3D26A29C
3E395BF3
BDAC4C05
BE2E87FF
BD8941C6
BE0FFD03
BE24248F
3E0B7985
BDB5DDFB
BCB2EC89
BD8EF5B5
BDC8E66B
BE1DABD5
BCA1F90B
3D8EC58F
BDDEC3C7
BB674FEF
3DB8ABEA
BDA16EAD
3C8E7686
3DC157AF
3DC69B5B
BC33155B
3E17AC49
3CE401BA
BDDC055F
BDDA1CAA
3DB52EC7
3D3B6E6C
3C900097
BE2CBEAE
BCB8B98C
BD8B12EE
3DF1BA5D
BD154377
3DD87B7A
BE5DB6C4
BD93C383
3CCB9F59
3D1E2C1E
BE15A26A
3E041F7D
BD4207FE
3D82A087
BDE39972
3D8C1A9F
3CE0E6AC
3D5F5838
3E08F911
3E1D7F3B
3C688C9B
BE43174B
BDDB9328
BE24EEC9
3C8EFA93
BDA9342D
BDB04036
3D109DE3
BBA5CCC6
3D09779D
3E50649D
BD5CE75D
BE0D4380
3D63FB01
BDF40489
3DFCBFF5
3CAAF8BF
3BC75D1F
3B9FE9B6
BDD32C0F
3E0125B1
BD8B57F9
BC7D6A80
3D2FD9AF
BD7053D5
3C03AA09
3E2AF265
3D7FC97C
BAF9B9EE
BC7DABE8
BE110E9F
3E1515B1
BD81A1AE
3E0C51AD
BC8C8B91
BD51D813
BD62664D
3DE69EDE
BD9BA0B5
3C86C4C0
3C61EC09
BC6163D9
3D4D4B9B
3BB2751D
BDE9B324
BD0E6F6C
BDD15D6A
BBC86473
BE11312C
BDE70E20
3E4E9A41
3CA5B64A
3C59339A
3E62DDCE
BD20A474
BDB40395
3DD2BD1E
3E144540
BD0E1C46
3D5FBFB8
BE1D4D7C
BD90339E
BD44113F
3D490A08
BE3B75DA
BDB215DE
3DA065A7
3D530D67
3CDDBBAD
3D8FD442
3D49ECCE
BDA4A9D4
BD8C8CEB
3BBB8070
BC07ED5F
3DDBC6C8
BDC5D537
BDA32D7B
3CE3AD66
BD4A8315
BD3991A6
3DCB32F2
BD2CA762
BD716C7B
3D29966A
3DEF9F27
3DDA16E9
3D987D80
BC7468AD
BDA1D28F
3D7F40DE
BE4076C6
3C78CBB0
BD16BC0C
BD5F0653
BC7A52AB
3DE7B9D0
3E44D21B
BE04BB54
BDB3E57F
3DAA73AD
BCF5B952
BB201441
BDD556FC
BE07FA21
3CBB4C6B
3DE860FE
BE0EE831
BDD68FC1
BDFA35BB
3D8259B7
3E02F8DF
3D29DF6C
3D30ECDD
3C613326
3E33AD21
3BEF8514
3E0DFBA8
3E06FF54
3E3A00AB
BC1CC755
3CB08042
3CFCCB78
3D3EA89B
BDC2AF90
BC2A634D
BDA30DC3
3DDD5C15
3DCA3422
BDD5D9A6
BD3ACEF6
3DA43714
3E2E5BB0
3D08F6C8
3DFEB651
BC2B1A62
BB2DB92A
3E2D8917
BD0654E5
3E00CA54
3E1676AC
BCC2AD87
BE3E1083
3B884A35
3DA30F13
BDFACDB1
BBFB71BA
3D1F694F
3D19A3F0
BDCAF852
BD577843
3D2395AD
BD12E73C
3D52551B
BD803850
3D54AC70
BD94E350
3E1849E3
BD83467A
BD261687
BD82DD6A
3C1FB877
BD31BA06
3A7E8A19
BCDAA595
BE2DAEBA
3CB3CD4B
BD4C2778
BE27DF02
BDB91080
BD7C5D0C
BD3D6E7D
BD709714
3D059E9D
3C2A5492
BD425D92
BD47A96C
3D286DFA
BD0A39D2
3CB03AEC
3E1121E2
3D399474
3E1D36C7
3D9FC67C
BCDAAAF3
BDE810A3
BD633A5C
BC996F4D
3DDB48F4
BE056BE7
BBB6236E
BD302B9B
BDBA3E82
3E2CE714
3E020C70
BD8DB583
3D3CD00C
BCE0F928
BC444099
3DA722E8
BD913B10
3CE67B21
BD3FC37B
3E0F04FB
BD59AAEA
BDA6B22B
BDC9B38B
BD9DAE01
3E26295E
BDE18A66
BDC88528
3D9B648F
BCAA972E
BDFD680A
3D0DAAAD
3E418F73
3D15CB22
BCB1ABAE
BD0B6538
BDD8DE02
BB520518
BCBAD859
3D065933
3D816462
BDEF2B2A
3DAA5ADB
BC3537D6
3CACCBD3
3C90CBE2
3CABF79B
3E007910
BD74FBEC
3CF45540
BD52E18D
3D923FE9
3CB1768D
3C6A7CD3
BCC37517
BE245FAD
BDAAE7EB
3CAB20F6
BDBAA603
3E2BD5C1
3D95D3DC
BDB1E439
3E29B0F4
BD00B712
3A8F45AE
3DF49C25
3D7D9C99
3D991056
BD53F955
BDE8F3C9
BBF008A8
BD746854
BD92D9BA
3CCF1E75
BD986386
BD809724
BDBB4C4B
3D91C37B
3BADC880
BD58B90C
BD47893A
BB31F1F7
3D578ED2
3DC0C6AC
BCCE2625
BD8168EE
3DB36CFB
3D8EA53E
BE153D9B
3CA6752A
3DCAF1DF
3D48A3FE
BCA4E7ED
3CF1A6AC
3C9C705C
3D3EFA1F
3C9826A8
3E76D0C4
3DCE8FCE
3E177FAE
3DBA53B4
3E0552C5
3D557AA8
3DE75E14
BE2B5C75
3CECCF80
3E14D6FA
BDA2C4F5
BE063A50
BD6CABE8
BE2EDF3E
BDA94C29
3D185D64
BE0334F4
BDCD8D25
3DC7CD38
BD3121EE
3E0E7BE9
3DF358EA
3D718C88
3D98AA98
BE03D3B8
3DD4785A
BDBBBF22
BCDB7AF7
BCA36DA5
BDEB1C91
BDD80878
BD5AEB5E
3D46143D
3D879039
BCD12195
3E3FA5CE
BDE101E8
BDDCA010
BC058832
3D2B8EA6
BD0C58C9
3C6C5EF8
3D473788
3D6E4C38
BD6A818A
3D846D5F
BDC37D20
BE2223B3
BD618A4F
BE010091
BD841B95
3C6AC8A6
BDE6367E
3D7C8C4A
3D8A9238
BE1D72BB
3D3C1416
3D84BE6A
3DBC2811
BDDCD5F3
3D7FEE1D
3CF09920
3D55C340
BE116860
3DA97575
BDF60F0D
3D7085F0
3DB2FE4D
3CB82A1E
3D6D9947
3E8808CB
BDFCD60C
3E08E25B
BDE2F525
3B7618AA
BD25F4A3
3D3094DB
BCEE6E0A
BCE88C8C
BE28F169
BDFA8F6D
3E488118
3D51EC2E
3C91FDB2
3D837EF7
BCBA9510
3D9C87D0
BE2C7A43
3D2AF07C
3D4662EA
BCD1FCCA
3DC5AD98
3C835A23
BD68BEDC
BD832E14
BC9FB0C2
3D0526F8
BE16D3A5
BD229F1D
BE26AFB7
3D79C051
3DFF0D8C
3DAFBB5E
3CD95403
BE1FA907
3E2B1CEA
3DFD5BF0
BCC290DF
BDECD413
3DBD0F13
BD165E6C
3B23E2F2
BD366248
BD66E741
BDA4CF61
BD5A15E1
BDA7C872
BE36E700
BD6EAEFA
BD8490C9
3BB47FBD
3DAA345B
3D9E2362
3E21A55D
3DB82B51
3E24F0B4
3D110783
BDC3C4E0
BD64FC19
3D89A5F8
BDD49584
3E059268
3B8396BF
BD23A92D
3D945E5C
3E229376
BE069BED
BD0AD8ED
BDA5B1E6
3DB80A05
BE15DAB9
3DE5B494
BCC5D1CC
3DA89D56
3E6A45DF
3E76F400
BD34BCB0
3DA0F020
BD8A162D
3CEE95F0
BD61BA47
3E10E8E3
3D782EE2
BDE2FA53
BDEFAC17
BDB7CF19
3C272890
3D87D9AB
BC20606C
BD64E535
3E13EC03
BE45338F
3BC9CC9E
3D0EAD26
BD8C1ED8
3CCB1537
BE0045B0
3D556466
BD97756F
3DCAEEDD
BE1F527D
3E0671C9
BE3390E0
3D0A0B09
BCC36FE2
3DCC1305
BD998474
BC6B097F
3D323849
3C5FFC30
BDEF5E53
BE4C79B2
BDAB0DDD
BE02AAC3
3E3FCCFF
3E405E1D
BDEB85CB
3CA7F200
3DE96F43
BC29705E
BE25AAAA
BDE4047B
BB507BCA
BE19B468
BD42960E
BD4ED5EF
BC241C1F
3DAC1945
3D4C4D52
BD869508
3D36E163
3DD60FD8
BE002800
BBEC13F6
3DCD511F
BE0C82AA
BD60E0F5
3A5AAD1D
BC5F179E
3D57BB7A
BCA1702A
BE24F530
BC2EA414
3DD4B569
3D12C830
BCABE0A8
BD5CDA07
BDBC5D53
BD8380D5
BD9A72ED
3C58AB84
BCFDD801
3E5C735A
3C76C02E
BD83117B
3CDE52C0
3E33E3C4
BE10A518
3D7FFFC9
BDC2697A
3D8AA9AC
3E00F70B
3D13B0DB
BBD033D6
BC7266F0
3DC4CF2F
3D578EDA
BC05EF1B
BD0D642B
3DA3C914
3D804BB5
3C0F6AB8
BDA7C6EC
3E1122A4
3D802C06
3DC36965
BE014B66
BA50F5D9
3D1693F5
3D38588E
3B028B16
BD06AD60
BDAC06B7
BE0C5248
3DCF8F94
3DF42261
BDFFBE2B
3CED5852
BDDFFB1E
BD2AF88E
3D15D605
3BE6240F
BE64B37F
BC8EE6C8
3CC9FF6D
3E183377
3D445D96
BD006425
BE4F3F4F
3D9B5680
BDE793BD
BD9D2283
BDF9A202
3D2283DE
3D9249D3
3E2A0639
BC0072E0
BE1EEE2B
3DA8B3CD
3ABFEBF0
BCD94285
BDA800E3
3D6BFC28
3DAFD31C
BD8B20C5
BD266F96
BD1B3E40
BE411C69
BDEF6056
3E3C3F38
BD08FA8C
3D7AF803
BE304A24
3C113EAB
BCD06B3C
BE376C4D
BD43AC8D
BB35B935
3DDA3D19
3C0FE660
3E0E5BDF
BC86FF9B
3DDAEFC1
BD5FA0B7
3E4CD0DA
3D1340A6
3DC6BFB8
3E093973
3D2866D0
3D377B09
3DB40714
BDE6830C
3CCA6667
BE0633C3
3D40A24D
3D9B280E
BDD81BE7
BDCD6AB5
3E1E84C1
399B5318
BE11666F
3DD0F5C0
BCA5DC65
3CE0D49E
3DD9A4A0
BC150B8C
3DD78D3A
BCF82B64
BC63280F
3DA9D052
BDBA3CB5
BDCA0DE9
3CDEB3EE
3DA8D883
3D8B9A3E
3C176355
BDA0F841
BD08063B
3D5E437A
3C2CC02D
BD85E6F5
BB8274C8
3CA3C63B
BC8C48DD
BD20A976
3C3A99DD
3DBE4619
BDA4AD30
3DCD5AEE
BCF3DC77
3CAB5079
3D073EE6
BE26238F
3C27938A
BD8E8BA6
BDA3795E
BD11D54B
BE1386AD
BC54C0C9
BDD3886C
BE1E2558
BD891155
BDCF80C7
3E245D27
3DD02CFE
BD9F0016
BDDE40D9
BC8267BB
3D5C63C4
BDBB4922
3E0E5945
3D266627
BB2D0268
3D840072
BDA84E7F
BD971310
BDA4CB73
3D4B3BF0
BE6157E4
3DAA2870
BC928B38
3C8F5CBE
BDBF39A6
BD2AD3C5
3E945179
BB885100
3DE16750
3E169DA5
BD96D0DA
3E3AD34C
3D4AC348
3B079D45
BC0E6065
3D9D0A94
BE058EA2
BE0595F0
3D756F3B
BD806BED
3D08797F
BDC58A33
3E0C91D5
BD393F28
3DA056D5
3DC1A28E
3E034667
3D2109FA
BD99D22E
3DF20D83
3DC5B5AA
3D2EC223
3C7DCB76
3C62FBA3
BC1E921F
BDBE6440
BD47DE67
BD13736E
BD687C25
BCB9BC62
BD846029
3C694BB8
3C6EDA46
BD7FC10E
3C2BBF76
BD78146E
3E0BE98F
3D9BFA3A
BDB225D9
BD69B62C
3E041547
BC9EE8CE
BDA06F14
BD4F6A9C
BE7E451C
BD7761B8
BC3ABE48
3D166917
BDAF1FD2
BCFDD577
3E170A0D
BCFD29E1
BD822736
BD798C61
BD382C5E
BCB98E5D
3DDE2D02
BBE6ABEE
BCA71397
3C045DA7
BCC6ACA8
BD9A414E
B793FBF8
3CCCE50B
BDD34510
BD15EB20
BC9D401C
3D471AF6
BDE0E986
BD06C852
BC77E803
3CC5F3DE
BB97CD0B
BE2BB1F9
3E057A63
BD08CCA6
3D94D2E2
BE15C00B
BD54DA4C
3CD8E0CB
3E09A976
BD43338C
3BACF42E
BD5CCCA6
BCD71ACF
BD9B20BC
3DA4CA7F
3E419AF7
3DC69121
3A1C2FBE
BD6BE121
3DD11972
BD26B125
BCD5AC5F
BC7E9CFF
BD87998D
BD585FE5
3D3A39A3
3DC03129
3D90A906
3E0F36EF
3D4E87DE
BD3BF0EA
3D4F60B7
3D609A06
BE2A1892
3E26A377
3D946DC8
3B4607DB
BE263F42
BC96F93D
BE50A05F
3CD45A9F
3ACFCBA8
BB06D4F4
BD15333C
BD628812
3D3B0DE4
BDAB39EE
BCDA36E7
BDE2560D
BD0B4DB2
BE334B0F
BE16B234
BCA44BED
3D79EB47
BAA345A7
3D14F321
BD3D5E36
BC1BD10B
BD2F3549
BD188EDF
BD759255
BCA98A0A
BDAD568A
3C10DBD3
3C735FF4
3E0BEFEC
3E185C57
BDEEC653
BE20AB6A
BDC93F69
BDF97CC9
3E53E89D
BC8DA5CB
3C4DFF98
BC7B9F00
BC76A71E
3E123279
3D92A13E
3E00ACC6
3E08FF9C
3D1D029E
3E183C8F
BD5CF50F
BE28CB85
3E1945BA
3DB6BAAD
BC93D2AE
3E14A8B7
BD156251
3E43AFB2
BBF0C43C
BCB49AA6
3CC6A95B
BCBB2FE6
3E489614
3CE6DC2A
BDB38E94
BE40931F
3DA9213A
3BC371EF
BDA87D67
3D6E3C40
3CBC25D6
BD965199
3D6C0E87
3DB286A4
3C2068BA
BD398D58
BD850576
3DD82F45
3CB03E9F
BD876435
BE0BBAB6
3D99F23E
3D9B261B
BD1703AB
BD4EAF07
BE3C0421
3C78B9A0
BDDA63CC
3C982F66
BE0ACDC7
3E111F3D
BD0C20E8
BD31959C
3E395D29
3BA65DC3
BC38D6C9
3E099A60
3D795A56
BDF53144
BDC7D530
BD7AE258
BCB62D07
BD7C8D94
BADF5377
3E340214
BDBEA7AC
BDB68022
BD766329
3D7EE02A
BDBCB957
BD2FF292
3DCBE074
3D44FC77
3DFF7E48
BD87553A
BDC4F963
BE0204EB
BE1006C7
3E43B6ED
3CC3BF52
BD3D28EF
3DE4F313
3C9E52F5
BD15888E
BD70B4BF
BCBDD0A7
BDF56DA0
BD1FB248
3D21B180
3D27232C
BDB2D65C
3DE17CBE
BE0A2C04
BD33087F
BCE07ACA
3D013207
3DB013FC
3DEE97A2
3DFC888C
BC8D6ADE
3C906750
3D5E8EA5
3D982FBC
3D7C3EA7
BCEA7BF2
BE024163
3D332853
BCEE53EF
3D8A5918
3DAF7E4D
3DC68ACF
BD425E51
BDD50D1D
3C813812
BD2344D1
3DEB486D
BD25C629
3DE0269C
3E2D4CD9
BE641AF9
3DF06750
BD89357B
BE2BD1FD
BCD9400A
BD6F6C6F
3CF81E1B
BD8186DF
BD6F9E31
BD241CD3
BD3B183F
BBF5ADD4
3CF7B34E
BD170DF9
3D5E2CC8
3DB7629F
BDB8F3B9
3CA9C5FD
BDA7A6EF
BDD25B48
3E01C24E
3D1EC0CB
BD2E792F
BDCBEF01
3E327237
BDE5CF85
3E2D4BB7
BD2CFD6B
3D7DA250
3D452196
BD83113F
BE10BADD
3E007C0B
BDB851E1
3DDBE2D8
BCDA41FA
3D6DA938
3D9C5F13
BBF3A3F6
BDF7ECD2
3D0EACAE
3CE7DC2B
BD9A1E2E
3D10255C
3D9EFF73
BE12F86A
3DF78C85
3E102599
3E44BD60
3D152722
3D9C70B6
BE056A26
BE03E464
3E01E2F2
BDE4B31A
BDA48392
BBE251C5
3DDE5B84
BD8CA888
3D386496
3DC4BD24
3D376A3E
BC892FD4
BBC074DA
BCFFAE61
BC641996
3D86E33A
BDFAF08D
BB5A2404
BE08B4D5
BD4AD3E6
BDCC9A08
3CD0DCD7
BE15F989
BE64F4B5
BD11055D
3DB9F46A
3DCC3126
BD823AD3
BD2D21B7
3DBB0A0F
3D65AFB8
BE41D2F7
BCD7A03E
BC801436
BD8CB7F4
BDC8EE54
BE352B41
BCB32915
BDB3B3B2
3D5EB1AA
BD65B3C5
BE04787A
3E11CC78
3E81B9EF
3DCF0552
BCDE702A
BDCB6E3E
3D367C23
3D0F7909
3DA0B6C6
BB6C6FE8
BD8004CE
3D8AD073
BC4CC981
3DF4C9A6
3DBE084E
3D8056D6
3CA26D83
3C815C29
3C1839E9
3E4612AA
3DC4409A
3CE8FE74
BD16DE99
3DBA00F3
3D63CF8A
3DC6B29B
3DC0A682
BDB7CCF0
3D3BAEDC
3D8301DE
BC87ACAD
BE1C71B0
3D84F047
BE1E19D2
BDBC8211
3D1771C4
3CE889B0
BD5B3A1C
BD88B27A
3E20980A
BC970BF2
3DCCC987
3DEBBA3E
3D353443
3D868E35
3DAA754B
BCF96521
BDC153AB
BDA46987
BE0DF1ED
BDF456C1
BCF0874A
BDFA84CA
BE5663AF
BD48E448
3D9C6B51
BD9DE6F4
BDACF1BF
3CA04241
BB68EB22
BD54104F
3D4D2596
3D4313B9
BDB074AD
3D8F4922
BDB799D9
BC012598
BDB098EF
BE01A4C0
BE1E2E11
3CAD8050
BDAAC5D3
BD8C62B3
BD52DC2A
BD017BB7
3CD2CB52
BD302CD2
BC81EE22
BE22C3CD
3C881CBD
BC1CE95B
3BD69F30
3DBCFD40
BDCB8BA7
BD21A7B6
3D12B8E2
BE0B298F
BC866539
BE2895E5
3D92DA30
BE0D7B7C
3D412095
3CC5B811
3DA484DA
3DF3E573
BD60D32C
BE0BE6EC
3BB21BA0
BD45DE57
BDDAE648
BDD069DC
3D25228B
3D0524F6
BC006FFF
3E0D0CD0
3DD4F51B
3D16FA44
3CF33A84
BDF48583
3D933AA2
BE21D62B
BD8127F8
3DDD8D2B
BDF8259C
3B25E9A6
3D08380E
BDA5B288
BDBCA634
3E3AF092
3CD91FD4
3DD44A31
BE0D1031
BCE9ADB8
BCACDB3C
BC057381
BC9EC510
BE11225D
3CC97483
3D46B9FF
3DFD0504
3B059385
3DB16C24
3E177C65
BDED5504
3DA38740
3DF3F476
3E0DDC7A
BCC77E38
BD9E481E
BCBE9A3C
BD277F81
3C56A479
3E10909A
3CFB4D23
BDA81FE8
BE511892
3D282839
3D2E2599
3D3B7F93
BDDEB798
3B9B1AAD
3E3417F3
BD987391
3D856295
3DC02A59
BD70A466
BE1A11B5
BDDCBF67
BDF6A25E
3E3B22E6
BE368B2A
BD143F85
BDEEE525
3E1FBB85
3E2D0BB9
BD895556
BCC7E607
3D8CFAF3
BDB7A544
3E524B54
3DA7C238
BAFC7418
3D2091E1
3D9CA068
BD253BA2
BDBF7A07
BDDD6855
BC544DBE
3E1EB4BB
3D395AE3
3DF58E39
BC00112B
3CDE197A
BD75EA12
3D854556
3CFB9AC1
BC3A2CBA
BE3AFB30
BDBA1416
3DF43867
3DDC11B9
3D8C12B7
BD9B60E5
BBC69762
3C3B9D5A
BE1584DE
3D07A322
BDCB88E1
3D3AC906
3D62602C
3D9B2C3C
BD9FD8CE
BD21998E
BDB06E2A
BCDC5F33
BDA06A77
3C6C2EBF
3D30A838
3DDED56B
BD544DFA
3D6AF314
BE04E6F7
3D396ADA
BD6ED7B1
BDEDDB95
BD202270
BD0FAEC5
BC0106F9
3D9D7ABF
3D8B13D0
3CF7167B
3E00F35F
BC8D4FAE
BDE38252
BA95D344
39E61A49
3D6DBE90
3CB94235
3DDA3368
BCBF332C
BD4AF704
3D0D942E
3E1F41D2
BDC0164B
BD300097
3DB94F6E
3D7D4FE0
BDBC2075
3DEC79D4
3CAC1ADE
BDA4ABB7
BE5D4639
3D5E1ACA
BE248ACF
BDDE4341
3E2D741D
3DC264CA
3D3FE0E3
3BFE65D0
3DCCFC67
BDEE3692
3E31DA2E
3DDAA979
BD1A8505
3DE491C1
3DABF192
3DE81C56
BD0B0BE1
3A88DF8F
3DE70BEA
3AD86EA6
BD4268A8
BDB398B2
3E05C78C
3DD89B40
BC17EC0E
BD6D7762
3E093F86
BD7F17AB
BD199314
3DB3E469
BD034436
BCD5F0BD
BDF55F6C
3D83579B
3E181482
BD126D2B
BDA28FA8
3D5A864A
3B94265A
3DF67590
3C80ACFB
BC56C0AC
BDC51AA4
3DB09871
BD762484
BD89B32E
3D9F718E
3D6ED6FD
3DAB28CB
3BC3FFB8
BE0C6C97
BCFD0505
BE195862
BC66DDEC
BB8E1B62
3D6BD708
3D06270C
BDA456D2
BD735E23
BD890123
3DDB0693
BDCB8455
3D907BB1
3D5F99D5
BDC329BD
3ABD194D
BE27CC55
3CEF8DDE
3DA7D04C
3DB29B22
3CDB9F56
3C91C024
3E0F5AD8
3929D2F6
3E40BAF9
3D10F12F
BB912F4B
3C3C9C60
3C2FAEC1
BDFFFEEA
BC534BCB
3E359D74
3CE07405
3DB346A3
3DDCAE48
3CE71930
3C44404B
BD5A002C
3DDEC9E9
3BA11E2B
BCC1F67D
BD2EC084
3C35756C
3D9ADABA
3D820F67
BE1D53F8
BD3F98D2
BE12A2F8
3E1101A8
BCDCD6A0
3D40DB41
BDB76EBF
BE368D58
3CCBC080
3DA81813
3C0C696A
BDC97348
3DDE89D9
3C3A8134
3E0770C2
3CA5B258
BDCD6403
3CCF5BA3
BC158F21
3D14D22A
3DEFA75A
3CDE9EAF
BC486F68
3DA28C3B
BE3F3A22
BE04E0C2
BE2EC80D
BE2CB26B
BDD271A6
3E6FAA39
BD026EBA
3D179AB0
3E1ABFD4
BD6ECD9D
BD481F3F
3E7ED680
3DC544E4
3DD34878
BCAEAC9C
BCE2156D
BC05CC06
3D926A94
3E4A994B
3D6DCA26
3D71FEB0
3CE8DE91
BD8DAAAD
3B9638F1
3E647CBC
3E3C7F17
3C6479F5
3C81747E
BE0C871D
3C94B3A1
3CAD2BBF
BE009286
BD9180BF
3DC44179
BD39A1B9
3DAC1A32
3D485006
BDB24A3E
3E4647E0
3C0ED662
3E54A00E
BBB7B07C
BDCA5115
BE372EF5
BE41CA18
BD8193F8
BD0413DF
3CE2A009
3CE071E5
BDD7EB3F
3CAE0B21
BD2E8C2A
BD89132F
3D8F2E26
BDEE6120
BE4B363F
3DD47515
3E0E8786
BE19D055
3D86AFE1
BD996A4B
BE1DA7C0
3E1BF471
3D91A6DE
3CEC1C69
BDF53B9C
3D25A370
3CDC6889
3DBFB75D
BDFE9D27
3C9D5D3B
BE24838A
3D49CDA8
3E52E1D7
BCD32449
3E3CF760
3D85240D
3C9004F5
BD8B4C05
BDF6AB92
BCB9F1AD
3CD09FB4
3D9B893B
BDBCBCA1
3DE19E48
3E0E8DB0
3E312D4F
BD475900
BE081B2C
3DA6A570
3E28A210
3CE051CA
BE02EA6F
BD0C78C7
3E124261
BC106828
BD39214C
3E302CCB
BE2B6D95
3E0EB5C6
BE5E7E8A
3D7B5B81
BD2406DE
BD0F6DD7
BCB563D5
3D127CCC
3C4F263F
3CF11A2D
BE09A718
BE223665
BDD912D3
BDADD040
BCA13A5B
BE1798AA
3E37A983
3D20B4F9
BDE62439
3E1A2902
3DDD61CF
BE4656F2
3D09FA82
BDC2A911
3DD6EFFC
3D4F9C73
BD8E67AF
BDCBBCF8
BD5D70E6
3C349462
BDC21BD0
BCD332E4
3E3BDBFA
3D31DBE8
3E3A9BCE
BBF97515
BE324795
3CAAE1F6
3BDC53BE
BD887027
3D9D0EF8
3D970035
3C86BE12
3DAF54E4
BDF97CDF
3C4881C1
BE414944
3DF34FB6
3E2BFD99
BC8C2C97
3C8C9F54
BE2962CA
BE4141EC
BC845EF4
BDC0F084
BCC46683
BDF8908B
3C7A4F33
BE451779
3DB80F36
BDF9CAF7
3E0E02DD
BDC51FAD
3D2CD5B2
3D94D978
3DF21D54
3D334063
BE04E53F
BE3F3431
3E3F02EB
BE56756E
3DB123B3
BDC61446
3BC5F67C
3C0C7B90
BE27073D
BD86470F
3C523E0F
BCC66003
BD1CA403
3D018F55
3E15131B
3E14B4C6
BCCEEC97
3D54E98A
3E06E9DA
BD4E6E53
3A9D1694
3DDC3E16
BE150FF4
3D8BDCCF
3D82EB8A
3DBCD241
BD69EC7F
BD8480EA
BE1ACA31
BD3C4061
BE13B9E1
BD42F29C
BDDD0879
3DDB7B3E
BD84E812
3C693B8B
3D51E0DB
BD802DC1
BDCEC1E3
BDABF97F
BE0008BD
BBBF75E0
3E404640
BD696455
BC836375
BD87B0C9
3BF50D59
BCFF1E6C
BE1F23C8
BE24456A
3DB760DC
BD8B3BDA
3A967BA6
BCC122F4
BD9E00FC
3DEAB8B4
3D1F6AC1
3DA051CB
BD95D592
BC9E361D
3DF31908
3C6F312B
BDEFCEBA
3DA2B8F5
BE202271
3E169415
BADC594A
3D5BE08A
BC5B2A2F
3E11F7EB
BE18BE93
3E3AFCAB
3CD38AD4
3D4168F2
BDAA7CF8
3D257160
BD95C018
BD404309
BE437A54
BE4275C9
3C05CB44
BC408157
3BFD3228
3E86C58A
BE161620
BDFC4A0E
3E326CCA
BD81C161
3B7D1E6B
3E168ECD
3D0C4473
3CFBC95C
BDC4001C
3DBA8455
3D883FB1
3E46EBE1
3DD6380D
BE394ED7
BD43CC73
3D422533
3E8C4E57
3E347D0C
3DED9BB2
3D7855F6
BE0D16C9
BE3282F2
BD97CC4D
BC9A13F8
BD1AF2BC
BD4E66B9
3DA16502
BE5909C2
BE1ED4C3
BDDE035F
3E210EC4
3E2CA48E
3D789E92
3DAA77C1
BDA453C9
BDFC5288
BCEFF074
BDEADE6D
BBA014A2
BE045067
BD06017B
3D692289
BE161213
BDD2C729
BCFCA772
BD8A13C8
BDED3D02
3E0F5ECD
3E528CCE
BE0D8F6B
3D998BBC
3C2F574B
BD6585CA
3D9775C7
3DE16D0F
3D8B3FBE
3C7534F0
3DCDEB7C
BC047C95
3C88F366
BDCDF050
3E168213
BE85E7EE
3C76F008
3E23F85C
3C62C754
3D041B8A
BE12892C
3D0869BE
3C51BBF8
BE1B4FDD
BD9C39F4
3DC5031C
BD371540
3D248398
3D5B7373
BDD3C923
3D63748B
BD4F41A3
3DD56F7D
BCDB3A34
3E6F07DE
3D36F724
BE815826
BE0004B9
BC9050E3
3D2A70DE
BD2980EF
3DC1682C
3D2437FB
3DF37A6A
3D0E13E2
3E2B25D3
BCD00D03
BD848F47
BC7B096F
3C5AB341
3C8C84F4
BE1C314E
3CE7DA56
3D55321B
3D01B2A4
3DE8DD7B
3DC83B14
3BF3299B
BC9FE8DA
BD32A348
BD70138B
BD9EC014
3DB9CCEC
3D1EB38E
BCAC45F2
3E2A520A
BD816D0E
3D0F2794
3D577008
BBD8D344
3D7FC94D
3C1044C3
3E2BC58C
BA88A6AB
BE0C9E72
BD4EC39C
BCB4FD0C
BE170F21
BD6D8961
3D1A8C83
3D23335C
BD134BD3
BDEBDE65
BDB06266
BD672483
BCE82F5B
3C435E8B
BD833E3E
3BC0C46D
BDEE67E1
BD29077B
3B98F29F
3DF33EF1
BCFC1604
BD5259DC
3E064D64
BC3A8476
BD97BDA7
BD629AD9
3D476397
BC2D6F2E
BE040072
BD5F2CCF
BD7EC49A
BDAC42FF
3D77B0D5
3DEF7C99
BDA59DD5
3D85DBAF
3D227361
3D00ED52
BCC728CE
3DB3E5AB
3E267048
BD94622E
BD118EDB
BD57E628
3DFEF59D
3B6D2062
3DD58F1B
3D324AAA
3D6E204A
BD0810F0
BDA1649E
BDBA3525
3D6A9CFC
BE159983
3CC1CF55
3C8CD4E1
BB8A8A1B
3DB827DE
BC1253A0
BCF7B474
BBC24B22
3CBA1ABC
BD6BFA7D
3B92CF58
BCD5939B
BCB0D86A
3D1B1EF8
BE19F9A7
3DBB260D
BDFFD821
3E1740F1
3D833CB3
3D6ED57A
3DB16972
3E4113E8
BDCE1FFF
3CD8D5DE
3D67FE92
BDED268D
3E5CB536
3C87D89E
3DB27AE6
BC540600
BDC3A745
BD8B7DBD
BD5F76B1
3D1D9379
3D5BA796
3CE882A2
3CBE3189
BCE023E3
3DD92DBD
3D08EAE6
3CE80DC7
BDCDA0A7
BD8195F9
BD299566
BD2B34AB
3BA23945
3DA8D432
3CC5D00E
BCDDD257
BDDDB16D
3C4A8CE9
BDC923E1
3C85FAE2
BD2AFA5B
3E52C61D
3C6B08D6
3AFE0E42
3B1C0035
3D2050E7
BD721C1A
3D600E1D
BE0924D0
BE161CD2
3D46C2C3
3C3CFDD2
3D0E7080
3E9E0303
BD78D9CF
BE8DCCCA
3DFCC2E1
BC513094
3D37D777
3CE719B6
3D262469
BA6EBCFE
3DEB4CD1
3C5A2136
3D114A93
3D6AE6E4
BDCFC43F
BD725AA3
BCB46B38
3DE40688
BB39A19E
3E205D6C
3DB553CB
BDBF1C9B
BD427B29
BD96B8C4
BD91EF46
BCC56B69
BE2E7A37
BCCFBE62
3E29FEE8
BDB51DD9
BE46608D
BE2A48EF
BCEFC0A2
3DBFCEF1
BD1DDD34
3DD2FD14
BD9B09C8
BD599F72
3DD4CCE2
BE086E1A
BD10A9B2
BD636899
3D863EA9
BDEC617F
BE6AFFC2
3C2F3627
BD4435E8
3E08DF36
BDC2A2BA
3DDEDE44
3E3201A4
BDE23A7D
BE153570
3D4F1550
3DA045E3
BE0B2490
BCC67742
3D1A73D1
BDE2D6B9
BD5FD534
BC8FB7CD
BD915FC1
3D98E3B4
BD15BEDE
BDE18AED
3C9B84EC
BC0902BC
3CC3A5DB
3DCF43C8
3DD54B19
3DB4BD8C
3D587B2F
BC1E6F83
BDEC9348
BD4DF687
3B22FE6E
3D5787B2
3DF06DDB
BC67F9E0
BDAB7499
3DA80E07
3D509F79
3DC46D93
BC919433
BD05267C
BD8CBC6F
BE4997DD
3C0F12A0
3DBC2453
BDC40FCD
3CD30B7C
BDD4FE89
3C952D14
BDC047CD
3D0FCA10
BD821DC8
BDC073BE
3D4BCC10
3E112AD1
BC013984
3C6BBF5A
3C15BA45
BDD505CA
3DBC7745
BD9C4FE9
3DB9D06B
3E06B133
3D153B10
3D67F9C9
3DC09982
BD8C3E83
3CE1EEFB
3D3C8506
BD09FD4E
3D2E8F6C
BE2B8AAD
3D86D465
3CA522CA
3B277833
BDEBEED6
3C50462B
BD3FCD24
BCA1E8A9
BC3357A8
BD9BF071
BE05A7A7
3C0CF9EE
3DB53E17
3D164AA2
3D4D75D1
BDBF4B9F
3D94600F
3D1F1457
BDD77E57
3DA4B96C
BC7B366F
BC2B7741
BC957A46
3D93440F
BD8F70FD
3C85EBD9
3C907C9D
3C925561
BDE58D69
3DE4A7D5
3D9333F8
BD5A1A3F
BDC21D08
3DAF9137
BD364F8C
BDA8FBB2
BDC8BE3E
BD6C23A5
3D8C8F15
BDF929D7
BCACD604
BC24F57E
BE07D7B1
BD2FA583
BD624CEA
BD7A7F76
BDB2A610
3D309A41
3D4BD337
BDDCC37C
BDEE317F
3DB12117
BD43EA98
BDFE97FB
BD3FE5EC
BDD88C4B
BE1760FD
3DC8DAF2
BD748261
3C5FA6DC
BDC54422
3C2F0D48
3CF7D6EB
3D9C70EE
3D984ADE
3D7C98AE
BE1AA1B9
3DBEF4AA
BCB293C0
BD7B162E
BC747820
3DCE68A0
3DEF3C65
BC3146CB
BD009222
BCDAA659
3CB5EE75
3B6B3F85
3E15FB82
BDB11C19
3CB79F2C
BDA04522
3C2F070F
BCC57908
BDD7929C
3D6F6731
BDF186A3
3E0FDC02
BDE56B9C
3D9CBE1C
3CC5CAFC
BDE49F06
BCEB82CE
3DF86E6D
3D427F8A
3B06A780
3E344E7B
BD9602FB
BDE5F76C
3D7A7112
3D779649
3DD5A4E1
BE074A4C
3D4DFE4A
BE1A2D76
3AB093FB
3DCEAACE
3D8C664A
BCA471EF
3D4DA94D
3DAB1921
BC0FAC40
BD92DA88
BE5E8663
BDB99D2B
BE381223
3E03B9B3
BD82809A
BE165952
BE2E8730
3CF61D7A
BE185F70
BD1BF20C
BDC6B807
BC3C17FE
BE3FD5B3
3D2779E5
BD10926E
BE0795AA
3E1C9915
3D9456E8
BCA6A4C3
3DF700A2
3CB90283
3E13E1C4
3DBC89AE
BC0CE765
BD569BCE
3E20690D
3E61765D
BD07CBDE
3CACC901
BDA2971A
BD8C21C9
3E1A2F36
BCE34E98
3E084FA8
BE1DF613
3D75648F
BD9ED9FA
3C9DF066
3DBA9C8A
BDB82E44
3DD41D36
3B03F7C9
BE61011A
BC8B95F9
3E60FE25
BC755D3D
3D2A8059
3E7449F1
BE39CA0E
3A23D0B2
3DC0332D
BD0EB63D
BC2242CD
BD0F93C1
BDFFE0FF
3C35E17C
3D1CCEE7
3D9E39FE
BE168BDD
BCB20F9A
3D716CE2
3E2858E6
3D3FED56
BE185B77
3CB7F8E9
3CB48511
BC305CBE
BC8DE95C
BDDD6532
BD5F2427
3DA15893
3DC46089
BAD7CEED
BDE1BA64
BE52E259
3D1BD501
BA5B5428
3C1F0758
BDD6EC55
BDD31BE3
BE1AC990
BD2E4137
3DE4A4FC
BE6C2DA5
3D691932
BDC1BBC5
3E08579C
3C8E806E
BD2872A4
3C9CFBC1
BC9AF59F
3C804246
BB24A791
3D88E517
BE1B2C01
3E202157
3E162925
3CEC62C9
3E154D32
3D33269C
3D8173FA
BC4ABF6A
3DC8B050
BE100776
BD054195
BD94DA1A
3D552457
3D84B7AB
BE420B14
3CAED569
3D6412DF
3E13159C
3C16AE9B
BE658C04
3E03843F
3CC62EC3
3DA6E44D
3C062C3E
3E45FB65
3D08AE45
3DF90E04
BC762F87
BE2568BB
BE340F28
3D612B13
3DB050CE
3E71257F
BE3FA403
3E2B32E8
BAE4F5E7
BE0B18EA
3C94933C
3D5CEA74
BDF6102F
3CD382E3
BDA45699
BE123C29
BE2C2336
BDC1C96C
3DA23D2D
BE35823F
BD99B19C
BDD11FDC
BD1E5D80
BE435C13
BE376355
3E0343CE
BD5EA24B
BD6E1319
BD788AA4
3D955F0D
BD960991
BE01C7CB
3E09CD4B
3DBF6490
3DA70C43
3E01639D
3D101EF5
BD18E9AB
BD86C02F
3CCB391B
3BE66EC0
3BF8D942
3D5651F4
BDEB3058
BE1025D6
BCCA4B46
3C70E16B
BD1DB653
BD82CEEA
BD90A2CA
3D9C1AA1
BD0C8025
3E1ACCB0
BD009A7A
3E25CA94
BC5986B5
BE09B72F
3DC34ECB
BC4B9B3F
3DEB48F9
3CB2B018
BDCACBBE
BD46E600
3CFC6E1C
BD76453A
3DAA9A83
BDFE25CA
BD8AC6A5
BDCD715F
3E1D6B2E
BD1FFD55
3E4C6159
BD864405
BC03DA4B
3DB58DB0
BDC55A54
3D83C5AB
BC4BC9BB
3D9FABB6
BDA88572
BE30AF52
BC051027
BB06195C
3D8562EB
3E111DA7
BD429952
BD9542C5
BD4B1B54
BD4F5DB8
BD435301
BDFE47FF
3CAFB136
BD186CB8
3D1D806B
BD65456C
BD695112
3E2AAC64
3DB5F0B8
BE1E69FA
3D8F8265
3E51954C
3D4D8F4C
3DB4B943
BD045C7D
BD18A9BE
BD417267
3D848576
3E2AE0E0
BE4D21A5
BDAE6D9B
BE067C68
3C89035D
BE49851D
3DA0E407
3D7D7CA5
BC8BC660
3D75EF5A
3E497DFD
3DB14B46
3E218178
3D062D47
BE2BEC80
BD2AF4EA
BBA75D6B
BD9E595A
BDBF4A5A
BE031A2D
3CE8D9C6
3E2A46D5
BD9322FA
3CFF3506
3D80EDE3
BE18353A
BCED1AD7
3D74665E
BCF356E3
BD280251
BDCB3E45
3E4B1193
BE0BCEA5
3E0F83CE
BE1684DB
BD5FDACA
BDA2DCCB
BDCA0F23
3D63A60A
3E3A1DDC
3E4AE43B
BDBF30BE
BDD829AA
BDC23849
BD69E807
BB8B4BC2
3DE6CFC9
3E396F6F
3D0F8E8B
3E0260EC
3E2F6F96
3DF8AF83
BE1D57D1
3C446D59
3D62BFB2
3D69A323
3DEAFBE3
BE2ECBC3
BE1EB2D5
BBCDFCE6
3C60754D
3C21615F
BE4C70F3
3C87AEB9
BD3B0449
3D97F222
3D6F0686
3E3203B2
BCAA1B12
3D10C7FA
3E19728E
BC649E40
BD9DF010
BD756BCA
BE1A5015
3C248B34
3D8880AE
BB3C2464
BE0B14A0
BD0E2848
BE05B5C9
3D07CCD8
BC8BA6A6
BE0B3EB0
BD66FB90
BE17B286
3D98B364
3AE60DDC
3C8AA319
3C759D10
3DCD7B90
3DC335F3
BE3C0481
BD97D867
3D43F6E9
BCC01D7D
3DC476D8
3E0BCBA2
3D77DC39
BD8AD676
BE54F247
3DDDACE4
3D06A6B5
BE07030D
BD85E65E
BD6410F6
3CC7FD56
BD119A84
3ABECC35
3D98F446
3E10C18D
BDB2D7A5
3D9B2846
3CDD9A19
BD9C8831
3E152586
BDE5E865
BDDE12A5
BCB3D534
3D5577D0
BC671C76
BD9A618F
3A80F707
3D318A27
3D1B6CC9
BE013481
3D5BCA4F
BDED54D6
3E329F2B
3D97F092
BDB32A5C
BE209807
3DB12205
BDF5E888
3DA8A4E3
BD9DC18C
3DA618A8
3C3D6F6E
3DDF22FD
3D87CF3B
3DCB16BC
3E0EBD89
BE1010F8
3D5C7831
BD7B9871
BE569A11
3D73868E
3DCAA87D
BE208DA6
BDEA14D2
3D7CFB41
BD588056
3D7EE1CB
BE220496
3BE0B7ED
BD5A2FC8
3D7EB5A7
3BADB936
3D7DB82C
3D6831CE
3DD95652
BC20C24F
BE39726B
BD6F9050
BE0F6175
3D8FF61B
3D1C6939
3DD660EC
BD62E450
3CF9E6CE
3E1EDCED
BC7683DC
BB135D75
3DDB8E87
3D83DEF5
3DBAC73A
BE1DC76F
BDC881D4
3E1A2FEE
3DE27C32
3DADF2AB
3D7FB661
3DAF6A2B
3E4E14B6
3D935DFF
3DDE935D
BE15BFF0
3CB1407F
3E4D46E5
BD9984E3
BE015633
BDD42E89
3DC5E922
BC8744B8
BE07413C
3C7F5CAF
3DA00F0A
BE10A96C
3DC2F557
BC19004D
3C987F6D
BE257FF3
3CADD74B
3DA557CD
3DA89472
BDAE87EE
BE2D3848
3C0AF63D
3E185B46
3D888976
BDC73E44
BDD718DA
3DBB2D89
BD38A647
3BE744B9
BDDA38C9
3D323C14
3DE4437F
3B86E1CD
3D5B922B
BCB839E8
BDD7220A
3E20C24A
BD45B768
BDC20706
BD7BC6C3
BD8807E1
BC901959
3C91EB24
3DC5CC84
3E844F4C
BDF05B93
BDEBACE5
3D1BEAF1
BDF0B8FA
BDC1F06D
BCA05B23
3D3B7CB4
BDC47ECA
3E12D54C
BCA545CE
3D2967A1
3DA12C36
BDB7ECA7
3D73E0E4
BD93558C
3D5B4534
3DB9CB10
BDB1B087
BD997D95
3D8E30B0
BDA90466
3D1FD779
BBD4B8A7
3E002E9C
BD3B4BA0
3E3D9601
3E2C53E0
3D563D16
BD443F04
3D3C9FC0
3DF27A26
3D0FECFA
3DB4D04B
3E5133D2
BDD34024
3E2C45D4
3E0321D7
BE30CB0E
BDBAAFEA
3C54FC26
3C915A77
BD9D2147
BE0EB75B
3CF3CB22
3D190509
3D9A3437
3D2785C0
BE20765D
3CE281FC
BC25E526
3DBC6A20
3D3172EB
BE05D3D6
BE026D19
BE3C1ADC
3E121098
3CCC08F6
BDB3922C
3D46141E
3D7BCFBA
3C8F86A2
BE1A062C
3E0EAE2D
3E0FF81C
BAD3CAD4
BE2C6E8A
3C883A1A
BE1DCB10
BDD8FB89
BD04CB9C
BD827A11
3D9D43A3
3D04465E
3C9B6624
3E002E38
BD9CDFC1
3DB9C361
3D7280E2
BDF9F901
3DB603EC
3DD6D148
BDF00031
BDF75B6D
3C92B5BA
3D3B26C5
BD8CC4C5
3C3C5278
BD62F330
BB98954E
3CA0C9A9
3B308EE9
3C06D2C6
BE489AA4
3BE09E9C
3E1D3329
3DA94975
BE48E594
3CDADB36
BC46A12B
BD61FC82
3E0B42E5
3DA6E687
3D8BC197
BBCF0541
BDD32A19
3E007629
3D7B4928
3D49325F
BCEFBA1E
3D16A70A
BD323A56
3E011B7E
3CE917C7
BC99086B
BDF171E8
3E39DDAD
BE341690
3D918539
3E29A93E
3CE6D7CF
BC15FE67
BDFD489B
3D8769F8
BC8945FA
BC2B49EE
399BF5D0
BD432F06
BE403731
BCF7B3B7
3D1695AE
3DF0A0B8
3BAC2D66
3E2BA794
3D9DF4DB
BE2473D6
BE0C91C4
3CCF11B0
BDB9AD9B
3DC37718
BB6C6EAF
BD055F4F
3DFF582E
3D30F98F
3CE4CAAD
BE19EBFF
BDD9CC39
BD90E79D
3D83A046
BDB3D2EE
3D90C280
BDBA0CFA
BD9119DC
BD9AFBB5
BDC772C0
BD11C557
BD93B169
3D777F40
BD8F197F
BDB9186C
3C8D51C6
3D033138
BD5CDCE6
3E0880A8
BE42A36B
3D88EA2E
3D2A8120
BE2042FE
3DF9BA47
BE3B9FAD
BD0C5062
BD6C79A0
3D673881
3D0D851D
3DDE93D4
3DFE5B06
BD0CB2F0
BDA627BF
3CA0E747
BCAFA910
BD282DFD
BDF2286F
3D3D0B8F
3CBBC7CD
3DC23C69
BDB23C47
BD6352F5
BDBF970D
3DD2B3F6
BCB629CA
BD933D7C
3C61B4E0
BDC96CE0
3D71C158
3D246AF0
3CCB06B8
BDE34FD1
BCF64871
3DB8B555
BE28B786
3D194C46
BD44802A
3D2F93D6
BCA9AA50
BE001A5D
3D866947
3E12DC76
BE0B7908
3B7CB883
BD6E4F9C
3CD5D39F
BDA0A212
BDA54774
3E18ADF1
3DADE968
BDDDCA37
3D353B55
3D059DA7
BD8AEF0A
3DA83C2D
3D7A8111
3CA7DBC6
BD555B40
BDF4F46C
BDED4001
3DCEB12E
BE086B2D
3E4AFE05
BDD61150
3D6EFCBB
BE03623C
BD83B52F
BE0A990A
3B1A2970
3C9085AD
BDC4385C
BD6D74E7
BA78B964
3D50EE5E
3C5C6CDC
BBD32EDE
BE314A6C
3DD98B8B
3C98C617
BDAAEE66
3E1B8CA6
BE0F5A12
BDA74472
BCEBDBF9
3D2C9804
3E023BEC
BCCD34E1
3DC56847
3CDA7625
BE1F5A97
3D983C27
3DF08FE7
BD70D831
BD3EF62C
3E0F691A
3C8B1CF6
BCEFCE35
3D67C5E9
3CA0CE8D
BD896E17
BC489473
3DCD5E81
BD0C6F95
3DA594FC
BC08C4F0
BE0C929E
3D87ACCB
3C07FAC8
BD259132
BC0DA5D6
BD67DB4A
BDC86475
3D0FD3E3
3D378808
BDB625A4
BD849E68
3E4873F9
BD8DFF2B
3DB76558
BDD3D8C2
BCA45900
3D17D688
BDB35D2F
3E08E449
3CEADF1D
BD64DDCB
BE136A92
3D0425B1
BDF3F008
BDFEF02D
3E23F306
BD08CBED
3DDCDB21
3C144A44
3E50BDD7
3DD9C3A1
BDE20A47
3DD67BC1
BB213CA1
3D288677
3CC303D8
3DC7FD8E
BDBBB245
3E108FFF
3DCE8497
BD91A5B3
3DC15013
3CDCEDB8
3DD9BDDC
BB7ADE26
BDA4B57E
3E02EDE0
3DB2EBBA
3DB6BD58
BE4B0B98
3C8B13F6
BDD4E958
3D09C361
BE04181F
BC8076BE
3DCDE8DA
3D9CD566
BC8AE5AB
3C0A21AA
3D0319FA
BD952452
BC654248
3D8E1D43
3D727181
3C1CAC0E
BDD646C9
BE16CE18
3DF02BE7
BD549554
BDE1DC92
3D6B0948
BA8F762D
BD814EA7
BDDB5680
BD0020EB
BE5CE364
3E5D3DC5
3DF48B37
BB87E63D
3DEE1227
3C9A5824
BDEE1516
BD04C614
3D0012ED
BDE5CFC2
3CDD1384
3DD51DC6
BD238E8F
3DB11F59
BD628D53
3E01EC58
BE0ABCE5
3E1D7EA8
3E3E2397
3E6505CB
3D74BDDB
BD171225
3D870AF4
3DFC0D9E
3E42F62B
BDA36021
BE056A01
3C5E328C
3D0851A4
3E5C3E1A
BD0EDFEC
BDF5CF27
3DA285C9
BD74C0C7
BDE1E731
BDB20394
3CFD144E
3D44F56E
BE0FC15D
3E59EAD3
BDBA47AB
BDAA5005
3C80C8E8
3DFED0C8
BD378D73
3E0EFF23
3CFF767F
BDFDCDFD
BCFF552A
BD772DFE
BD9A267B
BA273ED8
3E1A2798
BDD68367
3E28EC71
3D5E91D1
BE2F7910
BCF84547
BD6DABBD
3CE85537
BD4A3641
BD5284B0
3AB9D0DB
BDDF4D1C
3D69117D
BE209E7A
3D61A7EF
BC5144F8
3DA57154
3DD4FFD7
BDCA044E
BD1F3D5F
3A1E3A5C
BCE9EC6B
BDECF9B3
BCEAAFD6
3D7B7C75
BD2DE7FE
BDA41C8F
3E1573B9
BCC34A8C
BD4D3B90
3B5AA121
BD567BDD
3D9DBC7C
3E25A1EF
BD740901
BE0595F1
3C0B056A
3CD50A37
BD2BBC3C
3D036105
BDCEA84A
3E21B7B4
3E164B54
BD607ADF
BC8AAE35
3DE6A4ED
BCEA21D0
BDA474D1
3D8C29C2
3D6AF536
BCB320B7
3CACA432
3E1D259D
BA5F1F9B
BE0BDC50
3DCE252D
3D98DF73
BCC24946
3E2CEAEB
3B58E6DF
BD7EFF24
3DA39395
3DE18014
BE037035
3DC344B0
BCF0C92C
3DB55E04
3D61F5F8
3E490D9B
BE30A036
3D16CA83
BDB70718
BE397989
BD2FA927
BD86EE65
3D16405F
BD92EC1C
3D6752EC
3DEA58DB
BE3442D0
3C69A3CD
BDE31FEE
3D093130
3D10B17C
BDF51785
BCF68D82
BD9C4FDA
BDD98A1B
BC22D693
BD1BDD0F
3DCE7E30
BDFD170B
BE24B5F9
BC0CDFAB
3DAE37C4
3D81DE08
3D537F76
3DEBB448
BD721C49
BDCB7EC4
3DFD9A0F
3C825BF1
BE774EC9
3DABEC80
BE4E2303
BE04AD80
BD3959F6
3DFBC19D
BDC9FC3D
3E3A25FD
BD7FA56A
BD915B08
BD55F3BE
BE02AB2D
3CFBBC92
3E06B314
BD504219
3D680DAF
BD9C8DB2
BCAE0C9A
3DD9C39D
3DB53C9D
3DA1E50D
3D89A835
3C85B166
BCF1BCEE
BCAE072C
3E206B04
3DC324DC
BD6662FB
3E11DC64
3C954305
3D24D8AC
3C8CA18E
3DC59CA5
3D9DB44E
3CEF6B8E
BD921F61
BBD48C6F
3DAFDE3E
3D9169F1
3C93E3F8
BD0C7E81
3D8DEE17
BDED3D8F
BDB60786
BCD5AEC5
BC25A13B
3E763C2C
BD8A3899
3D6110DC
BDBC6CE1
3D007121
BDF9B466
BE196E76
3D321729
3DFEFDBA
BB956AB4
3D9A310B
BDC37A14
3DB76C8C
3E191D21
3C3B1214
3D46083A
BD362C98
BB873673
BCDC61E0
3DDF0DC4
BE1E6325
3DD7E936
BDCE142F
BD4928E0
3E720B60
BC73A040
BDC9573B
3DB47294
BBE71E00
3E3D4160
3DF7FF88
BDC9A467
BDCD8DF4
BD8A0388
BDCD97C3
3D2B230A
BD9DCD63
3A13747D
39861B0E
3E19C470
BBDDCA97
3C848F9B
3D112C83
3D0EAB46
BDE4020D
BD0298F5
BD53261C
3E00A6BB
3E351390
3D7B2F92
BD84BF56
3C03C424
3D5E13E5
3E4276D7
BCDA48C5
3D1A4F3B
3DEA5F1C
BDF7726C
3C98DEF3
3DC72774
BD872DFF
3DE625F0
BD8D94A0
BD9B0020
BB630029
3DEEBEFD
BD83DF0D
BD4BBE33
BDC0D2E2
3D24DC1E
3CA7CDA2
BDD50E83
3DFB5396
3B91F219
3D949945
BDA7B0B2
3DEFA417
BD29B332
3E519F56
BD9E3831
3C01CE68
BD808007
3D813F1C
3DD288CE
BE14F32C
BD6C0336
BD2B8D5D
3DBE01B6
BDA5630B
3D6934AD
3E09B06C
3C8390A5
3AB6CF35
3DB37499
3D36EC47
BE0F1D6F
3CF3CDE4
BD14990C
3DD17AAD
3DAB8834
3CB011E9
BC3E2262
3CFD87B5
3D8398B8
BE09E04F
BE4DE9E9
BBB780CB
BCB9EA25
BCF2B85A
3B256870
BE00E0D5
3CB3C84E
BDC9CFE8
3D43B12F
3DB72C44
BA37E0D4
BE039890
3C3BD56F
BE3BECAF
BDA491FD
BE322726
3DC31C1B
3DFDCD06
BD06FFE9
3DA69735
BCFB6E61
BD73469D
BC12FE46
BDD7454B
3CA57303
3D8CB2C7
3E4172B8
BC582C8B
BE0C47B5
3BA8F62D
3DC594B8
3E314B50
3D0D5DF2
3E060E01
3DF78918
3CBC282F
3C8458FD
3DE4CEA2
BE0D4088
3C105034
3D525312
3DA209F5
3D9FC2EE
BDB98320
BDBD60E5
3CEDFD11
3DEC36EA
3DF89927
BD96F715
3B96CFC9
BDDFAFC4
3C3401ED
BDFFB18D
3D374ADC
BD3A8AFD
3CEA6213
BD2560BC
BD67300D
3DDC9ABF
BDD08EA5
3E19F88B
BCDC829D
BE39047C
3DBEB4F6
BD75A2E8
3E208F12
3E1388BA
3DF74D48
BD152A6C
BE1C034B
BE10AF45
3DCE7E09
3CBE82BC
3E262DDC
3E09B2A1
3D344246
3DBEDCC1
3C9E493E
3DCB525B
BD75B624
BBD822A4
BE203ADC
3CA2DAC8
3E46447F
BCA9EDE9
BE318198
BDA02423
3CC61BE8
BDAD1B79
3D672392
3E28D8DF
BCF13621
3DFED53F
BC9C59A9
3C1E4719
BE2C6F00
BC8B7228
BD3E73E7
3E401C7D
BB709F98
3DF87AEC
BD43259B
3C4EC824
BC624F01
3D851371
3CE26C74
BDFFF6B5
3D44B867
BDA663AE
BE206436
3DBDC78E
3DC85F91
BDDB5F23
3CD28A8D
BE37B783
3D8B6F75
3CAC32C8
BCEA9F65
3D4289EA
BE1C1FE9
3C1B3378
BDFB3151
3DC1664F
BDB5FD41
3D769A08
BD044042
3D6B1BAA
3D901348
3DEF9539
3A7FACAE
BCFF0722
BDF69411
3D73145B
BC9B652E
3E03A361
3D177002
BDFC63C8
3DAF27C2
3DB34B01
BD000DB1
3D75CBCF
BD4E5C91
BD9F42EE
3DC531C0
3DE3B3EB
3D1DE2E7
BD87B7EF
3D8B023E
BD35BE24
BCFFD4D8
BDB696FA
BDCC7474
BD32EE8C
BE009837
BDCBC1BB
3D1F5E06
3CF4CE16
BE1B640C
3E0D9732
BDC57C77
3DE37942
BDDD16D9
BDCA6119
3CE2E1ED
BC479A2B
BE0A89D8
BDCF8713
B9E30322
BD67CE4D
3DEFD988
3E201A2D
BD61BDFE
3BC24F8C
BDE6F9CB
BD9BEEA2
3DD77FF1
BE04D135
3DCAEF70
BDE9D631
BD689BD9
3D4CADC0
3D5E912C
3C98E2AB
BDA57B2E
BD19FFD7
BDC72BF3
3DAA5C99
3D06BF39
BDF7B8BC
BD23E3C8
BD9BD2E3
BE3F340F
3DA4C914
BC4CA7CE
BD846C69
3E0E1276
3CAB0B8F
BCF5E9B3
BA6E7E91
3C9A5C11
3CB753CB
BDDCC91A
3C524FE6
3E37E3F7
BCF8734F
BE504186
BDAEB5BA
3D800FB5
BD943909
BC710591
3E14A9B9
BBE1B057
3DC0D98B
BDB1E7AB
3E3D56C8
BDEF7F1C
3DAD6EE2
3DA35684
BC8F5C91
BE2CE30B
3CECA743
BD9057E3
BDAD691B
BDD80355
3CBBD7BE
BCBA4BF5
BB1526F9
BD9CB675
BD720E0E
3C67D0C4
BE4E585F
3C94E923
BDB9AAA9
BD374E7E
BE43FA4C
3D78D526
BE2C7115
BD13E1A4
BE0AB535
BD9BBE33
BCC48F47
BDBF03E5
3D8F23C9
BD8A63FA
3D7C7FF9
3D32B8AA
39E35E83
3DBC0742
3E6B65DA
BE686112
3CD87AB9
3DFD339F
BD4A2631
3C857248
3DFCA620
BD69ED9E
BDF688E0
3DA304B2
BCA889D0
BDDB9391
3D457996
3DFEF3F4
3D53D7AF
3C8A82A6
3E749F62
BB38FD30
3DF37317
3D8A806E
3C10356E
3D379442
3DC4654A
3D390B1D
BBA0D3D7
3D2ED6F5
BCF7463B
3E03372F
3D18ABAE
BDE9A407
3E0A10F6
3C6ED42A
3DE0C76E
BDBDCD7B
BC3A4DEF
3CA1720C
3D6F3798
3DFDBACD
3D2F9113
3CE5BAE4
BDD7B1CD
3D5137D0
BCD1CF94
BD81E1EF
BAEE38D4
BE1F355C
3E11503A
3E398F76
BDB2CA20
3D4D7A98
BD6A2EB9
3CA13843
3DB56687
BDB9D81B
BE50E0AD
3E3282C7
3C3C5541
3CDA3170
BDD5A6C3
BBEBB06C
BDBAF3A6
BE2CE676
BDEBE29A
BE0F32CA
3C341FA5
3E137E59
3D916186
3BF88B0D
3E033733
3E0897CB
BD51FDA6
3D9F85DA
3D566B3C
BD4B5E78
BE268002
3C5F996B
BDA44A9D
BE3A2FF9
3D1A741A
3D042480
3C9CDDB8
3D0D7EBB
3E24C06F
3D29B53E
3DFB170C
3E1631F5
BD87D492
3BDD9408
3DA58B6A
BDFE3F16
3DE4E4FD
BE600F62
BB90D5B8
3D338C2F
3E23ABEC
BDC8C86A
3E0B2A3B
3C89E28B
BCB95B1E
BB273725
3D99E51A
BE1832B2
3B5799F8
3E57D3B0
BDD5DB37
3E26C5B7
BE22B418
3E1A1CC5
BD4C61CE
BBF879B2
3DD8CE2A
BDEAD329
3DBABB3D
3CD32903
3DE3F75D
BE23DE5F
BD27048B
3C28CBDA
3C8FECAB
3BAD87D1
3D85BF4B
3E0FF0AD
BC878483
BDD7A1BF
3D64C39D
3D0BD8C1
BDA34539
3DEC46BE
BDEA5DCD
3E250C4D
3CD918B7
BD26DBA6
BD1F2FFF
BE12FFCE
BD90A115
3D4955E0
BB910B5D
BD1E0F15
3D356021
3E2FF9CD
3D32B7BC
BE36D790
3DB7AB04
BD2AF04E
BE084D49
BD481F9C
3C9F53C9
BE31F66C
3CDE512B
3D51CEB6
3BE34DDF
BE103B2B
3D322FD1
3D56B38D
BD372CA4
BC3A9BC1
3D81B5F4
BD987346
3D2C47C6
BDDFBD00
BE3FBC1D
3E0C4191
3E4DC060
BCA2E030
BD6857D2
BDA2D0C8
BD3A737D
3DBCAE4F
BDF58D20
3DAEA2A6
BDDF9C40
3DF1433F
BDAB2C6C
3D5E4B7F
BD68AF76
3DAF654C
BE015221
BC19A881
3DFAC9AC
3D046114
3A97A473
3CFDA85A
BAEAC1CC
BD4CDE28
3D9AE5A8
3D7D7C94
3E15653B
3E137076
BD0D09E0
BD7CD0E8
3DCD76E9
3DF33A79
3D349D23
BE3E086D
BC055EF3
3D1FBF76
BD4EB65E
3DEE38E0
BCD0F484
BD07B94D
3D843C8B
3D56E6C2
BD69EB97
BDB8BD23
BDBA6371
3CC37681
3E027738
3D550B57
3E15CF70
BE1C4266
BCDA9B3B
BCB7F969
BE19289F
BE11603E
3D8078C5
3DA1C831
BCFA77F8
3CBC173D
BD522C52
BE335A9E
BC825FF7
BDC8E38D
3CB97EE3
BABCA638
3D44E7C4
39D0558D
3DFA3B6F
BD3DBBF5
BD99A2F5
3DD94C58
BDA5ADA9
BDF0CC46
BDAF867B
3D697288
3D21BB62
3E074AF7
BD4E25E3
3E38211C
BD93DB43
3CE9286B
3DB122DB
BDD2C859
BD68BE16
BD09F13D
3E3E9CFF
BD90E3FC
BE1890C0
3DE06B33
BDE79795
3E262F78
3E337FD5
3DC2A7EE
BE651BFB
3C1D4628
3E12A312
BC656688
BC16714A
3CE2DDD3
39C8211E
BDE929E2
BC4A1F35
BE1F5833
3D71387C
3D1774CE
3D8323A5
3DB068EF
3DACCB63
3C34F027
BDF7DDA7
BE21019F
3DFD79E6
BDAF361C
BD88EBBF
3CDC8C8F
BE07D48D
3DE3127E
3E23C252
BE068B2F
BE48A439
3DAF85FA
BE5F7271
3D3E1740
3D19EA3B
BD0A3F16
3E1FFAFA
BDB2FDE0
3D4EB1B7
3BD9C486
3C650966
3C96B203
3D35BAF7
3E087031
3D5D00C5
3D398AF9
3D1A0F16
3E0FED1E
BDE2E458
BCA74F84
3D5338EC
3E1FD95B
3DA47A49
BE04DD97
3C163014
3DEFC982
3D3FB815
3D7A467B
3D64C673
BDEBED48
3E25A961
BC409A11
3D094B0C
BC814A47
BE284BEC
BD5E342A
BCB64E7E
BD1D568F
BB3C1CCD
3DB34E9E
BE25BBEF
3DBE26A1
BBA8AA1F
BDF96FAF
BD870261
3C81B67B
3CBAE02E
3DEC0F92
3E4BDB9B
3D98DE39
3C937790
3DE91696
3D84F61C
3DA28586
3D85CF96
3D6F5F50
3E08C85E
BC617512
3E006B66
3D7D69EE
3C69DB1A
BC2ED72C
3D6CBBA8
B957F09F
3CF9A029
BD9A4D22
3D5E0A01
BDCF26DB
3DC1D379
3E29AF39
3E0351EE
3E0A3059
BCD06ACB
BD93D2FB
BE0E1AB1
3DD2EF60
3DB0E9B8
BC2A027A
3DF09B1C
BD3052E8
BCFD6E9A
BE33B764
BCB15AA5
BB80D911
3D035570
BCF4A8D9
3D89EAA9
BE11A204
3DA3F01E
BB72D4CA
BD8831F0
3E12EE78
3BABDA26
3D228D25
3DF0C218
BDF1BB06
BDC1B933
BC52FFD2
BC2429B2
BDEC6621
BD3B01D1
BA0F0135
BCAC527E
BDAC6E6F
BD5852EC
3D6AAFC7
3D0AA457
BC957231
3D66F064
3D845935
3CFCF741
3D6C26D1
BD056B87
3DAAA2F3
3D57DB54
3D1F3AF7
BB801B05
3D7EA627
BD36A09B
3E1FCFB6
BCF63D84
3D4AF4C9
BBAEB216
BCA28DC5
3C1D8D35
3DDF55AB
3C8CC1B2
3D9BC51E
3D2AA5AD
3DF7F081
BE162886
BC71ED79
3DF92CFF
BDAAAAB1
3C62F1F8
BC315314
BDDA77E9
BD0EF918
3DC0D851
BA27A60E
3CBCAA6F
3D11F10F
3DB602C5
BD0E6F03
BD873656
3D8BBF81
BD54D294
3C8B3133
BCDEB6B1
3D5281AD
3D34B3ED
BD7C9408
BC977008
BCEF2A1E
BBB71CD0
3DE4AAFC
3C9698A5
3E037EC1
BE116CF2
BE1891F3
3BF56D26
BE108A3B
3C24888D
3DD324C8
BC131C9A
3DD43D7C
3DFBDBC1
BD090EBA
3DF86645
BC931BFE
3D175933
3CC4E944
3DF27648
3D35F6BD
BD5AE5A6
3CC6B3A9
BD967C8E
3D469088
BDA9EFF8
3D69F611
3C904F40
3D57003C
BE216D44
3DDC2EFD
BDD75F16
3CAA5C45
3CAF2DBA
BD237636
BCD6BD8B
BE17F79D
3D128CF2
BE16160A
BC9EF310
BDDF2268
BD749DE8
BD818233
BD9A9D85
BDCD3AEB
BDCBD454
3D39A1D6
BE04FB1F
3DBA198C
3DC2C734
3CF8DAD7
3CE53A58
BCA964C0
3DB77FE0
BDA0E112
3D7BE280
BDF3DDC4
BD7DC96B
BD174DC7
3DFE0553
BC05BBE5
3D1DF43D
3E31D46D
BD4B59B6
3D8D17D1
3E1BA17B
3C4A72FD
3E23F770
BD3FA05C
3D35CEC3
BD1D670A
BC971E3E
3CB8A105
3D5633F6
BDB0E7BD
BDE76AD7
3E23B911
3D3C8053
BD66A6A5
3E2B9ED9
BD884F18
3D9BA68E
BCCED339
BD266AAF
3DCCE619
BD19E33F
BDCC1974
3C6FBAD9
3DA0DD34
BDDC467D
3D5B97D7
BD918A62
BDD057FC
3D64EA36
BE0F3D36
BD85C227
3D3F245D
3CE02AFD
3E085F8E
BDE583CA
3DD2AB70
3D2A93BF
BDD19731
BD7E4B81
3C6FE241
BDBA9ED8
3E0C8610
BDA4D371
BD15E104
BE437AB8
3B28AA5E
BD8F916A
BE334B8D
B9879077
3DA7FFE0
3D4CCA1A
3D80FBA7
3DE92DCD
3D997435
3D7C0816
3DE21CE1
BCF91940
BDA1849C
BD8332DE
BC236932
3DBA59E5
BC67D7D7
BDAC50F2
3DBFAA72
BE220B84
BD26372D
3E25225C
3DC81C6F
3CB0615E
3E21792E
BDB57B8A
BDC2C98E
BD44FB74
3D132D0D
3DB55F17
BE4395D9
3DE3A704
3D705990
3CB158AA
BCE1F395
3D5CB718
3E37D498
3D08D462
BE37A43C
BD4F3B71
BCBDCDD0
BE0C84EC
3E28E283
BCD35404
BDD59A79
BD8BA46B
3E1AB2AA
BD6A5F73
BE0074DB
BDABCE64
BD1F06ED
BDFF3A87
3E13E84C
3DEE158C
BDD07F97
3D75DE6C
BE435EC3
3CD956E2
BC519009
3CD0667E
BC5EF94C
BC702682
BD73A039
BBF3F2EC
3DE4F10F
BDEC141F
3CA35F0E
BC9AFC1D
3DC255D1
BE31D4DD
BE16799B
3C0804EC
BD6F0D63
BCCD1A18
3D1EEC58
BCE855CC
BB44E90D
3DB5B263
3D29B8A1
BE30E770
BD35817C
3D6B75F3
3E30CD8D
BD6849F6
3E0D6036
3DB48868
BE207915
3C1D41A6
BCDE1D17
BBA177CC
BE1E79C1
3DC222C5
3D72BEAC
BDDC983A
BD872663
3D680252
3C25D5E9
3E21BA5B
BDE5FD50
BE0EFECF
3DFBD300
BC64151E
3D1836CE
3D253638
3CED11A0
3D0D5904
3DBE5DEF
BE08106E
BDEA540D
3CE1E683
BD844A7B
BD948A56
3DC59778
BC6758F2
BBCF6CCB
3D27D3DC
3DCA9ED7
3DB28882
BDB9A35E
BE1408EA
3CCBCEBD
BE22E8EE
BD147FBA
BDD9D41C
3D504F63
BDBE6F77
3E0D0DAD
3D4DD32C
BE31A517
BE09D5E3
BDFC9728
3D6B2186
BDBC526C
BD273218
3D83E35D
BE151012
BD328E90
3D5EF110
BCC16A70
3D4AD869
BDDD05A3
3D72BC2E
BE716389
3DC8FF28
BD9CFE5B
3E58A947
3D646361
3DBDDAE0
BC455C5F
BCD3EE9C
3D1B8D92
3C0A5B8F
3B2038CD
3E3B418E
3C4E340F
3C719946
BDD4E8EA
3DD3422F
3D3165D0
BB4EEBD5
3DBD7315
3DACF160
BCE5F232
BC296C90
3D15733A
3D98BA94
3D80BF43
BC23BE1E
3E002876
BCD7C718
BD50D353
3CFB4DB5
3D636F8D
3C12B91B
BDEF3922
B9746C2E
3DBB9F06
3AFEC8D6
3D960101
BD8F05CC
BD88C84E
3D8B9421
BD2D4953
3C87410C
3D57B762
3DECD9C7
3E0DB5F5
BDAED69B
3DA7532F
3DAB2C3D
BE1086ED
BDBC6910
3DAD7718
3D897AB2
3DF31326
3E35FA44
BCDADC89
3DC487A9
3CAC66DA
3D4171CB
BE147848
BD3A1B40
BD02C3F5
BE27A879
BD954619
BB8EED94
BD93937D
3DFF0EB7
BD15FF73
3D67ADBF
3E0793E6
BD0776DC
BDA18F34
BE122386
3CAFA2A4
3DC35E33
BC3B671E
BCE9F351
BE1E23AB
3D5C0B1C
BDBB36C8
3E1CB37B
BE53C683
3DB0EBC2
BCC52909
3D854291
BD7AA717
3DD2F6E4
BD5A2C8C
BCFFE496
3E050C6C
BD189B03
3DB581D3
3DDB1B3D
3E33D84E
3C0530BA
BE51EFA3
BD0DB747
3DFE4FBF
3DE4A1F5
BE1C2AC5
3DC09530
BCEE3F09
BDC82973
BD0DEF15
3E2C73D1
BDCE274F
3E4F3B93
BD2B4965
3D573B75
3E0A08CC
BD8B9846
3D85C800
BDAB60DA
BB8B488E
3DB1B128
BCBE3C30
3C8B6FBA
3D463569
BD226F2F
3D95102A
BDA401F3
3DFB6DAA
3D364E88
3E02C2D8
BD9F619F
3D8ADD4E
3D0B0863
3DD1F74A
3E717832
3D8C1FA2
3D4C5CC1
3E3A78EA
3BC8816E
BD047173
3C59E964
BBD4E935
3DEE0D19
3C395CB4
BD8B7AD2
BE097272
BD7D96D5
3DB84093
BD207A32
BDCAB816
BC09366A
BE34AE43
BDD026A8
3D4B8C1F
3CCFE6F4
3D660F2C
3BC602D9
3D81260C
BDC25659
3D659D76
BD823DA8
BD91AACF
3D12409D
3DE6EB30
3D6AF52F
3D7F5C02
3CC57831
3DF538E6
BD66F1DA
3D65A13F
BDCAA461
BE2B3222
BDFAA85D
BCB35B0F
BE13BBBE
3DA08AFD
3D4401F7
3CBFBCAE
3DEC9A7F
BD7EA696
BE2B61CE
3E00B3D1
3DA870C4
3DC4291A
3D11A034
3D0030AF
3DFD197A
3E223883
3C7CBA23
BC71F9E4
3DD58DAA
3E051A22
BE24CE8F
BBCEB839
BD425DD6
BDEE407D
BDDE9D0C
3CD34D62
3C194B76
BE5F77CD
BD416AC0
3DB93016
3DD275A3
BCCEB96D
3E06FEDF
BDA77BB8
BE1B713B
3D2A63FE
BE159DC1
3DC55C43
3DFDEF32
3B1987D0
3E355927
3CA506FB
3D39A030
BE11736E
3DD2A445
BB02FD2C
BDFDC576
BDD25CF1
BDB97AF6
3E2D01CF
3DCFA448
BDEBA367
BB9E83D0
3DA19F37
BC9A353D
3C822F9A
BD7E560B
3DF04FB1
3D92CAC9
BCCB8249
BD33156F
3D73C606
BD89F26A
BCB41970
BD56DADB
BDF917EF
3D330161
BC2CAF0C
BDB54FF3
BD389FD0
3D25EA81
BD52685C
BDA13159
3DDFF3AC
3CE41222
BAA22622
3DCE7532
BD2C8D56
3D98C834
BC853538
3C113EE2
BE141579
3DBD586C
3C6CB02B
3E00FD8F
BD5165B1
3DBEA6A8
3D2413FE
3D58FB7C
BD70C6E4
3C8F60DE
BE2F36D5
BD348237
3C8254A9
3D954445
3CCFC85F
3DC2DAB9
BCC9591E
BD371C34
3C69BA69
3E09CB16
BD60C9E3
BDB1194D
BDADD71A
3D92AEFF
BC07347D
3DF54601
BAB87F59
3E190E79
3DB498DC
3DC4DDC9
3D87087C
BD931829
BD876AF5
BE3BC0DD
BD094703
3DEAFCEE
3E340756
BD8F50DF
3D2285D7
3C51B536
3D99F83C
3DEB8DBA
BDA84610
3DA19AD7
3DA7A040
3D7802A2
3D9A1D58
3C6A7DE8
BB55AB0D
BDF1EA91
3D1F50BC
BD2D6963
3C0BB4E6
BE173692
BDD238A5
BCDD92AF
BCC25331
BE35BE58
BDD2D1B5
BCA3114C
BD80E7F3
3DF39EFD
BB4C9AD5
3D4CE7F1
BCF69B43
BE5C14D5
3DEEE289
3DB2DB4A
3D6DF593
3D0D434F
3C92C464
BD1CDC83
3C46C42A
3E42E17C
BDD621E8
3D957F26
BD7C9AB2
3CBA1209
3CFA19FF
3D6C637F
3D9DE123
BDC0CE27
3E010956
3D2DA27D
3DBB0D60
3E31246C
BC034744
BC302F92
3CC4CDF7
BC77AD81
3D0D0429
BE06F314
3D464CF7
BD406B5D
3CFD0F2F
BDC18274
BD396161
BDB53726
BE004470
3CC0F72E
BE15AE92
3D421D56
BDDAC79B
BDBB5B31
3E1E7CB6
3DA02739
BCA6FDD7
BE5C1411
3E09CC1E
BD8BC449
BC3F57B1
3E2BC70A
3DE39A51
BDB5CD13
BDF4A046
BD9455AA
BDCD0ED0
3C22E22F
BC86AC47
3E0B9A27
BDA44114
3BA778C6
3DF620EE
BE0E1E29
BDECCFC0
3D1661EA
BD4A458F
BE16EE45
BD17FA24
BE28B4EC
BD741441
3E10BA09
BDEEE4A0
3E49C1E9
BC95E15C
3D5C5534
BC6CB926
BC9F8A33
BD0EB90B
BC26945F
3E288112
3E2327D9
BCD18B66
BCE07777
BD8108AC
3C846593
3DB31CF8
BE107F00
3DA11C23
BCE8CC07
BE180A9B
BDEF0445
3DB8BB01
BB18199E
BE29C567
3E2BF11B
BCE4D6AB
BE180839
3DC5FC02
3E032137
3D958099
3E225C1D
3D80C20D
BE34FB9E
BC10645E
3C7FCF35
BB487E77
3D4DE051
BE375FC1
3C7F77DF
BDB1AF5F
3D5EF073
BE251112
BDB7F029
BE40A2B5
3C937692
BE1AA3A6
3D3C77AB
BE0885F7
BC7B0ACD
3C9AA440
39600794
3E20CFAE
BCF496A3
BE0135A2
3C0E0D0F
3D5B9531
3E25BC97
BE06E478
BE92F100
3E2E54A6
BE27D205
BD9E4F89
3E0DBC2C
BE2332BE
3D052B19
BD2106FD
BDBD495B
BDDC9A8A
3E27F94B
3E081B48
BDDCE980
3E1D412D
3D0B370B
BDB056A2
3DBE9146
3CD108D9
BB0D33EA
BDD4D4E4
BD949EC2
3E1A7631
3D93E061
BE19A85F
3DFCB57E
B93CF568
3D264E7F
3DBE1FFA
3E40D205
BE0A6198
3DBE6539
3D41FE15
3DEA5813
3D552F61
BE2517D6
BDBF9043
3D78299E
BE12F76B
3CB5F242
3CB663E0
3DDD4893
BDB937A3
BBF5F779
3D31F231
BE48621D
BCE7CCC0
BE0BF489
BDC37F50
BDF989E1
3D80AD1A
BD6EC862
BC8E7B0E
BD76A13A
3D3FAE55
BDF372E2
BD42D0AD
BE1D97F8
3D451E70
BDC7B953
BDE86FD9
3D11663C
3DB927F1
BD8B9BC0
BC25D647
3E0F6731
3ADCEFFA
3D645284
3DC0F4AF
3D8DDFEB
BDA39863
3DCFF4E4
3DF50B5D
BD23996D
3E12E59C
3D950157
BDB3A1E7
BDAC85C2
BD08114C
BDE1DFE6
3DA32D22
BE199006
BC837E31
BD1B8980
3D669418
3DAA42D7
BB168B0C
BDAC7EC7
BDD111B1
3D34A25F
BE0CD130
3E388C6A
BD208FC1
BD073E06
3DB3765C
3D807EDE
3D71BD86
3D1F9F3D
BD9B7316
BDDA1103
BD646900
BC976DE5
3CEE480B
3DE423FF
3D17767A
BD4A5158
3D3515C9
3DEC5A1E
BD0DF931
BD0941A5
3E227B37
BD84C1D7
3DD7D13F
3CF515CD
BCF6A508
3CD97604
BD39A50E
3DE1E6AC
BD5DF7EA
BE1B9F51
BD904D98
BD15D742
3D71D6C8
3E105EB2
BDCB5573
BE094BAB
BD72944B
BE0F2ECA
3D40C7A9
BDB15FD5
BE09ED78
3E11C334
3D2457A1
3CB3177B
3D4A9D16
3B62B3DC
BE18184F
BD3118AC
BA6A7F40
BBBD422D
BDBB5F3F
BE0A9616
BD019BB4
3CD9BED9
3C73AB2E
3C2EC2A4
BCFF2D34
3DA45677
3D642100
3D707DA7
BC7C24FA
BDB71CB5
3DE1FBE7
3D4A866C
BC885FE0
BD99AED5
3D45F941
BB9971AE
BE0E26A6
BBDA8BB9
BE12B3A4
3D732082
3D90DBE3
BDF1B246
BC2A53F0
3DDF9236
3C9CBD3C
3DD973FB
3C6F7228
BD77B951
3C972CDB
3D0BD18A
3C5F940F
BDE528DF
BE06863C
BD4B61C9
3E24D8ED
3E0E79CF
BDB516B9
3E0CD887
BE02DE52
3DEC6E49
3DDA5680
BC154E68
3C7C917C
BD8EE715
3E1270F2
BDF3E26F
3D8A2698
BE146469
3D7D2A85
BD8F60BD
3B253034
BD853437
3DE77A11
BD743CAC
3D2A9C91
BDF7B7D7
BE088D21
3C3D75F9
BDA59ED6
3E323A93
3B7EBE5D
3E0BD20B
3E1C61E3
3DF074FC
3D039A53
BDB4856F
3BB46B06
3DA01E73
3CD82D10
3C16C84E
BD2E49D4
BDA06BDA
BE165ED4
3E1DEC4D
BD39D8D7
BE2D410F
3C773C30
3DAC8905
3E035FFF
3DCDBDC2
3E362351
BD638026
3D88926A
3E484F7E
3D9CCFF1
3B89F807
3D97AD83
BC8D2064
3D72242F
3D142FC6
3D9D77BE
BDC99947
BBFEF587
39B23255
3E067C6D
3E00E442
BDDA24CB
BD5C0E5F
3D75FE76
3E41DD9E
BE12AA70
3D48FFDC
3D36FA8B
BC6E0AAC
3D8A3D1B
BD23530F
3DF27AAE
BD5FB5D5
BCDBE181
BCE87E5A
BC2F72DB
3DB5A662
3D50964D
BE157995
3D35203F
BDCAE26A
3D7780BB
BD92489E
BD7FFC7E
3E0C59F2
BD5DE377
3CB2593A
BC47D238
3D75B5C9
3D84AA52
3B696CFB
3D0F1546
BD691AD2
3E015A08
BD70DF91
BD6977CA
3D0F60A7
BC8D7F7F
3E4C0907
BDAFDB69
BD92D641
BB333373
3D6FBA0E
BC3CDBF6
BBC17D75
BE1CD4F3
BC6EE5D0
3BDB7C3C
BD5101CD
BD8B25DA
3E13A50D
BE9166B1
3E0BE352
3D058024
3DAE94C4
3D06EBEC
3C86209D
3D97C2CB
BD3AAFEE
3D83B35C
BDF07AD3
BCDBC5A3
BC8B0EFB
BE3C8A12
3E148036
3E58F440
BC0550BB
3D475AAA
3BF0C019
BE215402
BD8901D9
BD91CF2A
BDE27B77
3C987F14
3DD38FB3
BDB0F532
BE073267
3DFA250A
3E054F20
BE2FC4BD
BE527D57
BE160209
BE2BD668
3DD02C77
BDB2AE5D
3C88852B
3DD77FAF
BD39DB31
3E14B18B
3DEB50ED
BDEB5C87
BD547D4B
3E010F99
3CB51658
3CAE442D
BE7240DE
3DDF2A42
BDA77ACE
3E30B75B
3E2517F5
BD9CF0A9
3E2D9EB7
3DC20A78
BB2D238E
BDA21F50
BDADB6B7
3E14EB7A
BD861ED7
BD846764
BD4B80B6
3DBDCA6E
BD139F9D
BE3B2520
3E132B90
3D631C72
3D19082A
3DAEF657
3D856A3F
3D62F713
BD874DA3
BC9D0707
BC712D67
BB8E81BA
BC020399
BC3DC5A9
BDC6D454
3D975317
BDD6A506
BD95C094
3BCA8347
BD0D8D30
BC8E3F9C
3C201899
BD81E123
3D56C37A
3E12CCD7
BDC621E0
3D5DD7A5
BDBA9BF2
BDC7C9A1
BD111490
3D5771E1
3D96C532
BD085A41
BE0E9498
BDC3E281
BC30CCF5
3DD82A0D
3E456148
BD11EA68
BDEAF179
BCF32132
BD718C29
3D046013
3C68157C
3E1A76A1
3CE7607F
3DC0AE81
3D88490B
3D420607
BD87B394
BCBD2FD0
BD4E899E
3E0C5B8B
3E0508A9
BDAB27BA
3DB1D50B
BDB89EC7
3D0BC36D
BDACD026
BD773A1E
3D5EB6A8
BD8612A7
3D879BAB
3DDAD08E
3D00D8FC
3E941ADD
3E0C4EB5
BC0F7CC6
3DC510FC
3CC9FE83
3DD9FEC9
BC00BFFF
BD273D1A
3E328123
BDC238F9
BDCB140D
BE68F273
BDA60CE2
3D36ABA3
BDAB5415
BE31412A
3DA80353
BD33E91B
3DE7402D
3D2C7630
BE242290
3DDA8C1C
BDDFFB80
3E10A7C6
BDC69315
BCB019D9
BE406BE2
3B8D3E1D
3DED85E8
BC99504F
BBC3D204
3DAC1798
BC7F9B76
3DDB4D6C
BE2B7C2F
3DC4B17D
3D874820
BDAA7618
BD4A382C
BDA077B0
BD9EC0A6
3D88EF79
BD9C6434
3D4E13DB
3CD5F75F
3D57BFD2
BE37BE36
3DCC098D
3D87C4F8
BDFEA051
BC78CF8C
BD54D695
3E146946
3DB19FA6
3D234574
BC90135D
3D981615
BA04ED48
BE3FCA7F
BC83248B
BB7A212A
3B851615
BDC62A7E
3DEA10F7
3D782728
BE1F0CC0
BC7B4E14
3D19AB45
BDD03422
BD224549
3DB1CA82
BD40891E
BE39A9C1
3D79CE7B
3CD1DDA0
3914B339
3CE56A52
BD2ED88C
3E7F76F8
BCE5BA72
3BF4FF45
BD85698A
3E1253E4
BDD89D8A
3DD4CB7D
BDB83F40
BDAB8394
BD37FB98
3CCAB32E
BD0C8290
3C2AD94F
3E4B52B5
3D03FFF7
3D16BF19
BDFAB461
3E236A4A
3DB565C2
3CFC4B43
BDEF1344
3D30C658
BDCB8274
3DA43812
BBAAA4DA
BD889FD3
BBDB0A88
3CC440D3
BD65EA7E
BD23F512
BCED3F52
BC1C6D9E
3DEB26B8
3DE587D3
BDC818FC
BCAE51FD
BDA4E49A
BDAC3963
BC18C809
BD406E01
BDBB1092
3D045819
3DDDA450
3D62776B
BD259B2D
BC944270
BE52D31F
3D709198
BE292CB2
BB54D4B3
BE37E5B0
3D97B043
BD9FAA76
3D3C65F1
BC609576
BD198F7B
3D784E58
BD23C975
3D796049
BDAD69B9
BD64E0BC
BCB7CA16
3E107AE7
BBFF1FE5
3C36A3C9
BD8037AD
BCE68D59
3DC792E4
BE254F35
3E2F230B
BE180134
BDBE0385
3DD94C31
BBE20415
3DAA0E80
BCEEFCCD
3E08ADEA
BD9E02A1
3DA50449
BBCE2327
BD6A93F0
BDC08BC7
3E3E0E20
3E791669
BD2FBEA8
BB59076F
3CDEBB6A
BC1A35C4
3D88F4FB
BDE76397
3B9D19A5
BD21E10E
3E00C08A
3C4B7E66
BDAB370B
BBA516B8
3BDCB93A
3D7C56F5
BD5C254E
3C58260A
3D8BF3B3
BE30F8A8
3DEADDF9
3E021802
3D74516D
BDBA8CA8
3E3A9829
3E237CDB
3E2E7FA3
BE488766
BE3D2BDB
3E167E35
3DD0AF3C
BCA8973D
BD60A9C0
BD12C698
BDC374DC
BE4E3242
3D66EAF2
BDFF5B62
3E14646F
3E1EC575
3C172E14
3DCA3A31
3DC4C718
BE1730F4
BC5E29DC
BC1DDC50
BDC7325D
3DBF4F41
BE581D2E
3DBF556F
3DA6E11C
BC52B43A
3D63FFCC
BD7DAC1B
3CDCEC94
3E3BA124
BB1D2281
BDB91364
3CD7D115
3E24835B
3DF1B7EC
3E2AF0E6
3B821A85
BDF13601
BD896B98
BD96656A
BD13B843
3DC08792
BC1EA4D5
BDBFE94C
BD20AE42
BD06282A
BDC55A75
3D0532FC
BE1C2273
3D5E45CF
BE08C790
BDCE5847
BD5E7C29
3CE648AD
3E5ACFB9
BC7DCF6D
3D6A719B
3D7FEE91
BDA1F153
3DC130B0
3DB18D69
3E03EF93
BD776358
BE4291D4
3D88A9E7
BD788851
BD62B838
BDA847A2
BC597B1F
BC711215
3E10A9E7
3D79CC6C
3D17F02B
BDA806A7
3B9B4F3D
BD939E0E
BBDD6372
3D45BA15
BB63329E
3DD7607E
3D69B130
3D25F250
3B7E2DF0
BC7C42AC
BE12C7F2
3D6A0A6E
BE820576
3D2A3FE2
3D89825D
3D67B741
BBD4A69A
BD9D9150
BDB1BECF
3DE75781
3D26731A
3D84E50E
BC8D7B21
BC825A65
3DD028F0
BD90223F
BDDB0E9A
3D9114CB
3CDAD4EB
BDB72508
BDCB130B
3C84B735
3D0FC2F4
3DF0A9B2
3B24FFED
3D814EE4
BC613253
BC7E8B98
BE540C01
3D319DD2
3E28C310
BDF65398
BD2DDE5E
3E04F36B
BDDB3840
3C82302A
3C23DB6D
BCAA40B9
BCD284DE
BC08408A
BDC6A834
3D4B186E
BDB3E497
3DECDF12
3DF55A94
3D8F3BC9
3D07CC46
BDC07A76
3DFB690D
BDE81F30
BD375304
BD4C310B
3DBABCB3
3DBC50D9
BC0E7B40
BDD6EA5C
3D1A7C5C
3CD6A874
3DF16DB6
BD838C4D
BDBAD286
3BD0AF79
BDC76E87
3D68CD62
3D31FF08
BDA16783
BDA551AB
BE0B62D4
BD39D5A6
BDB8D1AC
BE11A83F
BE1A4740
3C4F511A
3E1E2397
3E0CE730
3AB37CB2
BE09AB1B
3DBF960D
BDF19283
BCEC3EA8
3DC6819C
BE033840
3DEAA306
BE36ED0B
BD40C0B9
3E12F4D8
3C681C89
BD0EF502
3DFD9804
BDAB27D2
BD00579C
BE06C772
BD0F11D1
BDACC3CA
3E9A88C9
BDADEFE8
3B795FFF
3DF15125
3D94A828
BE0EBE60
3E814845
BD2B8F71
3DA0CBB1
3E283287
3DE2BBA2
3B91EC86
3DEDA4B1
3E579944
3D728CDF
3E11680B
BD1B3BE6
BBE9AA95
BCF27383
3E60A51E
3E4D5C49
BD3FC282
BC5E8494
BD9B0546
BD2C6935
3C1C784E
BE4371AD
3E0C440E
BD7F93B7
BD921133
3D3C341D
3D3E490E
BCC6951B
3CCF95D2
BC9873D6
3E56D511
BC3F44B4
BE06CB14
BE46CC81
BE44DB06
3D35C268
3C974D1C
BB910727
BDAC9281
BC263A6D
3C854BF4
BE0CB177
BDB85E15
BD8D0B7A
3D89B73D
BE5D5B41
3D63FFC8
3E5E2A20
BE7F4D69
BDA915E2
3D98A0C3
BDABD9C3
3DFBD8AA
3B95252E
3E076A36
BDCDD313
3D452BD3
3DE62475
3C146F3E
BCF2D466
BDC57C00
BD76EB4B
3D240403
3E0C3EE5
BDDBEB83
3E182251
3C2A8B68
3D1286E8
3CA6FBAE
BDE8E9AB
BE0BBFDA
3DB6772F
3D6D6007
BC017036
3D3E676C
3D524884
3D3F756A
BDCE11E8
BE387419
3E3E3825
3BFDB94C
3E1BF7AE
BE326CC8
BDA297CA
3E6AD5B3
BD25E7A3
BE098F4C
3E3C66A4
BE0422FA
3DBAE749
BE115F10
3DC277B9
3CCABBC9
BCA939EC
3C3B7685
B9171DB7
3B39EE9E
3D514773
BE10DF02
3D1B22EA
3E0C75E2
3CF7DB56
BE183E47
3D3EF6AF
BD86D5EB
BD9CA42D
BE222B7A
BC4D9631
BE1F863A
BDFBB9DD
BDF7AB98
BD20B663
BDC11B1A
3D508322
3E1D0CFD
3BA1CDA4
3DDACAD3
3D99EE88
BE25F8AC
3CFBD89E
3DFFBE3A
BD0FC3AE
BD838866
BCCD599E
BD412259
BD78B7F5
3C94DBF1
BCD65BB8
3D5579FB
3D4347A9
BDB3BA47
3E227B57
3C171E05
3E0FAB7F
3D7D8EF2
BDAA76EC
BCB37DC8
BC882767
3CAFB11F
3D457ED7
3E03EE7B
BD7043E4
BE193C53
3D93DBBE
3DC750DF
3CD706C0
3E1B2453
3E215019
3CA74B94
BDEAC2A0
BE04D4BA
3CF46864
3DAFB898
3DA33EC5
BD29CD4B
BDC255FD
3BB44327
BDC0359B
3DDAB7DF
BE27E009
BCFBBF0A
3E1E2BCD
3E36C22D
3CCF207B
BD91295E
3D18D95A
3B350345
BD9B5B03
BDC24B75
BBD39983
BDD4FA3E
3D6BED45
BD656420
BD113191
BE11EB68
BBA82585
BD6ED1F9
3D7F9E7A
BD944599
BB2F4EE1
BBEE346D
3D36EE48
3E17B260
3CA6B421
3D04B55E
BCC10B88
3B3F7EB6
BD20C991
3CFFACD5
BD425F96
BCF8F524
BCF65B65
BD31B767
BE0B6C7E
3C94939B
3E17ADEE
BC22054B
3D2E085D
BD02CCCE
BDB08DCF
3B9971A5
BD9219BB
3E1690F0
3DFB7607
BDA24E6D
3D6A18B9
BE1CBEB8
BE7E3A0C
BD3A5FA2
BE1B6402
BD547890
BBDF9B05
BE02B009
3801D5AE
3E0E8A91
3D16BADC
BE13CCCD
3D693D22
3E1BA120
3E007338
3D672648
3DCB160E
BE34808C
3DDB9E46
BE1B8C15
BDDBBF52
3CB2E715
BE1A198D
BCCFE417
3E481283
3D8B29B6
BCEBFA2B
BE34CBF6
BD8E38FF
3D44F22D
3D82A446
3CC87230
3C961330
3D3775B3
3C4A5244
3C3C5C4B
BDC17055
BDB2E2DC
BC819E03
3D7C4DFA
BE07CF22
BDFC9CF5
3DD74B0B
BD0A9581
BC80F7B5
3DBF82F8
BD7145DC
3DD59985
3D72BADB
3E45EEA4
BC8BE376
BE0A13E0
BDF2B00F
3BA1ABE9
3DB7AAF0
3E0AC3F0
BD95FF80
3D97D8CC
3DF17D6F
3DB5C38B
BDEAA297
BC4B6A73
BCE6B259
3D24DD60
BD7C8E5F
3E035B23
BE24692C
3D9ABE78
BE402BF6
BE2D87C5
3AC6F31D
3DCFE912
BDC9A95A
3E422135
BD54DF13
3DF2F32A
BDDB3BB7
3D62FFAC
3E26404B
3DE29F28
3D44DC19
3D3E8A02
3E3EE63D
BE096E88
BC5346DD
3CE56D24
BD740BBE
BC2393AB
BD0AEAB1
BA3AC7DE
3DE9A1B2
BE1CE317
3E2F9B88
3D17BAA8
3C3EFC15
3C7441AE
BBD36FB8
BD892AAF
3DAF8092
BCD962E6
3D9955CD
3DAEDEDA
3E180BE3
BE1EB497
3D65564B
BD90D2DE
3D81FE84
BDD1F16B
BD01C536
BD57BB8B
BCB7B93D
BD83251D
BE0D72EA
3D114EEE
3E02C479
3D058817
3DD2CA21
BBDC53A2
BB1F5670
3D4E73B2
BE1432A7
3C76067C
3D3B6A26
3D104990
3D036DE1
BCD907D4
BDC5249B
3D9C0909
3D9D6DFA
BDFF9EEB
BD2C1726
3CFCB0EC
B5AD7DB4
3CF75FDB
BCE415C8
3D2260F6
3D38DAB1
3C45F1AD
3D2A26CF
3DA9D02B
3D94A511
BC0FE8F9
BE0B5B1E
3DAF6487
BE309DCE
BE025E4F
BE460653
BD537516
BD338C89
BDC25806
BCF7C3C3
BCD3214B
3CD519D5
3983750E
3D7E79C1
BE3CC7A8
3E108A9E
3E0D3A25
BE197141
3DB28C7B
BDB9F9A9
3DA300D7
BD87C343
BDE6AC6B
BE17B2EC
3A379AD2
3CC6C1FB
3B31B842
BCC12E16
BCC8049F
BDFDB50C
3E0AFFE4
3D4CF054
BD517867
3BC6870A
3DD21C91
3D393526
BDCA582C
BDFF78E8
3D461E77
3DBC78FE
BCEE6906
BDC94FCA
BCF6C9D0
3DC8EC7F
3D8B5ADB
3D237D2C
3D6B44F2
BD3AE49F
BDB1AA1B
3D858FB0
BD8ECE9F
3DAB17AE
3E01DE0D
3E4DACFB
3D79AC4C
BDD39BBE
3E425E8E
BC884671
BC816BA1
3D868B70
3E2EC8EB
BD7ED379
BD9A6815
BD6295F0
BD87B8F6
3D4306A5
BD30AAE8
BCCDDC42
3C3EDAFE
3DFA196F
3DA30328
BDB5D890
BC48CFFB
3DE19D39
3D4DC361
3D5F73DB
BD257312
3DA4B8C8
3D6519B9
3D8E485D
BD10F3E8
3CE3A09F
3E1DA9CF
BD08A3AE
BDCBEB78
BD224A24
3D17827D
3DB01B67
3D950032
BC950332
BD80E089
3D294198
3DD79E7F
BD9FE2CB
3E228E5D
BE15C682
BDA695F7
BE1E4F4C
BC6D97E6
BD939E15
3DD0B2F4
BCD71E02
3C79D520
3C82C572
3D1893BF
BD9654C9
BE18144A
BE2DBC27
BC0170B7
BD5E2C6F
BD7CDFFB
3DC6CCDF
3C43A14D
3D31D2B3
3E10C8FE
3DC1C5AA
BE005CD3
3E2174F9
BDB5A45A
3DA57172
BCB80BC2
3E27F6D7
BCCAAB08
3E8CFE21
3E122621
3CEEA21B
BDE3D953
BC9AC5DC
3E138F26
3D5B9697
3C88D6C9
3E55A069
3D96DC88
3E16C190
BD5A61A2
BE1B6438
BD053710
BE11786C
BD8F54FE
BD21E6E5
BE09559B
BB252539
BD11961D
3CFB1BC1
BD6B4BD4
BDFB4C78
BCE8C74A
BC72A099
3E6D602A
3D37967B
BDC3FAB2
3CE5FFFF
BD1FA1B9
3E02B60C
3C44E5BC
3D39AE16
3DC87605
BC01067E
3D6ACDB3
BE279F48
BD3C6143
3DD2C2C3
3DA0542D
BE045121
3D75A59F
BDC14B15
BE107A94
BC1040A9
3CC9F997
3CEC0C47
3E7DEC3B
BC5B8E85
3D475535
3E03CB41
BD4FFFA7
3CC2B711
BDA891BF
3E65907E
3C319B2C
BE0D440A
BDB49D94
3D5429CB
BD9768B8
BDB33A34
BD250B0F
3D61BA0D
BCCC666C
BD2CF919
BC9D908A
3CD68DD3
BE228787
3C152F22
3DB1F2E2
3BDA27BF
BE35FF14
BC9D618E
3CBC228E
3D8F1F9F
3DA50E0C
3E51236F
BB5C510F
3D909BF2
3D913A08
3DE503B8
BD1083B7
3D5A2D44
3D1029AD
3DBD71E0
3CB36514
3C2BF04F
3E11D7D3
BDC46E64
3C9FC12E
3E2D3276
BCC79C2C
BD7B6E84
BDE0C31A
3D0215C6
BBA195FD
BE59EAA1
3BD33F0D
3E341FE3
3D2601F9
3E25B34C
BCB15343
3C3A485A
3D799EC4
3C973144
BE08E063
BBDCD5BC
BD9A7002
3D2C433D
BD432314
3C790518
BCE6CA4C
3D122331
BE164D57
3D0A15BB
BE42E8DF
3D400B83
BC9E47BF
3D25FD1C
BC940D47
3D2BCD5C
BDB39F7F
BDB0AEE6
3D97D735
BE156FB7
3D31B72A
3E27D873
BD83DD3B
3C828166
BDCEDBF3
3D5D9800
BDA154E0
3DED1BDA
3D80742D
BD7EBC04
BD5293BE
3C3F50B8
BD6DA13D
3DB6D6D8
3D87A798
3D2C0886
3DC0D7BE
BE1DF7A1
3D960DFA
3DA3A46B
3DDC1F48
BDAAC501
BDAB5668
3D78BA68
3C580007
BD8E9A43
3D130288
3D50CC82
BDFB1E0A
3D95555B
3D950C14
BD12AF74
BD0C8116
BD775B7B
3E0686A7
3CC8A84F
BCEF68DE
3DA2C6FD
BDAB72B3
3D749F6B
3D914D8B
BD00B86D
3E2D525E
3C90FDB1
BD014927
3DD4F5A1
BD66EDD4
3DCA49EA
BCAECA9F
BCAA2651
BDAD90FF
BC915363
3DAFF02A
3DB9A664
3A162739
3DC1C289
BBD07A7B
BC937DCC
3E2B00C2
3C73DE57
BC802CBE
3CA1A7B8
3D3463EE
3D0A7D0E
BBB86756
3D83C30C
BDF19F06
BD2EAAA3
BDC8C192
BCBC4E20
BE137CB1
3E23E1D2
3CD90ABA
3D7BA11F
BD9FF685
3D9795A2
BDC157B4
3D05B109
3E1D0741
3DC21AA2
BCEE000A
3D7A4C87
3DCB4E7A
BE07D170
BDABB443
3CC02CEF
3DE8E42F
3DF9E4C4
BD9CBA8D
3DA9886A
BCBFBB01
BDB368F9
BD272B1C
3DE4828F
BDCF209B
3DD800A9
BDA34F20
BDB78478
3DA11598
3D1D18F9
BD3D79CD
BD500193
3E671F0E
BDE9D454
BE297458
BB925E6B
BC88FF2F
BCCF40CA
3E1846CA
3DAAF9A7
BD843E88
3E77CDF9
3C90FD60
3E4D3194
3D40A831
3DCEEF34
BDB93D8A
BB4CBE33
3D312D3D
BDBFF0D1
BD176E59
3C17C90B
BD496B3C
BDFD98C2
BD56B735
3CDEB61B
BDA6FE0A
BD94EA11
3CB1B033
BC87F808
3D7C0290
3D6936FD
3E07933E
BDC8F7FB
BD836E1F
3D7D50E2
BDFEC8EA
BBE3AF46
3A6634D7
3DB96A91
BDB67C9E
BCF7B10C
BCD097CC
3D1CC17B
3E36DAAE
BD141451
3E1398B7
3E2AE0D6
3D0B9686
BD922B4A
BDB1C659
3E0F9065
BC2E98C9
3DA2545A
3D7522F4
3C5BCCEB
3D89CEF9
3E135F01
BE0BC265
BD5C0651
3D81E4BD
3CCD460A
3DC40E91
3E83D34C
BD95D996
3DAFFBD4
3D24B207
BC4AA65B
BD66F6E1
BDC59DFF
BE37B019
3C20F7E7
BD866F51
BDBE71BE
3D5B10AE
3E1E5173
BCD96AE2
3DEE02CA
3D4CFAC4
BC3D6BE7
BD1D3BD9
BDFF449E
3DAB6381
3D96A38B
BDF2433C
BCC078D2
3D8DCDA0
BD1F89EF
BD18EAB0
3DD61F1D
BE437C1F
3E0745A9
BE58234B
BD24FC04
3BFAF783
3C80CAE9
BD3D8C5D
BDA2FB3B
3E4B9AEC
3E1E24FD
3D9FBB96
BD93E32B
3DAB9F4F
3D567870
BB8190C1
3D7A1531
3A9DFDB3
BE2065E5
BE2A2841
BDAE2463
BDE8F760
3D080638
3D1BA41E
3DE0FFDF
3CD44BE9
3DA4B99C
3B9681B8
3D34CA83
3E1BCD60
BDBB54F5
BE321A0F
BD6AE1BC
BCAF4566
BD280C67
BDFE9E59
3D7C44ED
BDB17BF0
BB948E80
BCD6D656
BE1D81FD
3D899583
BB3AD61F
BE75852B
BD713751
3CD99597
BDCAC96C
BE104877
BE99421C
3D8E0824
BDD11190
3D0F81A7
BD4B2492
BCC3697D
BDC93B16
BD51648F
3D888D04
3C55275C
BC939F33
3E71F7BD
BCC0082A
BD9A0EEF
3E0C04F3
3E1D1635
BCF543C2
BD782EDE
BD79E6B7
3DB2B5B2
3DA19D0B
3E37A529
3D97DC62
BE3E94EF
BE47061C
3D56DD67
3C879BB4
3C307E75
BD880B07
BBEA2B8C
BD024C6B
BDC697BD
3E0BACD1
3D6DBD1E
3D2F9C90
BB262831
3D2D3B7D
3D937568
3E0C72CB
BE274830
3DCD67C4
BD962A22
3E053790
3B96F736
BDC1914B
BDB60BF4
3E2D8078
BCAA97D4
BC53C03A
BC769ABD
3D84C0F5
3DE39031
BCEEA5A9
BD68A726
BCFB0608
BD0A0A4D
BCDA2781
3E3B8315
3E0593E6
BD442E98
BDBA6908
3DB80040
3C06887F
BE0BC7B2
3B6F1309
BB0E9CAC
BE4F4A85
BD4760C6
3D92C4B8
3BA04555
3E2D82BE
BDC8258D
3C2FA95E
BDD21E8B
BDBFAD73
BD94D8D7
BE04ED8F
3B23AA0B
BE10DAEA
BD126E0D
BD1CFC70
3E1025A3
BDD1A6F0
3D188970
3D8263B0
3D60698E
3D987969
3D006EBC
BE05ECBF
3D4A5A62
3D99C5FD
BD458426
3D9716F4
39E137C3
3D618EAE
BE47E112
BDC1CB91
3CD430C4
BD5715FB
3BA28DE1
3CAA224C
3D0D57B5
BD0662E8
3DD39FA4
BD232E6A
3DD7A758
3D97C866
BD91960E
3D3D50E0
BD37EDD9
3DA3FFE5
3DB41AB4
3D3087F8
BD3D6DD3
3E88E74C
BE01BF07
3D52E61C
BD0E2F60
3DFE21D4
3DF7A2F8
3D010AEA
BD8041AD
3DA46BA0
3C7C69D2
3C9606E5
BDBDB2CD
3E01A7AA
BD8A3281
3E24B963
BDEA2CB5
BD3F677F
3DC09394
BD1DED66
BD92AEC5
3C6EBBE5
BDEED487
BE00492A
BD81CCE0
3D32C526
BD9A9ABC
BE9291A2
3C58F5E7
BDBC1F66
BC50F4F6
BE091A00
BDE84539
3D021AC6
3D783DCF
3D844AD1
3E5F2235
3DCD96E5
BE38F24E
3DA5F083
3E433FE1
BDBB903E
3E1E123F
3E147CBC
3E15ACB8
BE889FEC
BDC957E0
3CD4F731
BE844FE0
3D2366AC
3E3DE5AF
3C3D741A
3E61466B
3E4F23EB
3DA01663
3E4288B7
BDE41DDA
3DEDD2B2
BE1343CA
3DBDB980
3DDB2D65
BD833543
BE0120D0
BD38925B
3DE477C1
3CE0773A
3D655268
3E7CE58A
BDFCED47
3E0EB472
BD128577
BD9E0C44
3BFECEDA
BDCC63F0
3C4B5563
3E354142
BE32E9C2
3DAAAEA7
3E161E8C
3D6A91A2
3C8026DB
3E59A780
3C1E6C58
3DBB802C
3E29CF02
BD1F4F2E
BD9E6236
BE1A80A9
3D9DEC56
3E284743
BC41BAF6
3CF0BA0B
3E0E0231
BE0CFF44
3DF689CF
3CCDDE50
BD3DB7AE
BE45041D
BDF0CE93
3BC05DFE
3C9D7825
BE47DBE9
BD1A6F07
3D536962
BCCE4850
3DBFFC30
BCA7FC18
BE0695D2
BD48DB93
BC8AF78E
BDE11C2D
BDDA38C3
3DA33882
BCDAC78F
BDDEA2E4
3CC5B497
BBF70A31
3CFA8A57
3D14EE83
BD813C3D
3DA361EE
BD006295
BD4B5A5A
BDFABBC4
BCC3978F
BE368AD0
3CCD1372
BDCB5D07
3D788EE5
BB8F47E7
3DD6DD17
BDDD1C02
BD73C784
BDD039AD
BE273CE1
BD0E4126
3E34E92F
3D688495
3D972335
3D53FD15
3D3CA550
3CC5603B
3E17DE68
BE10A2B7
3DC275FB
BD91C23E
BE015568
3E4BCD2E
3CCF2749
3AEC4767
BE42D5B2
BDBFEEEF
BCEB2F76
BD6D1E11
3D1EDAC6
BCDC04E8
BDD8BD6F
BDAB5921
BDCFF787
3D15AF9F
3DBCDDB4
BD58285B
3CB8E6CF
3BE8730B
3BE4940C
3E0A14E6
BE0B736A
3CF5224E
BD821C2C
3E374660
3D0AECB0
BE39C821
BDB9A867
BC306EA7
BD4A2957
BDE3F364
3D31B79F
3DD237EB
3D019615
BDD3AC2D
BDCA31B6
3D23FE83
3D8660D5
BDB96B13
BBF03F74
3E0CA1DC
3DB6010A
BDBDD3FA
BD73A8FA
3D6E8423
BD1C4DE9
3C684F55
3DDBF7D6
BE0D3EFF
BB72F360
3E06B8E3
BD47B074
3E1F8051
3C9FF035
3D003EDE
3D17E357
BE455D9A
BD602660
BDDAB1FA
3DEA2BBB
BE36E843
3C95C582
BCEE204D
BCEEC6AD
BE614D90
BD8B8912
3D8EB2CA
BE1C86CD
3E16A3D8
BE006659
BE412210
BE387ED6
3C60ADA3
3E2C1320
3D7D4102
BC94F99D
3E249A25
BE096DA1
BD94A2ED
3DA24127
BD9A280A
3DD25D42
3DD16943
BDC47064
3DE64E66
3D84F1E4
3D77F6C3
3DB82A1F
3D7C7FFC
BD2E06FA
BDB4DB90
BDA2A3FE
BDED4B1B
BBCC9069
3CB5926A
3DF93021
3B6A05CE
3D80C5AD
BD18A7C1
BD834AAD
BDE8E3BD
BCAFF745
3D7FC0F6
3E075838
3D802229
3D859867
3D4BF77C
BD0BD935
BC5BF100
3D64D76F
3CEB29AF
BDB246F2
BDD3ED09
3C4EE6F2
BC626A3D
BD88D20F
3DE4255B
BD648319
3CBD283D
3D9D8890
3E07F601
BE173988
BDFAEA93
BC436851
BDB72A3B
BC573C56
BCA9F1CE
3E257D56
3B6E78DF
BCC605C4
3CB48036
BDDCC176
3D9A3ADC
BDC1A398
BE2880F3
3DA266D2
3DA0CE40
3D45165D
3DC60799
BDE52425
BE064101
3CD0E8A1
BD333EB8
3CB8D71D
3D69552C
3D42366C
BDDDDB6F
BBDF17B5
3E0D29CC
BCBCAC61
3D180774
BDE20CC0
BD904FA2
3DC4E8A6
BE164C2A
BD5ADF80
3D950B8C
3C951E19
BD8F9D75
3D3E0478
BDC1140A
3DDA98EF
3E0D59ED
BDFE84CD
3D1749F2
3D7BE55C
BE15CB07
BD1B944B
BDC719BD
3DA1CAE5
3E0DC99F
3D976D02
BD6865B3
3E34FB7A
BA039C9E
3D1930AC
3E0D1AF2
3DA03362
BDF0B085
3E36207C
BD9936B2
3C1356D1
BCE3005A
BD7AC97B
3D3BBB51
3D2EDC38
BCCA523C
BD8FB0C0
3DE81F80
3BC2E100
BC0A89BB
BDE0BC4B
BD03E84F
3D4DEF51
BDD43E62
BDC3AE85
BDA57332
BD9CF208
BE2901B0
BD466B1D
BD88C56D
3B78D33D
BE02DC46
BDE90518
3A2E51C1
3E1DBC33
3E05C1C6
BE1359E0
BDA15277
3DB90CB5
BC8B3697
BD82F0BE
BD267BD1
3E1AC036
BE04B3B4
BB1E2398
3D87CF59
BD920694
3C80C06B
3E2BF1BF
3E201E60
3E27244F
BBACF3C4
3DC6C3F7
3D303EF2
3DA56336
3D0E01C3
BC86A59F
3DB51BDB
BE082BBF
3C8F4CA2
3E1FF3EA
3C9F0AF7
BD9B57B1
3CE82CAC
BCD0EE1D
3D8F7E81
BD03C0A3
BB583B4A
BC542477
3DA07710
BE060B9C
BDB1BF10
3DADCE83
3DD636EF
BDD342DD
BD8CCCDA
BDB24F66
BDAD2B89
3DAF086D
3C97B20C
3DABC301
3DB163B0
3E451582
3D977C36
3DA8ABF1
BD45E5F3
3DE87335
BD294D60
BE3CC825
3E1801C9
BD7FEECB
BCBCC717
BDABE234
3D9F0153
3C80ACF1
BC959EC3
BD1A363C
BDDD5B47
BB43B365
3DD215D5
BD24F31F
BD5214DE
BE0E70B4
3D49BB37
3D35E249
BC70351A
BDE52795
3CF8A2DF
3E45CDBF
BC77F566
3D2954DB
3DB7F41D
BC850168
BBEE902D
BBB44A80
BDAF10FE
BDD57162
BE431AE8
BBF2714E
3D184BF8
BD931EFD
3D6ADD75
BD9F5A20
BDA39098
BBDEE85A
3C9363D3
3D9A9137
BD736D7D
BD0D613C
3E4832D4
3D9EFAB6
3D1B6D94
3B35A1F7
BDABA3B8
3CCBEEB2
BD67C085
BD91E58F
BD99630B
BD26D854
3E071CAF
BE41D0C2
BD78BE72
3E2449BB
3D6A2152
BDE8B898
3D55D674
BDA2A647
BB447509
3DC97942
3CDE124F
3D71D8C3
3D892480
3BA3445D
3C4DCE56
3D13B25A
3CC09BC6
3DB0776E
3C9DD941
BD9F109D
BBF34D9B
3DBC7492
BD577AA6
3D9F033B
3D9D665C
3E0C6DD8
3DD6BEDF
3BFA710D
BC315E4C
BD2B6B07
BE08F546
BAA8120B
3D54849B
BD47EB4A
3E039E20
BD3A2064
3D8B4621
3D8261FF
3CE60A2A
3E2008F4
BC970DD3
BE0C9BDE
3D36611E
BBA2D770
BC150C11
BDB5293D
3CEB4662
BDB32DC1
3C3B722C
3E44CF94
3D94E9B1
BCFD2A9D
BDD8AA9B
BE15198A
3D48F4BB
3E1A01BF
3DB07AB5
BC3ED2E5
3E79D3DF
BD0B14BF
3DDE5038
BDA70759
3CD14D75
BDBAB08C
BDFB2FD4
3D9B3F69
3DEA14A2
3D6CC443
3D13AFF6
BD537507
BDCB8593
3E076A3E
3D33A97E
BE1F2B65
3DDAA3D1
BE00C0F9
3CBFE0E0
BD8B440D
3DD1F5AA
3D853242
3D1FB2D5
BDA69909
BD84A00A
3D755A7C
BDA0ADDB
3DA79AED
3D728301
BD405658
BDACA9D5
BB16FC13
BDA342AD
3CA07101
3D918597
BDDEE750
3DA36722
3D32D541
BDABEC8A
3D041F42
3CD135C2
BCFBB0A6
3DBF514E
3D3CE7E1
BDF26DFB
3DBAB8DF
3DC915B6
BD1F7D10
3E19E69E
3D8CC980
BD5326EF
3DC970C5
BDA01413
3AA37666
BDB59ABD
3D06FD0A
BC9C6DCC
3E05E205
BD9703FF
BD7F17B0
3DA156F9
3B80CBBF
BD42BF20
BB602996
BD3F7555
3CB8C4BF
BE03CA75
3D7F6D12
3DA3093B
BE133B17
BE20B94A
BCF3ECA7
3CD559F1
BD460473
BDEDEA44
BE32C481
3D89FCCF
3CD7DFB2
3D2C8E8B

