3D89E3A3
3DBA45C0
BD03E14B
BBF61D56
3DFCDE84
3D410487
BE40DB44
BD7C8FDE
3D6570B2
3CF42683
BE3B9266
BC66B2A4
3DBB3A72
3D97A8B6
BE015B5D
3D7612CA
3E228707
3DBA2F00
B9376A92
3E3B4E05
BD434C3C
BD3AF3CF
BC908FA3
3CFA2D4D
3DA49D72
BC6BB545
BD558B61
BD6352C9
3DDAA453
3DD9738C
3D039719
BDFA97C2
3DBA858D
3E1B4034
BDAD8B0C
BD0276AD
BDEAA1BC
3DE17DAC
3DE95723
BDBA5D08
BBE70D4E
BC5A47CF
BC30C8C2
BCAC3711
BDC11D48
BD3AC4EE
BE7290FA
BE54280C
BD555F71
BE3B182D
BCF827CA
3C91433C
BE183AAC
BE19C463
BE1AA3F3
BB4CB6AC
BD264BA3
BDBACD76
BE083645
BDCA4273
BDA54A6A
3DEA5225
BE19CE9A
3D687285
3E21E36F
BD86A5AD
BC9C2435
BD11BE51
3DCD7D8A
3E5D68AE
3AA41E82
BDCED592
3CB370BC
BCB10DCD
3E40B565
3DEE4B5E
BD57A08D
BCE21F44
BDAAF833
BE463F19
BDAE3A39
BE15756C
3D2E29D6
BE09B392
3B809FC0
3CF58479
BDC3C329
BE01B620
BE19ADFD
BD5CA811
BD8C9CA5
BE220134
BDAED64B
3D492AFC
3DA12FC0
3D103AFB
BD10EBA7
BCEB33BE
3E37E240
3E4D8765
BDDCC1FF
3D3A33CF
3D6E43D0
BE2ED929
3DCDE598
3DC6375E
3DB75296
BDD606F5
3D1EA261
BD2DB2A3
3E16A66D
BE4B4A77
BD850C6B
3D37148F
BC4F3C90
BBFFCE91
BDBFB871
BC03AC8B
BC5AAB92
BDFD0055
3D3D4C4E
BB6AE1B4
BCA5E526
3D2E6A46
3C6C1C99
3DC5F3E8
3E07130D
3DD4A7D9
3C5A347E
BDDF552D
3DC7761B
3E47D8E2
3D297ADA
BCCE4C9E
3D520E29
3DE72D26
3E44721C
BD6FF23D
BC3EFAFB
3E24E734
3C3C7CEB
BD7FA86B
BDE675C3
3BA1F7CC
BD7AD488
BB841DF4
3CAC705B
BD93C28C
BD461CC5
BC72D2E2
BCB3B831
3C5A913E
BD07B32D
BCFEC0FA
BCF23197
BC073964
3C899B6D
BC778FE1
BDCFD0FA
3E192CF3
BD41D134
BD6922CE
BD238446
BD01FBFD
3D8E7524
BDB624B7
BDFA67E4
BD962779
3D82CF57
B938A227
3B9D6BAB
3CC17B9D
BD7784D9
BC3AC2BC
3A73D5F3
BD186665
BD38E8E8
BDA67F55
BD491F8A
3D845903
3C974438
BD8864E3
BD2C3FDF
3C9F03C2
3DE4F3BC
3D3028BA
BD2E8574
BDDAC2FA
BCB5D0BE
3E1766C6
3D791408
3D3DB22E
BBEF79E2
BDBDBDA6
3D8CF69A
BDED353F
3D10F02C
BDD1A471
BDEB3AAA
BC335FC1
3D9BA33A
3D6F9536
3D34DFEC
BD4B0F4C
3D23706B
BC2D9371
3DB10C21
3E2E9870
BD573D1E
3C4EFB7C
BC96D27C
BD20715E
3E00A8C2
BD393348
BC7C583D
BE08517F
BD3A72E5
3E135C71
3D23036B
3D56EB89
3CB522C1
3B0C7567
3E0F6575
3CEAF0A8
BD976548
3D382748
BBD18BD3
BE2151AD
BD903F63
3D2CE157
3D6C799F
BD82D394
BDE1D205
BDA24AE7
3DEE5378
3CA6DA51
BDD767BE
BDE14DB0
BC5AC0D9
3D08B089
BDB6ABC8
BCF860D9
3D33D097
BDA8A26E
B9CE8254
3CDA51A0
3CFC3F0D
BC89EAFB
BD3152A3
BC61AB94
3D6DD460
3C34E5BB
BE3E07F6
BD981615
BCB354A3
BBD13751
BDE24248
BE70C6CB
BE1A53A8
BCD117C1
3E15A1B9
BCAF7017
BE350162
BDAFAE3E
BD61AD69
3DE13A8D
BDBF1FF1
BDE36D61
BDD9DD56
BD8498CB
3D2B9B53
3E0CD734
BE1145BD
BDD544E4
BC809CD2
3BE7BFA1
3CBCD3E0
3C9EE580
3CFA4544
3D88154D
BDC13CB5
BD3E5C54
3DA3963A
3DAEAB9E
BD2DDAC0
3BC0BA09
BD478B19
3D39083E
3D2BAC00
BCC1DC33
BC6207AF
3D52C4A2
3E03155C
BCBCFBF1
3D581189
3D7EF3B5
3BF26A7A
3D60333F
3D049F8D
BBEE309E
BC1CF31A
BE0027CF
3D9DAFDF
3D9CE678
3D0B1394
BDAC28DF
BE1B6422
BD9098DD
BE35A397
BE350A38
3E948104
3E677249
3D1F73B9
BE21BA74
BE5DC84E
3D89A0F7
3E689C09
3E160B5A
3DE41CCF
3D3B7E5F
3C9BC0F4
3DBF77AB
3E5B5B01
3E661D03
3DE5D759
BD9A9794
BD1A15DE
BD01DA83
3CE8F592
3D94612C
BE2A2F2C
BDDA1C6F
BB49007B
BD181FC0
3BB2B9C7
BDBD0599
BDBEE5CB
3C9C905B
BCF61FC0
3D52E261
BE05288D
BDACBDB9
BD8DF915
BD26AAC9
3CFE70D8
BDED834D
BE236489
BE08421B
BE0C2689
BE079F5B
BDCAEB1A
BDAA85AA
BC318CC2
BE35B554
BCFE658C
BE0F2580
BE229FC6
BE71914F
BE490314
3CD5C033
3DCF0B95
3D31F52F
BDCC1304
BDA2F0BD
BE0E03A1
3DAC785E
3DDAB163
3E8EF492
3CC3FFC3
BDDC21BF
3DF79FC5
3E1AD7DE
3E7780C9
3E7C9BE5
3DA8DC1F
BBD32FF9
3D1C7488
3DCF6C63
3D89F4E2
3DBC03F0
BDBADADD
3D1288E7
3BCD0760
3CA0266F
3E2E0013
BDA01CC8
BE329921
BE42ADC4
BC431163
3E0C4FAF
3E2ED73C
3D0E0AE9
BE53D670
BE06375C
BE675527
3E120DA4
3E46C9B5
3DBB0636
3C4698AB
BDF4BBAC
BDD1BF20
BDF070B1
BD6600C3
3BE09C8A
3DC2C347
BCA37E48
BDBE3825
BDFC8092
BDA79A03
3DA191A0
3D4624F1
3DDCFD35
3D5D0B3A
BDAB2592
BDC26895
BCEC0507
3B789897
3DB52816
3D95F181
3D16A7C7
3D0C2630
3D1AA923
3C63CEC8
BE1B4CF8
BDB6E5BD
BE2951C9
BD99ED86
BD0072B5
BD78EA50
3CC4D94D
3C50CD95
BC06E9AF
BE07AD53
BD9C703C
3C03DF7A
BD72E117
BD8B06F1
BDAA0218
BE00547F
3C263756
BC509824
BCF9F79F
3B587BDD
BDB18250
BD13CF3F
3D0AC87C
3DDB2EDF
3D7255E4
3DCD1720
BDE5E056
BBE36D8F
BCE18497
BD7B2D58
3CA8E770
BC3C70E2
BD207C46
BDD9E22F
BD04F5AB
3CD375C8
BDF414CF
3D33860C
3D23D7D4
BDFAEE1E
BDA8FA56
BD83085A
BE2140F2
BD667DA4
BDDD814C
3E1B1329
3E3DF50A
BDCAC6C1
3AEA2C3E
3D8E6949
3DD7B34C
BDCFB51A
BCA276FD
BDB93667
BDB7FE14
3D6E7179
BC884B42
3BB54D26
BD26A587
3D0FE50E
BE29F686
BD977608
BCBC1BD2
BDC216AD
BCF6301B
BE2A52C0
BDAAD4F6
BD78BF60
BE242205
BDFCA45F
BD91A8DA
BD882E82
BCBC56D0
BC3091CA
BD7EA54F
3C7C06B1
BD6AF57E
BD9EFD01
3DB594D1
3C25F0BF
3D31641D
3DA0B27D
BDACEBFB
BC68D54B
BD3E8A39
BDB9CD88
3C993CEF
BDD42FC6
BDC59E75
BDEBFAB6
3DCA4C6D
BC860CD8
BE303B5B
BCB7F14D
3E07B9E9
3DB57366
3D587720
BDA9B8C0
3DE6165A
BCE46DC5
3CCB35A3
3DB75194
3CAEA78F
BD2CACF0
BDE424B3
BC9F0510
BDC5EA19
BD40BA48
3D4D1016
3BA718BD
BDC882D5
3D8112B0
BD954BA4
BD9C9C8A
3DB61626
3D102AEF
3DBAB4EB
3DEDF8D9
3E3675F9
3D51668A
3DCC6A1D
BBDDABA3
BD7704D6
3C9AD8E9
BE1CED99
3DFBDC8E
3E506FAD
3DD9CD0A
3C7152BA
BDD924BF
3CA62FBB
3D68C060
3D8F1E78
3CB4A7D5
BD425FDB
3D46E87B
3D3703A0
3C9B82A8
3E1A19DF
3E561291
3E0164F0
BE2D3C01
3E512147
3E28ED2C
3B819256
BD9A4B78
3E29272C
BE176380
BDD9C842
3DD617DC
3E714365
3DDD4219
3C8F9769
BDAF67BB
3D81A783
BB6E9963
3D218C80
3CCDC356
3D0DBAC5
3CBF11D6
BD83F87A
3DB6EC51
3B5A3D89
BD826C3B
3CE13855
3DE46524
3DAB539B
3D7E0863
3E10D3D0
3E108E25
BCCCD14A
BDF19441
3CE4DF91
BD57F83C
BE0046B8
BE12F137
3D973343
3C37FCE8
BC4AC4C7
3DE048AF
3DC3980A
3DD75773
3D1609E0
3DD03FB6
3E138B02
3E46C5E7
3DA320ED
BD4BBAD3
BDE255CB
BE04745E
BD2E7E13
BD140B94
3D8E4A91
3D303F9C
BE0E47A7
BD8D0F10
BC1EC6A3
3D88341F
3CFED1D8
3E0B155A
3DD3820F
BE0EA622
BD5DEBF9
BD9FEE1E
BDC68B8D
BD13D26D
BC9E0CB9
BDD14EBD
BCBF0C97
BDC49B96
BE39D51B
BCC2FDC0
BE0C2355
BD745B55
BE250F96
BE6401FA
BE63E0A7
BE0B236A
BD460DE1
3C139693
3D7674CB
BBE6C0BB
BDC9C541
BD7AC711
BD0C5D65
3CD24FBE
3CC5A645
3E419854
3E18F5B6
3DB76F36
3ADC917D
BC710036
3CF0BA32
3D98427C
3BA25B77
3D9B6D8C
BCFECC81
BDE3E4A7
BE6E99B6
BD9DFD47
BD40F237
BC7F1EA6
3A0D621C
3C8F62BC
BDBB3F6A
BE3E7978
BE32872C
3C9D9C1E
3DA0E0A0
BC6112D0
BE820906
BDFE353E
BC11CC61
3D014654
3CD7D4AA
3BD896DB
BDA15ECB
3E174F2A
3E23E76F
3E39C68B
3DB88225
3DD8104F
BBF30EB0
3E61FC13
3EA64FE5
3ECFC3B6
3E8C56DF
BD074D74
BE639CDB
BDA54E21
3D2B557A
3D9914E4
BDA1896E
3B2EE1E9
BD964C7B
BDF7D7AA
BDEBD478
3D9E9580
3DEDDC1F
3C9C5578
3D5CDB76
3D1F2F4A
3D116B51
3D12045C
3DB8BDAD
3DE6FE43
3D9F0191
BCFC1214
3D8B4846
BC833F5C
BCB72D8D
3DF41D3B
3CD68ACE
BE0A56A1
BDE184DA
BDB7E256
3D74DF8C
BD4CD299
BE1212C2
3CB7BB9B
3C977420
BDA00822
BCD69516
BCFDA207
3D18BD83
BD78A193
BDDD0055
BD821153
BDB4DA39
BD77E154
BCDD09B5
BD8DF723
BC42D449
BC2E832D
3D82CBA3
3DBD315F
3DBCD79C
BD81C99B
3D379850
BD5A5644
BD9097D1
3C437A1F
BD6EFAA1
BDBE1125
BE6CA013
BD60DF6A
BD45126B
3C58FD8A
39905091
3D879D67
3CDD504F
3E0EE571
BC0C290F
3D30AE31
BDB6A57E
BD9E22C5
BBD12F29
BC63042C
BDA5F842
BDBAAB89
3D17479C
BD420BED
BCF284A7
BE7B5CB4
BDEDFDA9
3CE7E2AB
3C970888
BDA1F382
BDEE4CC2
BD25901A
3DB250D2
3E5E92BB
3CDCE6BA
3D1C2343
BDBF5462
BC1381FF
BCD6060A
3DB96F29
BB3D2423
BE590916
BB9F7490
BD6C1092
3D0E6325
BD29EBAC
BE49D7E8
BDE36685
3C1B1E6F
3E05EB00
3D6B4583
BE10CA9D
BDC78DC8
BD88F030
3DB6B304
3C0815FE
BE222760
BD48D9B8
3D50BE37
BC511BA0
3C0C1722
BD2B55E5
BD88690C
3DF2A83B
BE08C3BC
3CB4BB38
3E023528
BDCFD039
3D9FA6AE
BE755EFE
3DD0E355
3DE0FA15
BDA8ABA3
3CAB1EC0
BE284A67
3C916413
BC781EAF
BD4C26BF
BD714899
BE00B970
BC37FFB5
3C012290
3D0E82F1
BC75C215
BD0E1486
BB9B0FFE
BDF116C0
3D92ABCD
3DC2BBF6
3D74456C
3B9B2E87
BE6BDD49
BCA00C68
3D276C26
3CB6E4A2
BE01D2C7
BDE629DE
BE279A43
3D06626D
BD78DB96
BD35E9AE
3BB8ED5F
3C5160F8
3D8358B6
BD709B60
BCAFE191
BCB475B2
BD8DC802
BD5D70C4
BDB4EAD5
BDB1F721
BE2A23F9
BDEE5967
3CE385E6
BE1A4919
BDBA2686
BE1B258B
BD568A1F
3D98251D
3CA212D1
BD804A8D
BE82F8F7
BCC8C84D
BC42F48F
3D8745A6
BCE2B48D
BE02F5E7
BE22D594
BDA711CB
BD840F7F
BD229592
BE338548
BDABC4A1
3CB29D5C
BE08A7F9
BDD4CE2C
3C857D16
BD4B6EC2
BD8763F3
BD200254
3D96CA14
3E049F28
3DEC6B6C
3D83A9CD
BE05A4A3
BCD70559
3DE94C3F
3D32B536
BBCBE330
BD9F6547
3BDFB8E5
3E12CDD6
3D35CD52
3D382E75
BD45E752
3E305DEF
3E05CB6F
BD6029C4
BDDAEDDB
BC6A59F6
3CF99F9A
3E0D8A4A
3E8DB244
3E94453D
3DFB491A
3E40FF89
3E2D8A33
3CA201B1
3BC811FA
3D983360
3D8CE55F
BD4B77B4
3D8BEADE
3E0FE7E9
BE141136
BD596570
3C38CDE2
3CD7C96D
3BC085E1
BE1A7123
BD9A2091
BC9E37C0
3CFB1CED
BBDD78A2
BDB64F9A
3D97DF52
3DC652A2
BC9A2711
3BCE3221
3DABBE00
BD24E0E0
BDF67391
BE42EFCE
BE552266
BD001D49
BD1D2215
BE05ED9F
BE4B90A7
BDAC5366
3C7A018D
BE7651A1
BE0FC3F9
BD726023
BD89CC79
BD8C5E15
BDDEC235
BDC3A2A5
BDB1F1CD
3C2DFDF7
BD91E0CC
BDF8F591
BE2DCA61
BDCF13CA
BDCCE740
BD6D2A45
BDC0240C
BDF42212
BD3C8998
BD9FC4DF
3CAEFEA3
3D615BCB
BC34AA25
3D614D19
BD417F52
BD11D859
3E27C8F8
3DD5CCEC
3AB4216C
BDC4197D
BD2727F5
3E83E924
3D89882E
3DFDC8EC
3DD58ECB
BD9E30FD
BE44250B
BE2F04E4
BDC22CD8
BD72A72C
BE51F2F1
BE0266F8
BC9741A8
3E09E3D6
3E019595
BCD48594
BD9EA942
3E0FF9DB
3DD2CCB6
3D97561C
BC631150
3E05A295
3E09AA3F
3D353FCF
3DCF6D45
BE005403
3C6AC965
3DD8F767
BD215F88
BC6EE01C
BE7A927A
BE6EEE4B
BDBBA187
3D452A9D
3E22B396
BD7D5765
3DCC9675
3E0AFB20
3E29606E
3D6D6DF6
BDD39209
3BDC4403
3E097AB3
3D9822CA
BCC01492
3D85DB82
BCFE2F0A
BC9AE8BE
3B41E9A8
3CA33395
BD48EEA1
BDF21204
BD7B9F4D
3E15BC46
3A9FC8F4
BD7DC376
3C3B9F80
BDC5D692
BE25E207
BE5DDD99
BDD8561A
BDFDE1B2
BD7B5999
3C20F2D6
3E009097
3D89C39C
3E084254
3E0D5C3E
3D0610C5
3D49807A
3D9ECCEE
3E312B1B
3DF114BD
BDC54A37
BDFDEE5F
BD350774
BD345729
B9E064E0
BD201BCC
BB6823FC
BD97B188
BDA2548E
3DEA07F0
BD95D5DD
BE6AD723
BDF44BA6
BD17B9B6
BDBAC6B3
3E10F185
3E62D26B
BDC56E92
3BC15EEA
3E07F7B5
3D91FC92
BBD1024D
3D959DFE
3E0B5473
3DBC1290
BDD85A8C
BD72A66B
BD6AC837
BDA2616D
BC0E2A46
3DDD39C1
3DFA9CD4
BD2E5611
BD35E3D5
BE17AE7B
BE720C84
BC9BCF26
BD2F0E21
BE42CAA5
BDA575BC
BE17CD97
BCABFE0C
BD7739F4
3D447D9D
BA9EBB68
BD92F694
BE204A55
3D53A4F7
3B82FFA9
BDC67C41
BD71DC75
BD5BBAEF
BE0658D4
BE1B484D
BD1880AF
3D91673B
3B6F2357
3DDFBB62
3E3746A3
3E565F5B
3D8779AE
BD822086
BCF889A9
BBDF401D
3E2FF001
3E20EACD
3DA25548
3C35E8E0
BCB72531
BCD46335
3DA1277D
BD642A3D
BCAFAA01
BC60B76E
BDEECFD3
BDFD9B7C
BDA6354A
BDFB695A
BBEF13EA
BB06F4D9
BDC43080
BB99A754
3DBCEA3E
BB5FB19D
3D452B0E
BDDCE729
BD52C9CF
3D54485A
3E24FB09
3EA8C79D
3E48C3F8
BDCB0908
BD56FBAE
BCC7ABC6
3E015CB2
3E183052
3E380E45
BDC8BD05
BE5C4504
BDC56428
3D98F251
3CE43199
BDAA26B9
3D27CBA5
3CB81A77
BE0E4942
BDD74C2B
BBF19470
BE213D14
3DA43AE9
3DD4AF38
BD4F6A54
BD569137
3D96B4D0
3DAA49AE
BE02D202
BD1B571B
BD19F9D0
3D41B8CA
BC4FD87B
3CACBA0B
3D9F478D
BE032E57
3DA347A2
3E6CF937
3DCA26F8
BD974383
3DC10306
3D7032B5
BB65F3FE
BD8CCB5B
BC276D91
3CA82769
3DA2242D
BDB108AB
3C90B914
BD10DB95
3BB5E633
BC8E34EE
BDDC9DD2
BD2DAF76
BDA6989C
BC0961AE
3D54CB00
BCCA0146
BE3A2A80
BDBEDF8B
3C9DCEB8
BCD72932
3D4BD32D
3E140215
3DC72DB5
3DBB12CF
3CF1DA76
3CBC220A
BD31E31D
BD0C5818
3E131CE0
3D8CDD6F
3DA7D32D
3D1FC985
BD25C18B
BE46F5E6
BDCBDED4
3DECB630
3B25B393
BE080188
BCCDFD82
BD66CC32
BDD49F0E
3D8DDDF5
3E59CEC6
3D491EA0
3B9D01F7
BC0E4626
3DE675ED
3E13C250
3D9091BC
BBF1D9E1
BD1F884E
3DBD0529
3CED4418
BD491287
BD6ADA21
BDDCE074
BD1290FF
BE61FEFB
BE156110
BE18D58D
BCA282E0
BD1747DC
BE0D5947
3BA64045
BC9FE888
BDA6FCCB
3D6B957E
3DB3ABBF
3CE2A142
3B7D50DB
3DC2F6C8
3D7CB172
3DDAE77A
BC88B49D
BCC92E21
3D909FD3
3D6D3832
BD9EC042
BD5A45C5
3C5C47BA
BDC30B35
BCA83023
BDFB45A6
BCADDAE8
BDAB9C84
BDC5F655
BE3CF14C
BDD418F9
BC6D7E69
BD26E47B
BE6BF95F
BE0D0D35
BD923377
3DB43EA9
BD8E0C3C
BE577F52
BE8D3430
BE1EAFE6
3DD82EB7
3D44D20D
BE3CD5F4
BE0AD813
BD20A958
BD19E09B
BDA05243
3D11E4B1
3D974601
3E0358A9
3E1B48CF
3E83E372
3DCF6D2B
3E3D1DBC
3CC86D20
BDF58776
3CBC49D9
BD029C75
3CA3C6BF
BDF2D23F
3C092511
BDE673B3
BE2457C5
BE09B4A6
3C816BFD
BCAF06B3
BDE73EAF
BBBFABCF
3D5694EE
3D8CEAF0
3DA9D8EA
3E5611B6
3E2B1F74
3DDD0243
3D07E753
BD000339
BE020409
BB8B5F44
BD1CEEF5
3C2D98DC
3D71FC5E
BD4D9DA1
BDEE0D6A
BE702E86
BD050B14
3D644219
BD4C0C4E
BB912ECA
BBCC8454
3DAF8627
BD55C7CC
BD07BAA8
BE240932
BE01DEFE
BBCF6484
BC315367
3D0CC1B5
3DFAD2AC
3E0551DE
3D1E3C08
3D43BE28
3CB64A52
3E09EBFA
3DD29E36
3E1AE7F9
3C9F1557
3D2E9930
BD437CA9
3D3F3578
3B877E5A
BE130C46
BE19730E
3C85B1DA
BDAB07CB
BE0BB2F8
3CF7205B
BC6DA1BC
3D6A1EA5
3C4B2287
BCE72354
3B29E996
BC0CD6E3
BD9BA32E
3C0267D5
3D17675F
BD98AD4D
BD5932A0
3D63B02B
3C33C182
BD9B9C04
3CDA1200
3E5267A9
3D9C2791
BCF981FC
BDB8E05A
3C825F72
BAAC3BBA
BD7552F3
BD2B1BA3
BD6F5F92
3D02AE48
BD313729
3C87E304
BC3DAA41
3DAB8FB5
BE57A561
BE154837
BD02D4D5
3B9C4B2F
3CDE983B
BE03282B
3DA3806B
3D45927E
3D3DCDAA
BDB91464
BDC24B6C
3D595F90
3D861644
BE127210
3B9CA28B
BD66F1FD
BC1629BE
BE31578A
BE043BA0
3B642C4E
BAB3BC1E
BDEC4239
BD69FA8C
BD2CE9A4
BCCDCC4E
3C58A72B
3D9645AC
BDC35E36
BD0AE047
BD5D9CE1
BD9D20B0
BCA217C6
BE1C0049
BDC8D5D2
3DA641A9
BD936A31
BDD954AF
BE4B5ADF
BDF24898
3D844AB5
BE2723FC
BDF58496
BD02AD25
3C2CDD09
3CCE90A6
3B55B264
3D63F116
3DABE616
3DD36CB4
BD49661D
BDA265CE
3BECDCC8
3C9C691C
3CF10F76
BD3CBD73
BCEF097F
3BAA81B7
BDEDBEFC
BDA13D71
3D8526B9
BD2F1CB9
BE0C82F7
BDF7763A
BE0FB350
3DAD8BAC
3D88113E
3DF5032A
3DA3FE49
3E393497
3D835083
BD723904
BDC3D2C3
BDB9EC31
3DA358DC
3D6F3BD0
3DA5D4F3
3D4B0899
3CBC2528
BCDB2600
3CEAC7DB
BE079795
BE7AAC2C
3D1DEDD5
3DD3600A
3D41982A
BD951008
BDC264B2
3E58F70D
3DD24B4F
3D0F4473
BE13278F
3DE01EA3
3E3FA643
3D5E2DB9
3C0EEDC7
BD1E6DE3
BD199CF4
BD4E194A
3DC5F711
3E14DD54
3D70C156
3C0D20D5
BDD9D842
BDFDDF27
BBBBF89D
3D67148F
BCDF0AE4
BD9B0CBB
3D36CB63
3DA30BDA
3D9F4AF9
BCC1FD6A
BD03FB04
3DB075BC
3DC6FF62
3C31BCCE
3A895713
3D80F893
3DE1F4B6
BD65FEF4
3D41C513
3E3493DC
3CAA8E54
BDE9924F
BB5796CC
BCF44E28
3AFB45DB
3DCBF1EC
BBDA1958
BDC2F59D
BD19E5D1
BD4ACAD1
BCC24A35
BDE2C102
BE06E8F7
3CE0837C
3C498D62
BE555631
BCAC62A5
BD148CDC
3D482A90
BDD10880
BDCB8F1D
BDCC21F6
BB296F3E
3CB6EF9D
3D81FCC2
BBD9B3E4
3C986C7F
3E1CAC5E
BD03403A
3E0608D4
3E024501
BE32726E
BC8C52AA
BC8FCC22
3E00D598
3D0ECF3A
BE6F837F
BD9AE82E
3CC46C5E
3D8A3197
3A24F0A6
BE4D990B
BD5E26FE
BD982997
3C453B05
BDC60C96
BE1720B0
3DAE0A58
3C178378
BDD32429
BE12078D
BDD6BA13
3CCFD7AD
BDD2BF27
BE6E68D3
3D755A94
3D530E04
BE08C7EB
BD04E138
BE2A9577
3DB1C2E5
3DACC880
BDD07FBE
BD5ABD50
BE877D5B
3CC33C0D
3E422F00
BDE4F570
3CAF0D0B
BD3A89BC
3C79426A
3DA14B0F
BD8B42E0
BC9F5270
BD52E2D5
3DB180E8
3E349AD1
BCB32D67
BE14AF84
3E11CBDA
3DCC69D8
BDAD0C78
BDE64F43
BBFC32F7
BC0071D9
BD6259D3
BE808911
BD190ACE
BDBEB5FA
BE249C99
BDBFAB64
BE1B9D5D
BDB541E5
BDE6DE49
BD953D12
BDA48527
BBA3A619
BD9E7668
3D4D2A93
BD464B02
3D706202
BC5099FB
BC29E340
3C5BB595
BBA30A2F
BCE68362
3B042A56
3C66E792
BDDDA3D0
BD8B30AF
3E091112
3D73B37A
BC263BB1
BD8B067A
3E100DAC
3DEEB17A
BE68D6AB
BDB4DD14
BCB8FA55
3DEBE272
3D36995E
BE7969E5
BDBE74E7
3DD65426
BD248B1F
3CC4BB17
BD8D4284
BD684BCF
BD8C14C6
BD75602A
3D4ACD1F
3E2DD0C7
3E09EA4C
BDA9EAF5
BE32BEF4
BD24F5A4
3E907904
3DE99F78
BC64ACD4
BDED3E14
3E0B6428
3EA6DE4B
3B6DA90E
BAC6A9AD
BCCAFE5C
3DBBF6CE
3E3640D9
BCDB09D1
3D1F3788
BDC22B22
3DFF7612
3E11E7CD
BB6C688A
BDA43DC1
3D5DF7D0
3D3ABE44
BDEA2D0E
BD3BBD80
3D8FBCB3
BCEA9062
BE0FA331
BDE90BEB
3E26EA8E
B8F73D22
BE46D0E8
BE783D73
3C1C8D32
BCA2F4BF
BD952E71
BDD0080F
BD4D1F19
3E0275E3
3CCC8904
3CDD67E8
3D296010
BBDC0045
3D1F8D73
3DDDFDF8
BC622F4B
3B4E5E70
BD344421
BE548617
BD7D77E6
3E2ECA64
BC24FC5E
BDC9463F
BD1160DD
3D5AFB9C
3DB0E173
BD1E7506
BE21000B
BCD72956
BC6AD39F
3CA1FB1F
BE45A5C7
BD525258
BDCD3A69
BD8BE200
BDD4B699
BE3E21F4
BE5923EA
BD8C41F6
BB8B7244
BE5951E3
BE12DEF7
3D9FE139
3DE1C1B9
BCDCE6F2
BE53113B
BE280EE9
3CBFED93
3DB9E3A5
3B54FD8E
BE8F9B51
3D020F39
3E5DAB80
3E05531F
BD77399B
BD058D34
3E4E47C5
3DF8FC82
3D2A1649
BD8BA4D8
BC8DE883
3DDBCE75
3E076A3F
BC10E890
3E0D163D
3E0F70BD
BDC67E71
BE3974F1
BE4042DF
3D184100
3B5EC82D
BE5F3ACE
BDF16583
BDCD2D5F
BD5CC436
BDDE34E4
BDD7787D
BD29C7AB
BD97E253
BD877B56
BDE0A308
BD23F2CC
3D965963
3DBC870D
BD077B5A
BD92A465
3DCA6C14
3DC53D79
3E2756ED
3E02295D
BD5F112E
BCC5D009
3D61296D
3E0D4136
BCC7F027
BD9D1320
3D8F6A1B
3E349EE8
3D66DDC2
BE32B78C
3E0F084B
3E125593
BE281F21
BE014075
3D4BFAED
BD20672F
BDC56297
BE45C88D
BB574BDB
3DD3F2AB
BD84CEC4
BE265F71
BDDD8FE1
3D4F6CB9
BD1A6911
BD8E5621
BD95AD0E
3D5305A6
3E2A2F34
3D62851A
BDEE75D0
BD99E71A
3E7D5FCC
3E82D86E
3BF554FB
BDA92514
3E2976B8
3E73B141
3CCACF0C
BD9470A7
BD7EFCA4
3DC7C822
3DB49C13
BE040548
3D1AF639
BE17392D
3D2F8CC7
BE1B9B4B
BE02FCB0
BD8996FD
3CE0F559
3E29E2F0
3E9698EC
3E58FE10
3DDC5BB6
BE5611F3
BE5A0C22
BE1CF8FE
BE066FCE
3D2B76B8
3D8423E9
3D85967E
3D6291F4
3D209591
BDA4EF96
3E44734D
3E91411B
3E33487B
3DB3D091
BD42AA1C
3CC689B1
BC86C9B2
3CC9D1E6
BD0D8633
BD6D2693
BD44CD73
BC4AA2E4
BD87BF75
BDC5D093
BDC417B7
BE3997EF
BE07B79F
BE46C6CA
BD1C4A47
BE2AFD12
BE0FF197
BD47ACD5
3DA7FCED
BC9B91B5
BD998C34
3D3B4423
3D992496
BCCD5131
3D7951EA
3D09B4AA
BDDF4913
BDCD66C9
BCE822E8
BDBA3025
BD7C69E4
3DBD60CD
3D2BAC2F
3CB9DDE8
3D066909
3DD31D81
BE2F688D
BE69B4E3
BD979C4B
BD45C03A
3D29C133
BD9188DA
BE08962C
BE5BF3F5
BE354FFB
BE39C4BF
3CD15AA0
BC3E8B6D
BE404B3C
BE07BE04
BE38BAAB
3D753268
3D614F92
3D8F40AD
BCA7F942
BD853C92
BC3FC1BC
BDC3C43E
BCCE6B36
3DC75A7D
3CDC41C9
3DF5C043
3E7FAFBE
3E5EA15A
3E89DD0F
3E8FE2CF
BDF4478E
BDED6B24
BDC77DAD
BD9AF779
3CC0D9B6
BDA71176
BDA42B22
BE09DBF7
BC6FB194
BE2B392D
3D7B2DE4
3DFAE079
3D5CCC0B
3DFB8B62
3CBF6604
3CBBC835
3E113B06
3DF9A84A
3DEB2B14
3D6DE399
BE5DB51A
BD95D67D
BDFC5BB7
BD51576F
BD21E2D4
BD94A785
BDE0EF08
BE1C868F
3D2C199F
3BCABFAD
3E0A987E
3E1F74AC
3D59B0DD
3D46B7F2
3D8E3F11
3D21C71C
3C8BB68D
3D86CD80
3CA3F85E
BDAF096D
3D289F84
BC1D6431
BDF328C2
BD081BB5
BD927CF2
BD1442E5
3D1477B8
3D384BCD
3DAEA530
3D1400CA
BD9A2382
3C00B99C
BDB74E77
BDDCA7E9
BD3C7065
BE2117BD
BE42B9C2
BE7B3191
BD5AF502
BD169C1C
3D59D2D6
3BA6C75C
3DC73221
3CE4589B
BD052C1C
3D4384A0
3D9BE8A9
3DE71235
3DEE7976
3928DEFD
3D1C381D
3DBF7943
3CA8CFDB
BD3B487D
3DCBE597
3DE68B1B
3D6AF4FD
BE0561B3
BD32DE07
3D490E2B
BD45AB08
BDD7DB44
BE6D91DE
BD1A3A2B
3CDFB211
BD9F4952
BE7D5896
BDF554FB
BD6263D2
3D44F9B3
BDB868F6
3CE46CC3
BD7EA8FB
BDDCAB95
BD6C8758
39724515
3C18B20C
BDBD7CA3
3D80A026
3DC8E0D3
3CC733D8
3B8F23F4
BE19BD8A
3DC67E7B
3D6411F9
BD949445
BD1948A2
BD9D0BB4
3CA1949A
BD6533E3
3BD50DA5
BDFB8D6B
BC2758F9
3D7FFB95
3D10D81E
BD513310
BDA915E6
BCA2480A
BD9F0390
BD710709
BDDEA45A
B9A20F37
BDA775BA
BE173800
BDFDA338
BE0A3E64
BE4C7CB2
BDDE2788
BE10A52D
BE00B02E
BD1C9FA1
BE12C17D
BE39C30E
BE1C26AB
BE1E3C85
BE05D94C
BD801241
BDB959CF
BDEC581E
3C829577
BD830C18
BDA27945
BD016874
BDA06887
BD85D2F1
3D1465AE
BD9E313E
3D2585A7
3D62FC82
BD634FFD
BC406604
BE1F3CB7
BDEBB4D7
3C564CAB
3D0DAE6D
3D28CC48
BD411CA3
BE1E73CF
BD92D626
3CC24A6B
BD0A1170
BDDE0564
BE356F87
BC06529D
3DC2B1EC
BD7A9520
BCCAD988
BCF4CF24
3D7F4FC1
BCA945E3
BDB63D54
3D9BB092
3CDACB06
3C6D0103
BE0AAD03
3E10953A
3D3418F6
BD70BFA3
BE305A09
3C0CEDD4
3E85C15A
BC4A71C5
BE569EBB
BE4C1957
BD66E49F
3D16680D
BE0CECF4
BE5614B5
BC7C9F0B
3DE12A26
BDBF8ECF
3D1C94BB
BB5DDF13
3DAF9189
3DB52EAA
BDAC164D
3D7DDB14
3DBA812C
3DCB442B
3DC99CD1
BD9105F1
3DA5D7CA
3E855250
3DDBA8E6
BDCF629C
3DD3E295
3E7AA99F
3E702E86
BE0ABE8D
3D65A4BF
3E390841
3E647E02
3CE9B7AB
BE15613B
BC927127
BD48F63B
BDB884F9
BC9EBF12
3D8B562D
3D7DF178
BCEFA42C
BC572834
3D08110B
BD4DC2FC
BD55B335
3D8A6A0D
3DA38565
3D836730
3D380B14
3DF883D9
3C31342B
BA780D77
3DE13D26
3C2479C7
3CC2CA63
3C9BB7C0
3D4698E9
BDD212B8
BD8EB50E
3D7575FC
3CDAA35B
3D08EBD8
3E2037AD
3D4BAA28
3DD54581
BDDBC673
BDA74C2C
3D8653A3
BDD1942C
BBA0C461
BD8FD50E
BC51488C
BDABE51F
BD9D013F
3D014414
BDAEA730
BBB969E2
BCE96F38
BE1B817A
BE08E3CB
BD72C3A1
BD744627
BE063345
BE12F9D7
BD73866E
3DEFA0A5
BDDFEB53
3CADBA99
BD809BE3
BD58EDB9
BDB735C4
BE087EE2
BD949BF8
BDC64355
3C817406
BD23B5A5
3D32D7F6
BCDE03A8
3E09504F
3D407170
3CABFDB1
3DAA9DBF
3D75E341
3C877A35
3D6F461B
3D931F90
BD2900E7
BC6A40C5
3D794009
BD961CB2
BD93E4AE
BE4EA1D5
BE4E048C
BD5A63A5
3D48AF42
BD95CB7D
BD3F5F23
BD3C6183
3DB3F436
3D9173E8
BCC53D88
BD6931EF
3D12B2E0
BDF24C3B
BDE67F96
BC1B202E
3DD7AEC7
3DF3D458
3DAD27CC
3DFB02F9
3DE0A033
3DBFA47F
BC852159
3DA669D8
3D930A5E
3C1DEC17
BC2FA2EA
3D4AD9EF
BAEE538A
3DC12551
BD885015
BDF61B6C
BCEA6C3D
3D95E6B7
3C059FA3
BD2A3836
3CC09A99
3DA94452
BD8B6025
3E09ADA7
3DA1DD65
3E000E74
3DC8674B
BBAF3AF7
3C918DCA
BBE5BD5A
3DE6B7B7
3D1B7921
BC0FD7AD
3D36F044
3DD65337
3D21FB1F
BD1F3842
BD07986B
BD778C9C
3D422A4A
BD282382
BD16FA93
BD67A192
3D3D26FA
BC3AAC75
BC263919
3D2AF5A8
BD0EDC3F
BD109E68
BD33E9E8
BDF67EA9
3C8D366F
BD8D997A
BE275E5C
BC453CEE
3DD1FF7C
3CEBB9E3
BD108FC3
BC11F533
BE04647E
BE166411
BE4FAC2B
BDE60CF7
BE2D48DC
BCCA429E
BDEC9F11
BC297C02
BCF6E227
BE52FBEA
3DFEA92C
3DDA0C8C
3E3EA976
3DD81C53
3E1E7F51
BD633578
3BBBDB3D
BC3D54BB
3D2092B3
3C8D6D3A
BD353111
BC89AE47
BD355621
3D6D7BCE
3D8A97B6
BE220258
BE2EB015
BD1D475E
BE2125A2
BE0F6759
BDEC332A
BE1CBC3E
3D00210E
3D800F84
BDD2C363
BCD37E79
BD660B4A
3D094BD0
BCA80010
BD07B741
3D87F405
3E004A62
3D44CD2A
BC6D7288
BD42DE38
3DA05B09
3DC5BAC1
3C83D9B7
BDABD6C2
BCF81F82
BE068E6E
BE23C20F
BE36C35F
BE2674ED
BDF9E15C
BE300433
BE2319C0
BE11026F
BE14BAB1
BDBADBF3
BE19B7BB
BDBA9568
BD9ED5CA
BE2B032D
BE068391
BE78BB0D
BE3A9297
3D2711C7
3D7F7AB8
BD23AC7F
BD50BE98
BD1B0F48
BB329A1E
3DDEDD7C
3D271872
3E299A0E
3E06E6AC
3E1A5299
3E07DC1B
3E80D1BC
BD836F8F
3C5FFD46
BD9D7844
3C309ABD
BC9527E0
BDD5BC94
BDDF76DF
BE39DCC9
BE7AD83C
BE35D08A
BCAD7759
3DAF1900
3D5D6F3B
BD0355B8
3D3FB70D
BE2868C4
BD03480F
3C9102EA
BD6D58CF
BD6BE49A
BE150554
BE055D21
BDB92EEB
BE415CDA
BE592AC8
BD6599AE
BE0E3DD8
BE84296F
BE2C3E40
BDC6EB85
3CE8C372
3CA1B7D6
3D8CF46E
3DE7E276
3D7BB80B
BDDFE024
BE481C3D
BE27C2C3
BD167D7F
BE34B06D
BDC1A406
BD4BF05E
BD14C2F9
BE01F1B8
BDF41F8B
3D928457
3D54DCE8
3D8A6C41
3E0DFD13
3E2618C8
3D330565
BC47D0FA
3BF4F25C
BDC98AB3
3D9E5718
BD755991
BE0943AD
BE6438AD
BDE1B9E4
BDD21FA9
BD97C486
3D33215C
3DDB608E
3AC003C4
BD79440B
BDC4FB23
BCBCF21F
3DA53696
3E2E8C1E
3D10CF99

