3D468A40
BD20A8AC
BD2D144D
BCFF9545
BE2C5DE7
BDF973F2
BD02A846
3DA05D7B
3DE858F0
3DFC37AD
BDB1AAC9
3D0A68D7
3E1BA6E5
3BB7AB66
3D21FD7A
3D29DC44
3E2C39C2
BC164C94
BBEF3395
BD35EC28
3D756684
BCEC1C95
BE121364
BD9F6F94
BB2D89CE
3CB71AA4
3E061D82
3BE2D7DA
BD2DD73A
3BE517BD
BD244F0C
3C93EC31
3D84D202
BACF0015
3C998D9F
BD83D691
3CF7221C
BD02E73F
BC62E807
BC7E46C8
3C79AD74
3D885542
3B4BA7F1
BDCF42E7
3B976EFC
3ABB1944
B9C115D4
BCD2D11C
BD8CC9C6
3CE30C24
3DCF08CE
3DD6254C
BDB04255
BD72A156
BD081099
BCE54B0B
3CB2964C
3D8C8447
3E08FC24
3DA09C8E
BE16B783
BDAA87B8
3D3918AB
3DA0FD40
3C3488A3
BD4F1A64
BE1007E8
BE02E3D4
BC8CB818
3DB6DA36
3DA917B9
3DE9D3E5
BD59DCD1
BD8041CC
BD3EC94B
3CED6DCD
BCAE48F1
BDFD3CC2
BD17CEBF
3C3FE342
3D855E4F
BCA90CC3
3D2CA10C
3DE0EEDC
3DB0C736
BD47D777
3D4E3EAF
3A1A1505
3CD7B098
3D4E1487
3D0486AB
BCBB5A49
3D3A1C47
3D414004
3C1A94FB
3AB62E27
BC8B4FF8
3DFB0C04
3CAD8EE0
3C07EE05
BD0E6DF1
BD730CBD
BB9FE502
BBC6A783
BC7CCB8A
3D5F01C6
BE190447
BD971F1F
BDD36CBB
BDED6097
BD62A42B
BC705C65
3BA978E3
3E1B40A4
3C2FF1F3
BDBF4FA0
BDF50CBA
BD21AE09
3D693DCB
3DBC1301
BD43AAA8
3D121A27
3DD26BE8
3DEE5C39
3DF625CE
BCF14F3C
3D5C12FF
3E204530
3E423805
3E53D7B6
BD6B6464
BD98A0B5
BD830902
BD7F5D7D
3D79C15D
BD7F27E8
3DA34962
BD966420
BE165D51
BD95CA51
BD1B4ACF
BB844EE0
3C87130D
BE09B437
BDD52E97
BCE1D1C6
3D9D7058
BD3DA327
3D2C4B4A
BD0FFD44
BCA65FD4
BD92F16C
BC36317A
BD939102
BD8D7DDC
BCAD0A0E
BD0F70CA
BE098F1E
BB3EB12D
BC7341F0
3D0D7EEA
3DC593BE
3DE74D3C
3E9338B5
3CC7F58A
3E140817
3E087C76
3E1A5A0E
3E4243A4
3DF54BC4
BDC3A3AC
BDD58BA5
BD9691A7
BCE3D21B
BD9DD3ED
BB4181E5
BD94A61F
BDA2EA9A
3CB6F5A6
3DE7D90C
BCA6AF02
3D3596A6
BD425838
BC50AD3A
BD8808B5
3DBB1A6D
BC3FDF11
BCFFB79A
BCA50271
3D24D9DF
BE366E97
BDC71D85
BD309199
3D55F344
3DB117EC
BD94B5F8
3C60B5BD
3E027863
3E487278
3DEA069F
BDE1CCB7
3C758FA6
3D80252B
BD3175A5
BD00F4B6
3E012403
3CE46A09
3D6B9D9A
BD920761
BD8CE451
3E296CD1
BD2578A8
BD500109
BE03AF8D
BDCAC96C
BBCD00BC
BCD859B3
BD15AF17
3D279F11
3DC2DCFE
BD82F775
BCDF8792
3CA656B1
3D8B3BC4
3E348FC3
3D786EEE
BB92496D
BD77BC7F
BBA2876E
BD38099D
3C130BA4
3C812F0D
3B0F306E
3E075CC1
3DFA540C
3CB09E3F
3730FBAE
3DEEF1CD
3DA7B77A
BCAD444C
3CE92BCE
3DB1004B
BD5EDFFD
BCD9CC06
3C8637D2
BD2D066A
BBA552EA
BD3AAD9A
BDAF6FD8
BD160FA8
3D10B3FD
3DB8E098
3DD7ADAD
3D37F7A7
BCA729D0
BD52E060
BBBD6CC5
3CDE3D06
3DB64CBD
3E20E398
3D07642D
BD35426E
3D17D45C
BD352DCF
3D5792F2
3DB51B47
3D18B609
B4960651
BCA4F7A4
BD0D7F7C
BCCB2BC8
3D826C9A
BDD22A2F
BC584A99
BDF0567F
3A35FA6F
BC8A9E5D
3CD681E1
3D773EB9
3D2B45DF
39CA0AFF
BC0FEAEE
3C30DE3C
3E1A2BF6
3E1D718E
BC64B687
BD028A76
3D49857D
3D999A13
3D2B0842
BD17F202
3D98181A
3E53ED93
3C28D7FF
3CBC0FF3
BC619476
3D84E732
BA262D53
BBBBC5A1
BD5F233E
3ACDBBA9
3DEA226E
BDBCE9A5
BD8D7D8C
BD83C653
3E1DB25A
3CE84056
3AD7F29B
3D89FF54
BD35A7D5
BB1261C1
BDD09436
BDA6ABE6
BD124A93
BD4D1429
BC3E8368
BDFE503D
3B9719C6
3DEE5E2A
3D82BD81
BDADFEAC
BD9B57A1
3C51B3A7
3E1A1426
3DB00501
BD8F9E9E
3D49C659
3E52778F
3D9616C5
3C99F08F
BAEE4DF0
3D5B1796
3C94C12B
BC4AD97C
3CDB70BC
3D4FEE96
3DDB5027
BDA01022
BD20E68B
3CBBB020
3D020AF2
3D4A9A69
BDAA0B8F
3C304740
3D046925
BD1E0DF7
BDCE4AB8
BE08048A
3D059F23
3CDEEB33
BC385911
BDBE5230
BE262C28
BD7D23D9
BD164E2E
3C35A643
BDDA0322
3D1AB254
3D9F39B7
3E0C823B
BD9C0504
3D91220B
3D903419
3DBC09C9
3DB940D9
BCEE3C44
3C2F3C55
3D138EC0
BD5B5995
3CA67EC4
3CC01732
BD3DAB28
3A0B50BD
BCC54BCB
BE1A2DFC
3D260A22
3B40C393
BD019269
3DD11825
3CA34112
BC675C4A
BBD8F7C5
3C48649E
3D2DEFF5
3D1CDDC0
3D3F8835
3C1A2DE6
BCA737AE
BD227BBA
BE2E14BC
BDEC7331
BD803A97
BD96E5B4
BE061F98
BE0D29B1
BC94A58F
BDB8B7E9
BE159B44
BD60419B
3CA116D9
3D6AA1FB
3D0305B2
3D11A2C6
3D39E76C
3CD16012
3D9DFF19
3BBDFC0E
BD6DB600
BD9C8230
3DA758AA
BCA62F4A
3D048125
BC343421
BD6488E1
BD79F874
BA9940F7
BDA61EA7
3CDB2260
BDA14E34
3CCF75B7
3D373C0C
388FF989
BD1510DC
3D5A11D5
3D771333
3DCB43AB
BD403FD1
BE2438F8
3C4FE893
3D542FB3
3D0D3E13
BD264874
BE2AE47B
BDA416D9
3D4DD493
3D97758F
BD9A8405
BD249066
BD0E0F75
3D200A2A
3CA26D64
BDC5C0B7
BD29F4A3
BD719ACD
BCF8752B
3D86D1F4
BDC3B31E
BD45E9D2
BBB96BB8
BD21FE0E
BD3F1769
3D946945
3DC119D4
3DE6BAB0
3D8153E8
BBE2C83B
BDD941D8
3CBFDBB9
3DA6828C
3D2C62F7
3DF2C595
BDBF107C
3E0B26B2
3DD98D9B
3CFFA83D
BC8F5E46
BD9E2E82
BD0F6A52
3C8A37D8
BDAF8440
BB51E88E
BE1E3DCC
BD12A4CC
3D88080B
BCDC193E
3C822CA6
3CAB06EB
3E0FCB54
3D008508
3CAD026D
BC67E27B
BD4ED927
BCBA3D16
BD84E0BF
3CEEBEE2
BD3C153F
BC98B6EA
3D09677D
BD258D11
BC871EC3
BD47CAD9
3DFB5346
3D5920F3
BDB5637C
3C9F6DAC
BDA21F41
3D2FB6A5
3DBF5585
BC4CE623
BD143EDA
BC9BDB38
3DD62204
3E1CF4B4
3D07E284
BDBB9F8A
3DA44079
3E78AC12
3E7990C1
3DF27560
3D0C7F32
BC99E629
BD6D4387
3CA399B8
3E05FF78
3DCC9F80
BD432E6E
BDCB1ADB
BD964951
3CA9DEFA
3DDCDA35
BD557E9E
3A96C83B
BC9D8431
3BF8FB14
BD0DBF6F
3D111C7D
BA3C392C
BE86A803
BE06EC92
BDBE957F
3D138556
BC9BB66A
BD2526E7
BD791FB3
BDA2FBED
3C0026B3
BD71233D
BD3236E9
BDC903B5
BD8A8485
3D957EE0
BE06816B
BD8DE8BF
BD6121AA
BCDFE29E
3D832689
BD294F8E
BD819615
BDF1A350
BCBFD0BA
BD4C42DB
3BFB9824
3D80F550
BD7A8D9F
BDFA6705
BCCBEFD3
3CE0B21A
3D5FEBE9
BC62D005
BD1D9EC0
BD95D49F
3CB5DC33
3CE8EC3E
BCE75CAC
BD0FC80A
3D938402
3E0458D8
BD28A77D
BD2D0698
BD783CE3
BD31528D
BD21E415
3DA46FF2
3D022BC2
BDE0DB40
BD09BB46
3D72D32B
3E458E6D
BDB106FE
BDEECEE2
3D44F751
3D5F9A6B
3DF49393
3E026751
BC77875F
BD91B91F
3D0BF6F7
3C8AF7F1
3D0946F1
BBF67C5B
BDAB2B12
3BBD86E1
3CA8DC76
3CD3BECD
3D73E9D2
BDCF6839
3D2266F1
3D208FF4
BD0D6949
3CC2D208
3D76F36A
BD416C97
BCF8EF96
BBE8AF87
3D053401
3D8795D1
3C189F73
3D852A79
3CDBA50E
BC404575
3E4D12D4
BCB6108E
3CDE8B25
3CF930BB
3CFBE30B
BC2DAD11
3A4D42E0
BD7D5E35
BAD87250
3DAA53EA
BD261A16
3CB3F1D1
BD67A705
B9CF7D49
3D996990
3D1E6BEF
3DBA022D
3E0F18E0
BC51D88E
BD1F0F23
BB975377
B85D27C9
BC0FEF49
BDC4C7B2
BDF00BD8
3C32AF75
3C77B5D4
BC9AD7E5
BD55008A
3CB5C805
BCA1FBC6
3D95155C
BD8114CB
BC4146FB
BC3FDE50
BCE36186
BCFFE3AF
3C5AE66B
3D583C3E
3D9272CA
BDA968B1
BE561298
BE669CF6
BDABEECC
3BE8BA4F
BDED32BD
BD44C12E
BE1F2679
BD66A725
3D741A8B
BE1FAE51
BB9914B8
BC46CCA9
BD50C190
BCFB634C
BDA3D91D
BD04DEE6
BC70C0D5
3D59718E
3CC35094
3DA0A01D
BDC98AAA
BCFD1DF9
3CEDB54C
3D99F3AD
3E4C8A0B
3D1AE0EA
BDB4B182
BE2E084F
BDB73237
BABF1845
BCE2CADB
BB177999
BDA08503
BE1DC062
BCB1CDF8
BC6731D7
3CB8F849
BD14F89B
BAFAF42D
BDA5D12C
3CA3499A
BDA3659F
BDB750BE
BD814FEA
3C492D75
BD0B10E5
BD8C6634
3D7D4BC8
3CD46A18
3C2D9E4E
3DB35F18
3E47F5FF
3E1DCF80
BC1E9AF5
3D6B7A71
3BB5315D
3E0D19CF
3DAF0532
3D217C1E
3E3A6346
3D63450E
3CE67A7D
3D792057
3D566FC3
BDC02661
BDBD2D85
BDAF940D
BDC48A5B
BA99D440
BDB157CD
BD5A418C
BC8CC771
BCADF8B6
BD0C9D40
3DBB8895
BDCEDE57
BE1FA570
BE2411A4
BD8F149D
3DBFE02C
BDE2D570
BC249E3F
BBBDE792
BC93E88C
3D89D8BB
BDE25011
BD9107A7
BB96BF0A
3CCBCA3E
3CADA70E
3C8470DB
BDC12265
BC0F9AB2
3D19272A
3D0B59FC
BE2C3017
BD8950B9
3E1AD114
3D332591
BD10F3C4
3DF7058B
3DF4E71B
3E082445
BCC1696E
BCE4A00E
3CB86850
BCB09133
BDAE5B49
BC2228EE
BD5C283F
BC90EDDC
BCBEC89B
3D2284AF
3D002794
3B009EF3
3DC9917B
BD2966B5
3DE2C87B
BBC4DEA2
BCAF59FD
3D1B2357
BBAF0C88
BD6C1A4C
BD29809E
BD52875B
BD8ADB13
BDD3C1B7
BE1380E1
3D391AF9
3C4EE0B0
3E1ED72F
3E0D235D
BCB918E3
BD291AE3
3DD7B659
3DE11EDB
3C1D0073
3BAAFCEF
3DCB9409
3C7F1E3E
BD1C5130
BD4AA870
BCF19246
3C4F638A
BD32E0D5
3C0E15D4
BC8090D2
3D8B8F57
3D9D0A22
BD397F64
3D669FDD
3D047A09
3D35D49E
3CCAEABC
3DBC1927
3C71B697
BD7A0231
3C05BA7F
3C5C5886
3DCA8B4A
BDC636FA
BD4E38E0
3DABC884
39800F78
BDA72945
BDD464B0
BE25EA5E
3C47A541
3D13EC6F
3C598CB3
3DEAE16E
3E1BCC2E
3DD65A77
3BCDC237
BD40DCC0
BDFC504E
BCBBA1D0
3C85D650
BD284EE3
BDA38AE9
BD524464
BD777732
3D31E640
3D41EC9B
3D958011
3BCF50DD
3D676BA1
3D75586D
3B39448C
3C731769
BCD801F0
3D2BA265
3D549A44
3C6906C4
BA09972E
3D3A8A30
3DA32DF7
3DCE098E
3D8D6747
3BA500CF
BE1326AC
3D318C19
3DDF1537
3CD2018E
3D951961
3D885C3B
BDF77033
BE321A33
3BF010E8
3BF6E976
3E13DA96
BDF05A26
BE351672
BDE1DAF9
3D8276BB
3D8F0861
3D3AB62D
BE0516CE
BE352B02
BC0F319B
3DAC4E10
3E023846
BC9125A0
3D1E4681
3C2A4872
3DC7DA06
3DABEAC6
3D6C3CF8
3D9DCD52
BC4E7DEE
3D5484B7
BD3C3758
3C3873D4
BD13436A
3DB84888
BDA8C587
3D31CB55
3D63434A
3D095FB2
3CA732AA
3D404BD2
BCC86A40
3C329517
BD661B58
BBD5F7CF
BDF85BBB
BE125CFD
BC934559
BD2EF3F0
3CE9F71A
BD0E1323
BD821D85
BD566350
3D8A32F4
BC105BC4
3D2FB88A
3C0BFF19
3D1059CC
3CB6A03B
3C1CF73F
3DD47088
3B893AEE
BDD81AB2
BB5F88F7
3D7DFB2D
3E540BDF
3D98B1FC
3BBAB894
BE50157C
BDA42DD1
BDD7CC3F
BDF1096C
BE568352
BE52AF45
BDC7D22A
BDA4413C
BE059595
BD3367D7
BD1FFAA2
BCF068D1
BCC120A4
BD23564A
3A71AC8A
3D461FB2
3D9CC963
3C09A52F
3CB47256
3D476856
BCB44AF5
3CB84C32
BCBEAE4D
BB5FACA5
3E0CD1DB
3DACB2BD
3AAE0A35
BCB81A12
3DD25A10
BC00ECC1
3DF81296
3D605BEC
3D90DB8C
3D1D2015
3D9A090F
3E0E26CD
3DC8BD15
3D694497
3D9A9819
3D354BBB
3DB998A7
BD22F361
BDFA1D32
BDC4CC0C
BDEBB69F
3B8226EA
BE93642A
BDFBD5C5
BD87623B
BE1D60ED
BE240BFA
3D177E99
BD91D2EA
BDAD206D
3C51A5AC
3D98A9DE
BBEF7AF8
3D977372
3D9DC0B8
BD0FC2FA
3D93AB3D
BD26F83B
BB284A1F
BD38AA7F
3C63EEB5
3E14DE35
BCD7B2AE
3C912983
3D4FD084
BCB3630A
3CCC120C
3E8CFAEB
3E148012
3BCF606B
3C7D516A
BD0E6456
BC30BF9B
BD54E309
BE1AEDBB
BE325836
BDE6B3F0
3DF4B812
BC6EE195
BD4BBCC6
BCC0C01F
3D11F2E7
BDB04AD6
BDB3FC24
BE14B6A6
BCE9BE92
BD991817
BE82F5A9
3930473D
3DB68185
3CEFDED9
3C4AF5AE
3D05F63A
BD4A69E6
3D7F37A2
3DA5866F
BCCCC518
3DB3BF76
BC011D8E
BD369406
BC70A1F0
BE02C75A
BD51B1A7
BC61B7C4
BBB16AB7
3DD2F8F2
3D8B08C0
3CF48297
BC6E2BE2
BC8363C3
BD1659A2
BCA163DF
BCF9EC1C
3C5AB5A5
BD447147
BD041EA1
3D41E1CC
B9B39E59
BD86FD8D
3D5FB13F
BD349EBB
3D823116
3D0DEE95
3DE5EC0A
3C7402F2
3CD56756
BD0F9700
3B973E8B
BDEB2DDE
BDB4340F
3C9155EB
3A8EE340
BC166B72
3D3DF365
BB4A78C6
BD5337DA
BD44944E
3D867C31
3D15BA49
3DA002EF
BC9422F8
3D9D8187
BD4EA6E4
BB595CF2
BD20188D
BC986779
3BFF933F
BD20D4C7
3D916BB6
3E2373D4
3C9D6898
3D918B1D
BC399121
BCBDAF08
BCEF3A4E
BC2BBED0
BC85D60E
BC07B386
3CFC7831
BB3F9A11
3CCC52C9
BDC1470A
3CD093BF
3DD9A46B
BE13177C
3D2E96A5
3CD07F6E
3D03B4CD
BBB7FC50
BDFCCD6C
3DA3D47B
3CA5EFDE
3D1ED6C2
BC969A26
3D754023
BBD3AE72
3CC82EAB
3D8A01DD
BE0C4A7D
BCA2A060
3D789BDA
3D917226
BE19218B
BDDD8A59
BD6A7612
BD8ECAC4
3C3C7CB5
BDD3F7F6
BCD7BB15
BCC10248
BD0C6122
BDD014B3
3E072F27
3D675BAF
3D68FA2B
3B9536C6
BE030C55
3A354485
3D7558AB
3C51C544
BDB4D756
BD411836
3C90B383
BC9B9805
BE4746A0
BD43C7C2
BC4B7C27
BDC65B02
BDDE7037
BE053032
3CFF73F8
3D16D343
BD7A1B95
BC6DD9AF
BD6D2146
3DC80767
3D89D0FF
BDCBF437
3A617E63
3D143DC5
3CBC3687
BB7DF25A
3D50857A
3DE9688F
3DBB6901
BCF07492
BD9573CF
3D4B0F4C
BCBD8DF1
3D6646E3
3D27F08B
3D1C4EFD
3D34AB7F
3D9FCF20
BD908E0C
BD8C31AF
BE1DF1E3
3D4701EC
3D531DBB
BD32EECD
BD81672F
BDC1FD6E
BD73AD18
BD461709
BC8BBC86
BDB416D7
BDA8EAB8
3D15E592
3CA8BCEC
BD620797
BCF26BAA
3DBA37F5
3D4F7753
3D98FC35
3D700488
BD2B8550
BD86CCD8
3C86E97B
BC942157
BE0A4BAA
BE306E33
BDD5DD01
BE26C6B5
BE252E26
BE50C50D
BDD25911
BD508E97
3DD4F504
3D8444B5
3E1886B5
3E071FBD
3DAFAA80
3CB240F6
3D30C282
3DCE8B05
BC75C2A2
BD00CF8C
BD0E411B
BD7B8E30
3D5CA4A0
BD90750A
3E09E51A
3D42CCF6
3DA25705
3D7735F8
BC0D1E9F
BDDFD8A0
BC05AA9B
3E0DB268
BC9EC306
BCF3CE8B
BCD81484
BC8A5B66
BDE5983C
BC06B901
BDC91B7E
3C2F4E24
BD875A44
3CF0CE88
3DAD2DA9
3D815DBA
BDE64D70
3D0D80DF
3DD9B523
BD223300
3C500E73
3C9ECC0B
3AFE3779
3D410FAB
BD6BBD93
BD87F1B2
BCF6DFEE
3D4318AC
3D728933
BC76D7F3
3C594974
3A91091B
BD0D8CD8
3D3721DA
BC035997
3D87F5FD
3BFE5DF2
BB533356
BD11EE59
BBA49A10
BC346514
BCEF795B
BE325497
BD210B5C
BD315C0D
BDA2DE9C
BCB44642
BA8EB207
BD8C7701
BD13B9CE
BDFBBCD9
3B1E1934
3D13043A
3E27E4DD
3C9155A7
3DAB5BD0
3D003CAC
3DAED38A
3E2FAFF1
3E31CCBF
3D99A2F8
BD81F5AA
3D19CCA4
BCA0BCA2
3DB53961
3E031F82
BDEFF22B
BC780D5B
BD2F626B
BD930BD1
BD99B4A2
3D09B271
BC86E07F
BD45C392
3D08D465
BD44A41F
BD9DAFDC
BD9032B3
3DCEAA4A
BD554427
BDB129F6
BCC34426
3DAFECA4
BDBBDBF8
BD44282C
BD81BAEC
3C1380D6
3DF32F82
3D4613B4
3C1DA74E
3A83AEA8
3C4236FE
BC1D162F
BDD8C532
BDC79594
BD149C15
BCB6AB5A
BDC2451B
BE405BC9
BDA12492
3D986249
3E0C7F40
BCBAEA5A
3D292D37
3D475440
BD148C05
BBF642C9
3E1D0434
3D07651A
3D2AFA8F
BD853628
BDA0C7B9
3E0838C7
3DB548A4
3D446D2C
BD3D7153
BD435DFF
3D8A81AE
3E120BAD
BD39643C
BD3F22F5
BD610AAB
BC365475
3D406915
3DCE938E
3B23D69F
BD45453F
BCDB4EC3
BD90DCD5
3DF3050F
BB81216F
3DA5E097
3BC01FF1
3DD7AF9C
BDC154CE
3B9C4FA7
3D48F8E9
3B8AECA2
3C872673
BD3ED45E
BCE8814E
3D2E68AB
BCB3554B
3CAF5F0C
BC12ACD1
3D5BF694
3DA87F92
3C3314F3
3CC0DAC9
3D674BBE
BDB7B92D
3D158696
BD28EF62
BD464CB6
3CE56ACD
BE22EA0F
3D0352D4
3D1949E2
BDE13513
BD44007E
BE231DAD
BE19C807
BD03D5F9
BA33B21D
3D902588
BC4AE813
BCEC6357
3C958A6A
BB7F7EE2
BE325799
3D102148
B9D36FBA
BDF68511
BD52DB31
3A85EC55
BDD3DE65
BC84B7AB
BCD19B14
BCF7F906
3C1620EF
BD063A38
BD642BB9
3DA07C69
3DED11E5
3D991035
BDA23E33
BCFFC9F5
3D906A02
3DCA082D
3D6DE43F
BD102FE6
3D011B0D
BCAF460E
BC858840
3C34A308
3933C4AD
BD055186
BCBCA874
BD6A6347
BCA4A4C9
BC5CE168
3DCD3E1D
BE7BAC1B
BDC1852B
BD6CB608
3E003501
3D8C3845
BDB881AC
3DC5ED83
BB19A8C0
BC79F2DE
BE232181
3DD05BA3
3CF84440
3B036227
BDA3A2AE
BC6898D8
BCCA3793
BDC668DD
BDA906D4
3DB7513B
3E2710DC
3D7E222B
3D2B3719
BD048CB0
BCC78991
BD1B3CB1
3D2A2F67
3D633B37
BE277452
BBB8FCFF
BDAD39E4
3CEA43A0
BD94E049
3D118AF4
3D3EE51B
BC1EC2D5
BD6DB71F
BDCBF41E
3D41CFD4
3DE24883
3D3C781D
BCA7F9AE
3DF35AB4
BDA5F11A
BCC52E81
3D57CDAA
3D78BB42
3DE401F5
BD4B676B
BCC4C100
BDC63CA8
3D414054
3DA61720
BE2A75EA
BDB9FB91
BC35055A
3ABF922B
3D174951
BDEB7707
BDA0BEF9
3D680A40
BB32B1FA
BDD87037
BDA010ED
3D07234D
3E1D10B1
BDC9C03D
3A986CDB
BC9529B5
3DE094E0
3E356725
3CC44ECB
3D2BD14F
BCA7E0D4
BE00B892
BCA756E7
3BB80DF7
3D8D4ADD
3D155DF4
BE56E871
BCE02386
3D30A24E
3D2731B9
BE1E4F49
BC7A93D1
BD15A2BC
3CB347BA
BC8D8A70
3D53BCE2
BCC2EFDA
3D64B8A5
BDA8A914
BD8E45DB
BD865EBC
BC408639
3CC335E5
BD274ED4
BE0D2FA6
BD00C342
BDA09ADF
3D0EEEEC
BDF7D0B3
BDD4687D
3D272286
3D28A91C
3CAEC7C1
3DAE7C6F
3D9231C6
3E04A7A0
BC02F659
BB8BBC5F
3DCB81C1
3D411D1C
B977CC85
BC80FAB0
3C6761A0
BD3AA63F
3E1F3CAC
3CC28384
3C886047
3A2D1977
3D137332
BDB2F73B
3CA906B7
3CBDDE3D
BDB24F49
BDB49B36
BB2CF824
3B9F8E15
BC554624
BBF78F5D
BDA8DB28
BDFE0896
BC314A50
BD17406E
BC81366E
BCC32D8F
BD218137
3D219FC0
3CEAE85B
3C8C1733
BC8475DB
3D046734
3CA48323
BC9B702B
3D942BFE
BB15352C
BC1C94C1
3CAA5084
3DBEF663
BD114F61
3DD9411A
3D86C4CA
BD9ED711
BD9A3371
BCFD60C2
3CAAF2FA
3D799EF8
BD6B5E08
3D03FBD7
3AFCBCAB
BC2B33B4
3D72AF55
3DD0E144
3C82D4DF
3CC2B6F3
3CBDE23F
3D876254
3DB6918C
3BBA5C08
BD658989
BDC7CE50
3BC4F014
BC989629
BB7CB5FE
BD1A9C94
BD39F52E
BDE91D8D
BD1E6B28
BC2B6525
3DE4FEC2
3D3D2D70
BB75A805
BCE6F11C
BD660698
BB037941
BD2C1871
BBA5E3D8
3CEAC395
3D0E90CE
BD6E994B
3CACF10F
BC0093C9
3C5E521C
BD70E493
BD731AEE
BE056A06
BBAED161
BD9D67E8
3D1048C9
3CAEF519
3D97E1A8
3E1BACBD
BD7FF312
3C9929EB
3D2138BE
3C96E9B6
BE1CC5EE
BCCBB1A0
3C93E2F3
3D00902A
3D01BEC2
BC586930
3D9D3A8C
3BCABF57
BC800A8C
3CB2B30B
BD7DD67F
BD1B5567
3D5B7C12
3CEC15BB
3D2CBF18
BE25EBAC
BE0EDC75
BC003389
BCAB03DF
3CC63E59
BD3C7189
BE2BC700
BB286073
3D037FC9
3DA7EE61
BD546338
BE1FAD2F
3C0C5E2F
3D05CD18
3BF4A329
BC0629F6
BC896C79
3CC97850
BD85EE2D
BDFC4CA4
3B17ABBF
3CF46344
3C34A6E7
BCC19002
BDD30888
BE66C126
BDECB017
3DDECB07
BC385C09
3E513C1F
3C954724
3DF3646D
3D140F9D
3DD21E65
3CC4930B
3DC11270
3D192438
BD699EE5
BB01C1F7
BCF7D4F1
BD324BC4
3D9B1132
BDCC9875
3C7C036B
3C4FC5DC
3DD64F4D
3DB7E368
3C8D10C9
BD62DC88
3D143B5A
BD058D85
3D239956
3CB6C0BD
BD358FFD
BD348A84
BD7024F7
BD240115
3DB75918
BD6F28C2
BE00751B
BDD3DCF7
3D888324
BCC5CB2D
3D3B311B
BD1F9BDE
BB3903FD
3A4DFC79
BC013B56
3CF130C5
3D4BEB74
3E2DEF8B
3D570CF7
3C84C8FE
BD86DF21
3E01A071
3E4EF363
3DA717C7
BD5A5999
BD41E454
BD8FAAB8
3DB742E1
3BC19A2F
3DABA7E3
BD5C9836
BB02254D
3D4DA534
3D2BE2DD
3D391C46
3DB3FF52
BB7C1572
BDB62300
BD96AF96
BC0EF586
BD188278
3D8D01D8
BE0179BA
BD4B6470
BD1F77F5
3D28C38C
BC352756
BE0F767C
BD687717
BBA7223B
3D716DBD
3CD9B2A5
BDEE14A9
BE3358CA
BE1E76B0
3BD32298
3CEFF8A8
BDCF192B
BDB80BB6
BD8D7BD5
BD6D0589
BD29CD08
BE0A3E46
3B2016FA
3C3BBFA9
3D3DAD07
BC6B22A2
BD89D67E
BB390E68
3AF09B87
BE10D574
BBC238B8
3CA4234D
3CDDCDAD
BE24E32E
BE291E47
3DD9C0A7
3BAE3774
3DA872CF
3BC33397
BD843C93
3DF9E81C
3DA35DF0
3C42D602
3C04176F
3DFCFE5C
3E18A376
3E27781A
3D200941
BCE1F2AB
BD38525D
3DDCD19D
3DCCC4CE
3E1B6FCD
BDDBD8E2
BD9023CA
3CCA2AAC
3D0DAF03
3DEA902C
3C0E0DE8
BD5602FA
BDC11AC9
BD36160C
BD871A0E
3D124FB5
BDCA0B9C
BC31FECC
BD3A9E39
3E13B598
3D3BC522
BCBA4134
BD56C307
BDB947D0
3B8402A3
3DC09364
3B64B7C1
3B1B8B16
BC64AC32
BC8282D8
3C9369F5
3D680FC2
3E61D156
3E0F6824
3D73D1DC
BE0F72F6
BDAC7C07
3E32E9FE
3D6FBD07
3E084ED0
BD418CB9
3D92D762
BD933F93
3D52F2E2
3D495339
3CA610D2
BC4ECB5A
3D142C81
3DD9290C
3D554BEC
3D2970DE
3CA374AF
3D74FCE6
3DAD0999
3D57D882
BE1E5069
BDF86699
3D9B2C28
3C0C5BF9
B9E328E7
BD8E49F2
BC0D0F57
BD4F3692
3D298F55
3CAA18A4
BB321254
BBAD6BA5
BCAC90CF
BD4256AD
3C83812A
3C7D9E98
BD82F3CA
BD9A9239
BC95DF0D
3D7E40FC
3CB69F34
3C6F970A
BDF2DA7A
BE1EE866
BE197692
3B50B0FF
3DD2FB06
BDC36E99
BE02893B
BDB1A0E1
3D92D55A
3D68F0F8
BDE9E784
BDD52C94
3BCC974D
3DBD686C
BDD84135
BDF40BDF
BE380C0C
BD48A713
3DE6F551
BDAB0C19
BD8C4954
BE1815E4
3D3AAB3B
3DD2CCA4
BD8BF503
3DD712F8
BCF158F1
BE3E65B4
BE11F5E8
BE02DE21
3D9DA6B8
BDC98608
3B892961
BC10B1E5
BCF66E59
BC5F2F9A
3C7A1E7B
3D8DE8B7
3D1B0029
3DBF5D7F
BDEB36CB
BE394295
BD72CED6
3D0B25AA
BD30727E
3D26983B
BE32CA90
BD128EC5
3D36FF12
BD2F28D5
3CA22F26
3DE6BC62
3DD40171
3D8C8308
BC578EB0
3D8AEEDD
3E0A35B4
3DCC3BED
3DD47702
BD949A59
3D6CB535
3E245B0A
3E2CA5C2
3D5248C2
BCC72015
BD4755AD
3D9CDD97
3DBDD3D8
3D52EB49
BD0702FA
BC794C64
3E186221
3D22CA90
BCD98864
BDF5DFED
3D301D73
BD7A283D
BE63188B
BCC06E2E
3DA172D5
3E4C9F5A
BBC4AD4A
3B49900D
3BBB22D2
3DC5D6E0
3DAC1961
BD8BBA26
BC44FC03
BD45E932
3DA18B45
BD19CB05
BD480935
BD6BFD51
3BC56DE1
3C8C89CB
BC38BE8B
3D97F2C7
3D5B47E6
BC6EAF74
3B7FBEA8
3BB204BC
3D1BE745
3BBD7E5D
3CD70153
BD171C44
BE26BA9F
3C45F13F
BD8B9FF0
BDDE9B14
BCFB7A4E
3D1CB1E8
3D765ECA
3C81E387
3C40342A
3DA060CA
3DFF96D6
3E091500
3CC3188D
3D8C5B13
3D558EB1
BD90C54C
BC31BBDC
3CFEC668
3B139F77
3CBDA673
BDBC17AF
BD751996
BDC5C69C
BE096BB3
BB8AD158
3B55FA1B
3E331F2D
3D56E123
3CE1C04E
BD553883
3E07C622
3D4793A6
3DA18D93
BB1823A1
3D78753F
3D39C085
3E02B4AC
3DD4DE48
3DA4A3FC
3D388796
3E191E7E
3DCA9D0E
BA1E52CD
3C477986
3D621B69
3D71D990
BE2946F6
3C36DF59
3CB2C310
3DE13332
3D872F5A
3DF06A33
3E2536B0
3B1B05BC
BDD35BAB
3C3FF810
3CED906F
3DAA9493
3CB1A18D
BCCE4BC8
BD8374A2
BD4C975A
3BA8AD8F
3C0F35BE
BC96ABCB
BD89646D
3D263F41
3DA88687
3CC798B6
3CADDC28
BD1A815F
3D8BFE1F
BD673AB7
BE07B73F
BD41BEA9
BCE2718C
3D966776
BD24B420
BC59F7A6
BD659DB6
3D17C816
3DABDA8D
BD9A591A
3C8883E3
3D090622
BCF0A573
3DB8136D
BD260437
BC1B11A9
3CA64B67
BD1FEF89
BCB50107
BC83B7CF
3C8E3EBA
3C8F4613
3CE0FBB4
BC8FA1CD
BD84544B
BDD98D34
BD6042AD
BD9A010D
3DA3CF76
3BB6F44D
BD814BD1
3DC16604
BCEA4E18
3D5D376D
BD374729
3AE27E25
3BCB1F00
BD351DD4
3CD9B871
3DAEA57C
BE281244
BD8D41C7
BD1E8325
3D9F9A26
3D008938
BC0D7EDB
BD0E739F
3D83B0D8
BD42E18E
BE2EBA64
BD55DB9C
3DCC6FFE
BD8C5203
BDD277F8
BDAC3B96
3D5A5AE8
BD1AC2D9
3D8DD31C
BCD0B4DD
BD18B094
3A3C0183
3CC8B5A5
3D8DA440
BD1F9F84
BC063506
3DC5CEA9
3C7761BC
BB3BF9C7
BD98E955
BDC8DC59
BD411542
3CB623F7
3C30FC54
BDBA67C3
BCE7755E
BD9A48A6
3DBB1DC9
BD9024F6
BE313EF5
3C5AA36B
BC6C42CF
3D6B1802
3CBC378A
3DACF7E7
3D95B312
BD539F62
3CA9E5C1
3E1EA1D0
3DB67008
3D9B4C7F
3DEF76CD
BD5933CA
3BAA3384
BCD97A97
BD3ED73A
BD05FD61
BB58C79A
BDD2B35E
3E03BE62
3CBBBFBE
3D447B04
BD9EFFF3
BCDE6CE2
3D933E0C
BDA564D1
BD29ADD1
BDF82358
3CBD39DF
BCB041C3
3D58BBB8
3D7FEFA7
3CE474DF
BCED76CA
3DE87773
BD540C4A
3E1605F6
3D27229B
BBE40E31
BD13AFAA
3DD41F15
3D953CB7
BC4745A3
3CC76FD6
3D81CCC6
BD7FB871
BD14C4B4
3E029AF5
BD04FECF
BDCAA507
3D6A8E58
3C256FAB
3DF0F776
BDA00BFB
BCD02037
BC810E01
BDF077A6
3D9140DF
BD7C8F50
BDA40DEC
3C1D5D88
3C59D26B
BDBF3FB1
BCCA8ABF
3C7DFE10
3BE53AA5
BCB72526
BCCF5BC9
3D416A58
BD0B8179
BE15A2B5
3D4DC2E3
3E110FD1
BC980415
BCF67D29
BD9BE1B8
BE0E453D
BD9B6618
BBAC6CDC
BDB4D6C7
BB5FD2C2
BCFAE007
399ACC96
3D306416
3DBF2BA7
BD4179CF
BDA3AA25
3D446FC9
3DC22C43
3C22642C
BD422D77
BD1FC637
3C7DF288
BDBECCB6
BD1C04A4
3D95EA36
3D8482DE
3D3076AC
BD2FA6DE
3C32B7B9
BD2151B7
BD05FAB1
3E2B46F1
BE215796
BD55BA19
3D2AE5A1
BBB1C3EF
B974BB18
BD0D4F86
BD027187
3CA2EB35
BD17DFFA
BCC36FCC
3DD1C7F7
BD9CD92A
BD2EAAD2
3D8748DB
3C6919DB
BDD1286D
BDC9ECFE
BC3F7D87
3DBDD51B
3E19FCDA
BD2AF467
3C8FBEAB
3C7299EE
3C4A5DE5
3D09EBA0
3B97AAEC
BC544919
BD0E0CBE
BCD30F33
BD3783CB
3D8E2EE6
BD3711DE
3DB484FC
BBAABDE7
BB58D45F
3C3944C5
BC9E15EF
3B0C6802
3C280C2B
3D53F8E0
3DC916C3
3DF898AD
3C10E778
BDB24809
BD08758F
3E286BC0
3E40D2F4
BD6987E3
BCD762B8
BDAF191F
3DA3B71D
3E2BF069
BE202DC2
BD04B207
3AB05D69
BBD56E5A
BC3CC43A
BD2C0F62
3C75B620
3C349CA9
BC9D7328
3D494BE7
3DD8C490
3D144ED5
3BA14E61
BDFB2AA4
BD1505BE
3CF35B31
3DDB8686
3E25C34E
3D2362BF
BC1BB13C
3CC4A0E5
3D6CEE82
BD1E5E81
3DB97F6C
3DD9D5BF
BDED7944
BE011BD5
BD1529FE
3CAD8D06
3D256E81
BD2469EC
3CCAC163
BD5C75C7
BDB1927D
3CA7DB8C
3D811534
3CEED3E6
BD7BCD96
BDD5AB42
BE09749B
BC9DB39A
3C2362B8
3DF09118
BB08FF4E
BDE38F7E
BD56C19B
BD8EB1A6
3DDBFC1F
BDB3BD86
BDE23ED4
3E01B289
3D308024
3DB7217A
3DBE6A75
3D8423E3
3CE983C1
B9DE2F46
BD0FB249
3DDAF212
3D9A2178
3A6FCC81
BD0E8A7E
3CBFBAA0
BE155A96
3E155963
3DD385D7
3D99C91C
3C8469A0
BE20DAD9
BB1DAB3F
3C3B4E16
3CE055EA
BD72C75A
BD7F80B7
3C6D02D9
3C9DC516
BDB66C1F
BD4F69A3
3D8B1E81
3B2CF732
3D866F1A
3D2735A9
BC9C53E7
BD7E82DA
3CC6A528
3D47AF4C
BD33DB4C
BD76CB78
3CAE8956
BCC682A3
BCAC9F00
3BEF7CAD
3CD11F4F
BCF571FE
3B0A8AD5
3CE77BE3
3E08CCED
3DA565D2
BBF237BA
3C82909D
3D4B3164
BC30D5C9
BBC9AECC
BC97159D
BC1F3093
3CC35D61
BD22AB3B
BDB631F6
3C38E74F
3BAF38FF
39FC2B7B
BD71F6D5
3BFDA135
3D1901AB
BBE979F0
3D41CE64
3C4216EE
BDB782D6
BDB589DA
3B40C542
3B24620F
3C6DE535
3D4BD1D6
BE17E413
BD9DFD83
3CE7411C
BCF4B0F5
BD7386E4
BD17DB64
3DC49F5B
3CCB01BB
39077436
BD8E65B4
3D87C306
3CB8EB94
3D8F23CC
3CB4CD22
BD189147
3C51065F
BC9129A9
BCA22057
BCB0F974
BE4E9FDB
BC3B5AEF
3C337D43
BCDE7EAC
3DD28F7C
3D4B32D9
BD2AEE75
BDAC973C
BD47BF59
3CD7CE13
3DCE671A
3D81B9FF
3DAB7FEA
3D972E67
3D26B3DB
BDC41821
3CF30893
BC349AF2
BC92E02A
3BCBE3E5
BE0D07F6
BB80EA58
3D5CA8D0
3E0B111D
3B99E78C
3DBE584D
3BEBEB84
3DA8DBA2
3E30B4DB
3D16A2C7
3D8743E5
BD900F96
3D2316DC
3DB99A50
3CF52EB9
BC6A7C3E
BA275654
3DDE1527
3D0D8D29
BD214261
BD2DAA38
3D67145E
3DB4CD21
BD782757
BDC5BD0B
BCD9B71B
3DBF8638
BB6C7587
BD8EBE17
3C5A5765
BC3003C9
3D7C0601
3E33529D
3D87196C
BDE0B1DF
BE0803C5
BE4252CD
3B817C0D
BD876CC4
BB45B94C
BDE92345
BDBD0B41
3CA7C8D9
BDC48FAB
3DC55003
3DDA28FF
3D00DCCF
BCA335F2
BCA8DD1A
3D1896B3
BCEE0D77
BCFD1ABC
BD02A560
BDA30D4A
BC5AD626
BD2EF367
3D24ADDA
3D9392AA
BCA11CB8
BD059208
BBBE167F
BD0B2B26
3D8AA272
3C3EA136
3C49D029
3E0ABEE7
3D984DF3
3C8A3B8C
BCE51872
BD115A98
3D164B93
3CCC09F5
3D759C44
3BD75906
3CBA6594
BD131A5E
BBAFFF29
BDC4C5DC
BD877A17
BDABB798
BD276C5F
BDAA36AB
BDDAB1F7
BE75E14C
BCAC6C39
BE270870
BD9A2476
BD508190
BD3E82C0
BDC34E59
BD48F3F8
BDC49C3D
BD498999
BCE99A92
BD8B5B6C
BC134534
3E08BC1E
3DC16E11
3E00FB39
3DA7A93B
3E11D96A
BB8E47D5
BC872D67
3E23BCB5
3DC6C1C3
3E030036
3D0B347F
BD17DA22
3CE95F7A
3D08A46A
3E09A1D8
3C54DB86
BCFC39AE
BAFF90C6
3CB6AAE1
3D7F7364
BB85A090
3DFAE3DC
3C7AACB9
3BDD06C1
3C867987
3D47B657
3E0D8AF6
BD6625A0
BD85DCC3
3C1E3348
3D789A5D
BD25B250
BD58B734
3C83511D
3E2419A2
3D62AE27
3C20887C
BD2B605D
BD151FD3
BC6088AE
3DCEFEC1
3CF00719
BDF830FA
3D7D5AAE
3C7E791B
3B9D9A56
3A977221
3D44718D
3C47762C
3C9D22ED
BDAA7CB5
BDB33AD9
BCEF754F
3D3F8507
3DB66355
BD9B1BFA
BD252A2C
BDD5CE32
3CA548ED
3D5E899E
BDA02AE6
BB27151E
BDD2948F
3CC711BB
3D216970
3DADF8DE
3CC8DF6A
3D1886C3
BC2BB823
3D3E77A2
BCDE6642
BB148F8E
BCC5C82C
BD0C80FB
3D547789
3CDC61DC
3D072AE8
3D954E2E
3BDDA8FF
3CE46E22
3D60736E
3DBE5A01
BC4DDBBA
3C1F7B57
BD51C171
BCE5D5B4
BD87D5DA
BDDE2C12
BDA1A39F
BDE4310F
BDDCC3F6
BDFB0443
BE131049
3D618FDA
BDFB0906
BDD183B0
BB1EA487
BDA00C3F
3BD896E0
3D683F90
BD6C6F13
3B8EA955
3CD2BF71
3C81AF5D
3CDF37CD
3D3AA2C2
3C9DBC60
BD5B426E
BD02A39F
BE029D43
3D0B8EFF
BC563E33
BBD033FD
3DA332A9
3D5FE894
3D7412A2
3CE0F723
3C0C571B
3DD36B72
3DBE875D
3D87B29B
3CB5AAA1
BD21FD33
3BE7C077
3E1585DA
3CBE7DA7
BDCF52CD
BDCCBA16
BD45BAF1
BBEE3617
3CCD8189
3E0C7E4B
3DEF4A70
3DB1CDC6
3D030F3E
3C177ED5
3D984885
3E387A59
3D1FF3FE
3C9644FC
3DA81110
3C37256C
3D817360
3C81A356
3DEECA70
3DC7DA73
3D9C107E
BCE34AF8
BDC76291
3D8F7EA3
3DA96F05
3D749AE8
BD902B28
BD37B761
3D31921A
BDF5BE8F
BCA7E01B
3DDC1ACF
3E0C7FB5
3D4AF725
3D09678F
3D25C64E
BA4F4AAC
3D61E286
3E0C8665
3D6C7C62
3CF527E8
BB135A51
3D9AB60B
3DC34001
3DD92115
3E37B0A7
3DD71670
BCC0A085
3C1DD575
3BEF24F8
3DFE1FCD
BC8D5DCD
BD6C7212
3C8829AC
3E132706
3DAB2AEA
BE792122
BE8663EB
BE591CAE
BD177484
BD90A736
BE10EE8A
BDD8381B
BDBDFC43
BDAE42C4
BDE264BB
BE2219AC
BE0214CE
BDD91E2B
BCEE948A
BCF1D656
3C11F96F
3D2C7012
3E21D022
BCB96F62
BDC17FE2
BD1D2684
3D56D736
3E100728
BD12D98E
3DAB5C9F
3E066665
BC605194
BD97395E
BDC0FB1C
3BF49B3A
BD83F52A
3CC1B3D7
BC45F49A
BD84F742
3DEF24AA
3D040768
3DDFB76C
BCDC1028
BBD14E7C
BCDDA568
3D020F82
BD17CCED
3D00A3BD
3D714A83
BD816C90
3AEE0EBF
BD190419
3DA5C101
BC45922B
BD8AAF74
BD2E232D
BDB716CE
BDDF1EEC
3D8C4D6E
3C15A000
3C31C4A5
BCFAF47A
BD77FE26
3D98D819
BD45D542
BCE06384
3C0D84D8
BC8CD1C1
BD99F682
BDA24CB8
3CF699E1
BD073E0C
3D9C379A
3DDCA1AA
3C565202
3D15818D
3C2D84DF
3C7B9DAE
3D511E2C
3D584798
3DBF58E1
3E00C392
3E0024BA
3B0CE0D7
BDB0BE3E
BDF4EF54
BDFBC18A
BDC5AC97
BD978EA0
BC46715C
BDC4785E
BDC14ADF
BDCAD0F6
BDF63705
BE0596D7
BD3A3AEC
BD2CF031
BBC06A49
BE0FCC41
BD99CF0A
BDEC6D87
BD07EAC7
3B914FEB
BD8F2A2E
3CD4702D
3B94EF51
BD840702
3D00F455
BE5502B5
BD11F909
BD28D962
3AB47C6B
3CCC6D9E
3D91EB5E
3E57B8BB
3CD74BAC
BCDAF924
BD91B6E0
BCCB9460
BDBC38B7
BA474D35
BCDF73BD
3DBD39E0
3ACF0CF6
BDDC86B1
3C933ACC
BD2C11C2
3DD75B5B
3D0D4598
BCF8A3E3
BC29A72D
3D0326E8
3D2AC5D5
3D9F450A
BD8FB39B
BD4BF5F4
3D85DF83
3D03570C
3D5D1C6A
BC432040
BE56F219
BDFA521E
3CF38761
BC0B19F3
3D178745
BDD37A7B
BB1910FF
3CCF0610
BD64982F
3D1E001A
BD481F51
BDA4EC3D
BDB14FEA
BD440643
BD98B9C2
BD18A801
BBF1F308
BDD9A7C6
BDA42684
BE56AD94
BD040356
3D8F379E
3D71BB5B
3E59E492
3D651A39
3DB87CA4
3D11ABC3
3C4E96ED
3E3F65BC
3E05113B
3DF4F812
3E129A2B
3D237B6E
BD41128C
3CB36DF4
3D1E00AD
BD27B48B
BC6B2C82
BC8DB225
BCB32575
3B921F00
BD58BBD3
BD908B87
BD5D8281
BCD120C3
3E25E3D4
3DB3E06A
BCEB6297
BD00233D
BC9FC8E8
BB77F2BA
3D33B698
BD50BE03
BC62958C
BDFC062B
BCAEDB5C
3D27B8F1
3CC6DC44
3D6300A7
3C715137
3C6D6059
3DA7A33B
3D1391CC
3A8C8D22
3D85DC6A
BC8FCEDF
BC37A03F
BD86DB42
3D80581C
BCB3553E
BC2FC37F
BB828C9C
BD690362
BDD788D1
3CD91CB4
3DA40606
3D238063
BDE18529
3D6ACA0C
BD32B2D5
BCCCD2F4
BD8E0470
3D8EFC56
3DA3B404
BD234B69
BBE0CF53
BCE40BB3
3AD2E799
3DB8FE73
BD851F65
3CE62583
3DC9AA8E
3D98709A
3A5AACB0
BD1E62B2
3D88852E
BD902FED
3D4B324A
BD2AA4CC
BDB28681
BDA3EE73
BE45FE90
3D57E0CB
3D050B17
3D8C1C1E
BDEAE49D
BCAC1A64
3CA3980A
BD91E457
BE1B1FF3
BD7B88BA
3C56B9A2
BC8631A1
BD9DDEBE
BC00E4BB
BD146B38
3CC8ABF9
BE21631B
BD6CEE77
BC0ABC4C
BD1B53C1
BD423B07
BDA17EB7
3DDB9374
3D113EED
3DE45393
3A1E6981
3D0E2F0E
3DD24BA8
3D05A9E8
BBAC3902
BDBC01CF
3C9F89D6
3DD1140C
3E5A7545
3E047344
3D8BE630
BC8C2C3F
3DF19434
3DD1DA8C
BD270B77
BD690218
BD5487DB
3D045AE6
BCD7C2CF
3D533B43
BA5B6292
BDB9BDF3
BD7F689D
BE17B7C2
BC82AF6F
3D83AC73
BDB7C489
BD224017
BDB777B7
3E116F95
3CB5F9E0
3CC0CC78
3DADC8B1
3CF17298
3DC0F272
3DACBE22
BB6D4F8A
BD61EB05
3D1F88AB
3CD3011A
3B952E0E
B9F1465B
3E7E264D
3E57F4FB
3D21499A
BE13F5B0
3CEAEA73
3DA40915
3C4B152D
BCF3A2DD
3C9AFE69
3D4D19D7
BDD98D4C
3E096AE2
3DCEFA43
BD767A8E
BDAA2DCB
3DE2DB34
3E13F794
3DC7FB01
3CEA5041
BCAD0A8A
3CD92ED9
3D047FEA
BDA59A7B
BDBDBEFB
3CA05DB2
BD09754C
3D6D1DD4
3DD15940
3DA99C91
3D10D667
BD65B9A6
3DA0C162
3C174DAC
BC146696
BDB1A101
BDDA1D84
BE118ABC
BC333979
3DF18333
BD9393ED
BDB07968
3D0B8A47
3E0761CC
3DBE619A
3678E4F9
BC9415C6
BDD809C0
3D09627A
3D2510E1
3DBDAEA5
BC4C4CDE
BDE555B1
3C411DDD
3DB44F06
3DBB75D6
BD2BD15B
BE0369BC
BD4CF2F1
BD7E961F
BE1806FA
BD0185BF
BD358A05
BC917BB1
3C150698
3D4A018E
BE1AF781
BE37E284
BC23127F
3C7D9BDF
3A0E7C3F
3D39CD77
BD96E2BE
BE11D618
BDA49554
3D70BCBD
3D0C4DED
BE31B8A5
3D01F330
3D2DE4B4
3C66F860
3D0DA481
3CC1748C
3E3694C1
3CED903D
BCA13B33
3CF43DB0
BE0CB2A8
BE154041
BBE320B2
BB14FF44
BD6994E7
BE53FB9E
BD4226C9
3D72956C
BCACD8E1
BD745A66
3D35AD59
3D70C0E3
BCEF1127
BCB81C87
3DAEC215
3DEE3B86
3D8B2AAD
3C429A8F
BD741D45
BDA060CC
3D374254
3D663B04
3DAEA6A4
BC9DC8F7
BD2A5C09
3E0FDD42
3E397CE9
BCFA37DF
BE399BC8
3C61EF33
3E559973
3D4932D7
3D31BF1D
BDB67B82
3D9EAB44
BCCA555F
BCDEB8AC
3D2E5A93
3DB8104F
3E45AED6
3E05E6E7
3CF8FD8C
3CE67AC8
3E047D88
3D800292
BCA94805
BC69F0ED
BDE15353
BC0A4E0C
BD1AF530
BD73D079
BDA799A0
3D561C5C
3BEF1203
BE1FEAAD
3CA98EA0
3E04A085
3D176061
3C482ECF
3C68E35D
BD65E6D0
3D6D4AD9
BD39E391
BD4D9D13
BE395295
BDD3AF12
3D6D747B
3C9EE06A
3D0929B3
3D672578
3D82C551
BD60EEB0
BBFFF8F6
BD9E3064
3E34E822
3E166E06
3CEADFEE
3C26D68F
BC67A714
BD43AD54
3BD39943
3D537E20
3C878359
BC1B1D00
BDC08D4A
BD8449FD
BD3342A3
BD296D2F
3C803BF7
BD8E02C2
3D7EB82A
3E1371D4
3E11AD9C
3D27425B
3DA03002
3D852833
3E3BED61
3DCE7F10
3DA9AA04
3D96A114
3DEDDEB7
3D686716
3BA67291
BDE014DB
3D1F80C7
3E056BD9
3D980596
BCB33436
3D227F14
BD0B096E
3D6CA8C8
3CD7C29D
BDB87636
BE2738D5
3D47DCB5
BDC3B856
BDAF82D6
3D05A54C
3DD96E5E
BD6B8070
BD07FA1E
BDABAC05
BC484BBC
3E069E42
3DCB094A
3D06E8A5
BC671864
3D45EFFC
3C75A7C4
3DB82895
BD15AC79
BDC35ABF
3D76A78F
BD881C89
BD502D3D
BDA66182
3C12C94F
3D964696
3DE017C6
3D5A3347
BD9BEC70
BD1977BC
3D9151A8
3E1C7146
BC29BB4E
BDF910A1
3B8A3F74
BC0E1545
BD227360
BC80B424
BDD6A73F
BB810A13
BD8EAF85
BCFDF069
3D3789D6
BD450D1C
BC11B3C3
BD89D492
3B7627CB
3D9D698E
3B073AC7
3CF0F25D
3DB7D208
3DD8AC9F
3E0E2404
3D48889A
BB922303
BD531F2E
BDA6F647
3CC50E52
BD5866BE
3B9708B3
3D11BB1F
BD4A8A47
BDE41AAC
BD4D99B3
BDBCB3BA
3D9FED11
3E0C71F9
BCB429F4
BE33ADE3
BCA14972
BD54F470
3D02E996
BDA934B5
3E1A8962
3E122789
3D184A33
BE00C590
3D4200BE
3D5D9141
3CF6A371
BCAD7D34
3D00CAA7
BDBFC60E
BD83AF93
BC8E1977
3D793ED4
BCAFA9A2
BD8C5135
3E1CF7C0
3DDD6143
BCB054C9
BD4751E3
BD23C9E7
3D87971F
3CE52A32
BDA540B4
3CA3C71A
BD9EB61B
3DC4FD83
3D96224F
BCF14F9D
BE0EA99A
3D7CCF88
3DF8B1C6
BD99E7F3
BD660A16
BE100EDB
BC9C7F42
BC240C50
BD86E1B1
3D289C86
3D4DA298
BE0F9809
BDA3BD15
BC19DEC7
3C3DADA6
3E0108F8
3D573768
3C76288F
3DCBC25B
3D51ABC7
3DCFCB11
BCA92BE7
BE1F2458
BD81281C
3C660F7A
3E1B444C
3C311C08
BDD36DEC
3BDFB473
3DACEC5D
3E093C0F
3D217928
3C62CCBE
BD50EF7B
BD8D5AA3
3C156B1A
3D07CD11
BDE5C11D
BBC039C2
BE213807
BD92A528
3E0EA5C7
3DCE8D58
BD6528A9
BDAD08D3
3DAA2D7B
BCEA48D5
BCEE39D3
3D25C949
3A6D6937
BD2ED7D4
3DE5CAF8
3DB215A0
BC5900AF
BE142BB8
BDEB83A4
3DA43EE3
3D87CD6A
BDE6BFE2
BCED3760
BD3F3903
3C874B87
3E0AE13D
3E026297
3DF1E73B
3E4112A4
BCA3162B
BDA45BC3
BCB8FFEA
3D3A8AD2
BC55B81F
BC9BE430
3D4CA713
3E344EF8
3BEC271C
BDC79424
BC8797C4
3CB28870
3E0231A1
3E4140BF
3D884E3D
3D33B90C
3E24737B
3D56364C
3D6D8440
BBFF859F
BDFD4681
BCEAFE15
3CDCD402
3DB7A824
BDA02643
BDD0E4AF
3D9884E6
3D7553DB
3D1A031C
3C32F7BA
3DE1DDB2
BCA36D46
BDBEA679
BDD068E6
BD86148E
3D4B3487
BDCB395B
3C7AB97D
BD617A9E
BE4E3B6F
3E14A5D1
BCE96CCD
BD62A6B7
BD4368D0
BD26E727
BD95573F
BD3BBFFE
BDAAB581
3DA3623D
3E0E430D
BD317DAE
BCA8916A
3D2DC4B6
BCDA5989
3C0E6B35
3D4FAB8E
3E084A08
BC800521
BE23C245
BE65B308
3DE9CEA3
3CC4FC53
3C731C37
BD550F51
BD37D0A6
BDA779CA
3D05EA0D
3D5BFE6A
3DA97C74
3E177882
3D8CD9E6
3E26939B
BDC3DA34
BCA1C099
3D33BCEA
3C950A69
BDCE21D1
BD062EF9
BD8745CC
BDD337F3
BE08D2E0
BE2AC711
BD549A3B
BD833255
3B46B02D
BE03F9BD
BDEB56C5
BCF80793
3D946A9F
3D9BED07
BDCACDAC
BDDD0349
3D4BA45D
3DD16405
B9AAAFF7
3D8F6556
BCCB06A7
38FCE1B4
BCE242F4
BC6EF008
3E0B4C8F
BCE0D996
BE287804
BC2DADF7
BCE77597
3D173E9E
BCD2278D
BE0EC544
BE27F70D
BE3F9D3A
3CA79D39
3D9C5C6C
BD01CED2
BE04D27E
3D431DBA
BDAADA52
BDDDDC05
BCBC5835
3E4F5875
3DF38C04
BD87CD9C
3D61B985
3DC0D2BB
BC944026
BB590EA7
3DD2B14D
3DC4837A
BD8FEFC0
BE02622D
3CB7D12B
3E0FB0BE
3D8E06FE
BDA75B5C
BDE219E2
BE436FDC
3D16A6F7
3D1447E3
3D06C4A6
BCB36915
BE2E2C02
3DDC994D
3E0FBC89
BE0D598C
BE086568
3B807A78
BE0E0A05
BE080571
BD6924F7
3D2D6A53
3E3BC994
BDAE928D
BE155671
BD40B689
BC0C4DF7
3DC8C92F
3DCD807C
BDDA3BB4
BE370711
BDF1C87E
BD9C04DB
3DE9A8C9
BDC76387
BD717666
BDAF7D7F
3E040F3B
3D82C323
BCCB0782
BCA922BD
3DD7E8AE
3CF02FE3
BBBC6F4B
3D74BA96
BD160282
BDBA648A
3C71E131
3E29678E
BDC442F1
BDAA95FF
BB41140C
3D4E8554
BD5FFA54
3D2F40AA
BCC068F6
BD7AE8EE
BDF542B6
3A3E227C
BD91EE26
BD90A2DA
BE0D6698
BD87B8ED
3CC945C5
BBB301A0
BBF0DE1E
BC5EC432
3D6CB769
3CD92D1B
3C073B09
3D02930A
3D59DC4B
3DDD0F9C
3C8768A6
3D085CC0
3C4EAD40
3CA16EE5
BD27C6D2
BB1E22BA
BCA9195D
BD7F0F2C
BD4BD2AD
3D675B25
3D83B31E
3C012CF2
BDA63F75
BE5A5089
BE1989F3
3DE0997C
3DE301F8
BD6D3576
BDE14F09
BBDC7A85
BD6A2A53
BDB93415
BD710865
BBC0CED5
3DBE4613
BDFC15B8
BD82645A
BDA97F6D
BCF55466
3D1F5580
3E0E3EA4
BD57B4A8
BD5FFE26
BA85BFB4
3DEC76C4
BD192502
3DE8467D
BAE95B2D
3CCE9494
3D94B2C2
BE367633
3D0859C7
BC916C38
3C905CA3
BDCDE7C2
3DBC47CE
3DC8D9E2
3D290577
BC862EE7
BDA714DE
3C29ABDB
BE282BC1
BDFC8FD7
BD835263
BD65D611
3E0B8669
3E0469B3
3AD74D32
BD942E94
BD0BAC0D
3C8055F5
3D212581
3E33FD96
3CCC8137
BC704A41
BC1962BF
BB26764A
3DE5FDA8
BC2B51FD
BD7522A8
BD316D4E
3D6B42B2
3C0D2A57
BC6700C9
3D689F87
BD10585E
BB7AE5CA
BD70B4AB
BCD7C6E6
3D787210
BD9D0535
BD0FD26D
BDE35CC3
BE25254F
BDC5D136
BC84782B
BC0FDBB1
3D613B39
3E2B7248
BD1B731A
3D57049C
BD8DAC31
3DDE3216
3E2389B6
3DDBEC2A
3D9BF607
3E05AE5F
BD6F715F
3E061900
3E5FC231
3DC6C942
BD67A187
BDD1F274
BC16E613
BDD40AEC
BD386DC5
3BF365A3
BD62374E
BDF8ACEE
BCBBE983
3C29F108
BA8EBC6B
3C649BB0
BD756D8B
3DEA2CD7
BE056068
3DD2254E
3D0D0F06
BD0BF50A
BD762085
BD870A14
BC96298F
BB310E48
BDAAFB6B
3BEE8A26
BB239DED
3D5317C9
3E0493FB
3E12BC86
BBF1A381
BDBADDC3
BD80F0A0
BD876B41
BC513B36
3D2D1DD1
BDA17961
BE2AB57C
BDAC97CB
BD804917
3D2B5D61
BC02F067
3D90A7E6
BCA4AB38
3E24F838
BC06C17B
3ABF3703
BDBE1EDD
3C29C6B5
BD969C2F
BC007056
3E32D4D6
3E0ED213
3E1A4755
3E2B5ADA
3E172BF4
3D8E3450
3D7573EA
3E7B8C18
3E2762C0
3CBF8BEF
BCC05A00
3D8C134A
3DA31145
BD95405F
BCB99066
BD26BC31
BD040F83
3D330406
BDCF8B56
3B87989A
BD9C33E9
3DA10120
3D13157E
BE07E5A8
BDA67299
BCEB52FE
3D2B7230
BD852928
BDAFD377
BD4845F2
BC5E8563
BC514F1B
3BFC9108
BDB0043D
BD5C231C
BD7F46A4
BD9699F2
BDE821FF
BD89EAE5
BC06FAD6
BCD568B0
3CA6DBD8
3D8B35FA
3E89EC4F
3CEAEC90
3E2BD71C
3DD498F6
BCF03BBC
3D6A1CA0
3BEB2890
BCE5957F
BD2AEA1B
3D930CDC
3DDF5D73
BD56A8BC
BC13AA26
BD5C4B06
BE2DC3B0
3D64FF20
3D1541A4
BDEAED91
BD017AB4
BD85CA02
BC25977F
BDE966A3
3DB7BD53
3D0F8F8C
3D8588B4
3B1B0532
BD82410E
BDDAAA65
BD8393C9
3D23A334
3D6245CC
3D1D594C
3DA1F649
3C84FC89
3E237E5F
3E4D442A
3D705153
BD0BEE5C
3D053877
3D71443D
BCEFFC5D
BDA01AFB
BD2030F1
BD6B0D05
3DB68D93
3D3F393D
3DE20922
3D5A8370
BE02B9AE
BE2C0387
3DB22884
3E45B61E
BC3EC257
3D80AB9C
BDA4BD0E
BDC90055
BDD459D4
BC931BF6
3D58ABE6
BC7BCE54
BC8C9F0C
BCC5B795
3D434AFB
BCF269E0
BD8F2608
3D17EC39
3D6C2762
BBD4C5B6
BD27D98A
3D0CDC69
3E2041F9
3E3C1782
BD20ED2C
3D806A59
BC9CC607
BCCE73C3
BE0A7A9A
3B730E20
3D92C3ED
BE00086C
3B882E9C
BD355007
BD73ED61
BD272CEA
3D8588EC
3C5A8419
BCF561C9
3E17A0F3
3E3EF0D1
3E26CE48
3DCCC6E3
BD34B952
BD0C5318
3B64B47F
3DB26498
3D686FCF
3D1AF18F
BD5F2CA8
BDDDDE75
3D0A8D25
BD97F46D
BDBFC79A
3D13A2DF
BD11B645
3CFC5C2F
BE121799
BD604B47
BCB19D9D
BDE25EA0
BDB4C95A
3C1E4DCA
BD5888E2
3D03824D
3CFB5F5F
3D9AFAC2
3DBDF5EC
3E03845B
3CDC87C9
3D270967
3D5BC07E
3D901783
3E19FA53
BDA794E7
BDDD59A1
3E4094CD
BD61A8A6
BB84DCE9
BD095D04
BC0C2114
3E45062D
BDEA5EB5
BD8FB0A3
BD25E4D6
BD035D5E
BDABED57
BD6253E9
BD44D551
BCDAAC39
BD6AC3CD
BD925F41
BE0F05D5
BDA0DBF2
3D6BC180
3C7C1A77
BD88BF30
3E0581EA
BC9252EF
3D8ED1C2
3BAAF5E2
BD4B8729
3D983B07
3DEF5D61
BCE18A41
3D8E6728
BABCF013
3DBC9DEC
3C8D6CBA
BC82AA55
BD472CED
3DD12269
3D04EEB1
BCFEF41F
3CFDD432
3D3E26C4
3E211D5A
3DBFD0CE
3D117ED3
3C1F6C30
BCFF8972
3BC20E9D
3D753A50
3D97DE9D
BD055144
3AE0890D
3C90D092
BD203CEE
BD23D918
3DD67ECF
BD2A2BC1
BDAA644C
BD569805
BCC361BE
3D0232E4
BE50881E
BD464AAF
BBF5F055
3D26806B
BC49A070
BDAB18E2
BDC7A0A1
BD0B5442
3C49AB5B
BD44EDAA
BD368776
3D271F12
3DD3DB8A
3D3AF7AD
3DA3618A
BD302091
BD1C5250
3D6B4890
3C26354A
3D9BE74E
3D3894C9
3C476DE4
BCEB6795
3D80EB42
BC85CDBF
3D9DB8F5
3D5EEE38
3D2452D4
BDCF53E0
BC7ECE2A
3CEED6A7
3CC4BA2E
3D7CFC43
3CEFA7FD
BDA0B90E
BCFD3242
BC8D523C
3E1F11DD
3DE7F457
3D2F999A
3D88DD9F
3D8816C6
3D7EB313
3DEEE897
BBDD9F3A
BB7FBAB6
BD59256C
BE1FA823
BDF02326
BD207CDA
BDCFC8AA
BD847186
BD9F2971
BDC643D7
BDF7B7CD
3E036881
BD62BBCB
3CFD56E3
BE212A47
BDBAB7D0
BE049F85
BD9C7F6A
3D881E48
3D5DD373
3E4A6BC4
3DCAED71
BE342A8A
3D10C720
3C635685
BCF4E497
BDEEA82C
BE17C8C6
3C6378A2
3D87B4BC
3CAC4261
BB926F05
BCA3BA83
BC4E7DC0
3D64BD1F
BD14FC43
BE3B7A8B
3D8467A2
3DDA5E84
3C0DBF34
3D6813FA
BE5B3AF3
3BB74580
3D548993
3DCDC704
3D372794
BE09AC19
BE1F99A7
BBAAF193
3AC21BB6
3DEB30D0
BD86DE1A
BDFA6598
BCC4381E
3D74CEB1
3C7E46C5
3BC3D4C1
3D6D0A9A
3D0D7067
3D0D7BFB
BDCD9885
BE3DDDF2
3C0E4815
3E137A96
3D4F21C7
3CC9358D
BE112242
BE224F1B
BC191A6F
BDB14E47
3E062848
3D35DBB1
BDC3FC0E
BE4444A9
BDEE3130
3E0ED280
3E1623DF
3D4527C5
BB3276FC
BCAA4742
BDE68DA8
3CE66B58
3D42F846
BE08D890
3E067831
3B5763E3
3E1A045E
3E120D1C
3D848C33
BDBD6AD7
3D101E67
3D22CBFB
3DF67FA2
3E10F98E
BA6FCC0F
3C8B822D
BD9E2C23
3DAD64F9
3E4A2545
BD4D9ED8
3CB250AE
BD2660FF
3DDBE2A8
3C8DA8AC
BD21DF6B
BBC6C865
BC68ED69
BC8153E8
3BC58054
3C67B3DD
BD0AC4D1
3D51117D
BD1119A2
BDA849F1
BD89EBA4
3DDBC944
3CFB22A5
BDBF91C9
BD8D180C
BDF32860
BDFA2F62
3D025F33
BC22AC0C
BD4F972C
BCF8C35D
3D74BB29
3E16311F
3D2784D6
BDEBF3EF
BE497B16
3C6178B1
BDADC5C8
BCFB79E2
BD4B8F3A
BE06CE0B
3CFC3E12
BE43184E
3C53B45D
3BBF5B13
3E11B6F4
BB166A7D
BE0F3C2D
3B179F8D
3CB506ED
3DF85FAF
3BB30E1E
BD416EA9
BE0FA814
BD84BDBA
3CB5F473
3B852AB6
BD8C5F07
3CEDBDE5
BD1EE6F3
3DA083AE
3D73EF0E
BD007FCC
3D3803CA
BCE35A73
3D2FFA80
3CD604F5
3C5D2C68
3D22B2D1
3D7313D6
3C9FEA5C
3DC3957E
3D37CD69
BCDC2DC4
BCFB4DA9
BDE50427
3E0CA2BF
3D37E76D
BABD2A89
3D8B0E66
BD05E4DC
BE25D915
BCD8C8EF
3CC6620F
BDE370DE
BC882622
3CD54062
3D4BC237
3C88C175
3D9C2E12
3B8F2407
3D14532F
3E4C8599
3E2533B6
3C3A5CB7
3CB5FAD5
3D72B66E
BD4FB2DB
3D823FFD
3D97179D
3DC7B48F
BE29B53D
BC14710E
3D6C45FE
3CAD889D
BDC2DFF0
3DBF7F58
3C8617AF
3DC9A55C
3DBA109C
BD44683E
BB5C8BA6
BD549E57
3D35157C
BD1661D9
BDA6CA7B
3DB0A14B
BC22C1B6
BE2A8214
38A02E21
3D3D2C59
3DF710EF
3D84EE05
BDBC03C0
BE11714E
BE01F749
BDB55788
BC6E6272
3D027BB2
BD473EB6
3D6AB00B
BDCD92F8
3C467B01
3DBB6CBE
3D93AF7C
3D22368E
3C054546
3DD33B6E
3D052A25
BB9EA5F8
BDBDE4F8
3DB99CF5
3D739F73
B9AD5628
BDFE14C6
BE224D3D
3DC56266
3D8176BB
3BAF8A76
BDBF0042
BD413AFD
BDA27D99
3CBC04D8
3D3D26D1
3CFBF0BB
3D850BF1
BDF5D396
BDBDE255
3CB8C17C
BAB5CCFE
3D1F1005
BC987F16
3D9E330C
BB8C8E4B
3CD3642B
BD1D24B1
BD84791C
BE84A3C5
BD53E9D7
3DC82389
3DD2F957
BD2A9746
BE19315E
3D493EFA
3DD939C2
3D91B03E
BC1ADFCC
BE20D653
3E059AAE
3CA21FAE
3CE47116
BDDF10A5
BDADE060
3CA38B87
39BBAC7D
BD284B4E
BDF1084E
BDC08B59
3BDDBDC5
3CCF82B4
BB9B1639
3D37455A
BD86AEF0
BE0C7AA4
BDA58A13
BD112E04
3D82895D
BD36A7A7
3D1F44C0
3D3E48CA
3D2C1DBD
3D6DD954
39E19481
3E00E008
3E3B7B18
3DAE7C8E
BDA16B91
BE6350BD
BCF701C0
BBFA9DE6
3DA02A2C
BBBFBDF6
BDE25F40
BD837F59
3CBD16CC
3D74AD2A
3DEED363
3D97C34D
3C24C158
BCF7C446
BD8A79C2
BC68BC22
3DA36306
BCB8B086
BD44C82C
BE2B71C4
BD92D5E3
3D9FFED0
BD1ECAE0
BDCB0982
BE516676
3CF4A955
3E058542
3E335366
3CDCF3E5
BE175AA7
BBE167F5
3DB3E5DA
3D486DE1
BD1F9128
BD71C356
3DE90272
BD717448
BE43D2E5
3B4405EE
3C4368FE
3E1FBB40
3D4A9836
BD7C714F
3DFF2BC6
3E180C63
3D9928DD
BD0C33A1
BDC6D0F1
3DB82CFA
3D898DB6
BE13913F
BDB81478
BCA55573
BB53702E
3DBD7799
BD4E1F4D
3D1E7578
3E058E96
BDBE85BF
3C706D48
3D6BFF47
3CEC388A
3C6DC340
BC582862
BD50F195
BDCE4FD7
BDAD08BF
3B95E212
BDEBFE50
BDEE9B05
3D5A5144
3CBDBEDA
BDD5D363
BC4BAE68
BDF55A7B
3D0ECE0B
3D909879
BC0A86D4
BDCE18A9
3C514131
3CBAF079
3D06EDE4
3C8C0D87
3C7E23D6
3D8CD2FF
3BA9EDFC
BD1379EA
BD9932CF
BD495FFB
BD5381E2
3CC5F69B
3D051923
BD7B3C6F
BE09EF33
BDC9F24A
3D02EDAC
BC7D7B73
BE3F1028
BDBA5DEF
3CFDDB4D
3C319CF1
3D909E44
3DB316DF
3E050532
3C983667
3DDB6A16
3DB28919
BBD66C23
3A9B4A21
BC17E962
3D9580F9
BD575A22
BD4886AC
3DAE8D5C
3E0462C5
3DB00FC3
3DE94607
3D5DACB0
3D30036C
3D6F32D2
BD15A709
BC64C6D0
3D788393
3CFF785E
BE201637
BD9640A9
3DD263BC
3B5C383A
BD1D7D92
BC9C6308
BD8922B9
BDB1C5C3
BE210A24
BDE72FF2
3DCE0C01
3D1F6FB1
3D06944F
3C0668C3
BD966B65
BD3195E7
BC68EAE6
3D6D6E88
3D2BFD2B
BDBE4387
BD31645F
3D07ED8D
3C4AA642
3CBE9F3A
BD8E690C
BCE21927
BD51AE52
3C0AE08D
BD95BC16
BC3ADB75
3C205770
BD51D71C
BDAA8FA3
3D8B6C66
3D2BCD3E
3D485EB1
BC8209C1
3BFC8DB9
BC98E2A8
BDE8B5B9
BE0EF996
BD035300
3DD31885
3DF5D726
3E642C36
3E3BE14B
BC947E96
BE081203
BD416F19
3DABF049
3E502DF0
BC7AAA72
BD648DF9
BE094327
BCEDD185
B9E76BE6
3E20C768
3E069D25
BDDB9380
BD606BF8
3B568544
3CE89709
BDE60A5A
BD98E1B8
3DD4BFC9
3D4DC1B0
BBE6CB5F
BC80398C
BDEC85DE
3D8E3EE2
3DDD066E
BD2E3E78
BD4E979C
3D941937
3C851C37
BC9D56D4
BD7C81AA
BD6C5486
BC11F905
3D5FF2B1
BD9F0064
BE037BDE
BD8B8218
3E2051DC
3DB5CC6F
BD077E39
3DB1BC0D
3C201E0E
3D756A1F
3D430610
3E0EA36A
3CC4E0F8
BD53BE34
BC3ADF85
BB41E13E
3E413DBE
3DC32DFC
3D0AD2C1
3D28BA09
3E5A7042
3D369E53
3D6FC121
3CA5196F
3CC3E8AD
3D8D5960
BDE0DF51
BE265AAD
BD8C7586
BD756C2F
3D2222EB
BDB7B253
3CEE0FF6
3DA83082
3D42BFF4
3D8C6C9E
BDA59B05
3B71C0F8
3DB91019
BD98B9A3
BE3857F4
BE4FABA1
BD96F4BD
3DDF5C53
BE031591
BDA8DF47
BDDE1E7A
BDAE0052
3D230946
3E0AB786
3D1C02AA
BD94F661
BD581176
BD941910
3E19426D
3DB65912
BC251BD9
3DD4AB67
3D1596D4
3D225EE2
BD9A2B22
BC5E39D9
BD75D7F3
BCA68316
BC4A359C
3E397B23
3C3047FE
BE338F72
BCA30320
3DEBA51D
3ED1D3D7
3E16F2E8
BD0B8F8B
3D6D5CD2
3DA9321A
3DE65A98
BDDF4E5F
BD216B46
BD8F9AE2
BD5DE76E
3D397458
BD2AA564
BCA6C6B5
3CAA9A61
BD6F199F
3D53BAAA
3DF5B697
BC8D189C
3CBB0B73
BDB68B98
39C6DD12
BDA93F4A
3DA649DF
3D95879F
3D2C2FBA
3D591208
BCCD43B7
3D6AC9BC
BC4319FD
BCEEC4C1
3D3D0BB6
3D3364AC
BD188AB4
BCF27C71
BD52B1F8
3DD54CA6
3B02A01E
BE15263F
3CE74A36
3E2A3CFF
3BBF51F3
3D964270
BD8CB938
3CFC3799
3DA3FFC0
3E18A3A3
3E5D5024
3D2E2627
BD176BBB
3D327BD6
BD4F0049
3E1E1E5B
3E05F4BD
BD5EDC84
BD4AFA93
BD34A8EA
BD8C7127
BB4CD687
BCFFAF3F
3D648743
3D0C8ADB
3C8DAEED
3D432E1B
3BC114EF
3D83F493
3DFCA6B1
3DF3F45F
BD9C91E1
BDC1B302
3D6ABC06
3DB8D0BA
3E09F1D9
BC54AA0A
BD82BC4B
3DAF6A78
BDDCF20C
BD9E6EEE
3A19A9D0
BCB69F3E
3D0EF2D4
BD98229B
BDF1CF70
BD34FC60
3DBC8D00
3CE16F9E
BDA0BEAE
BC97E02E
3DF9AE12
3D8E8B4A
3CE25497
3C81D599
BDDB2B31
3CB5D150
3DC0F4CF
BD065E35
3CBA2E59
BDB0CAD4
BCF3B282
BD60BD12
3D6400D6
BD8BDBBE
BE1896C4
BDA49F60
BB2BD03A
3E0A5C51
BCE12CEA
BCCD41DD
BD82769C
3DB774E9
3DDFCF2C
3C0069B1
BDACEA37
3D22108B
3E2B7288
3E1F649C
3D26807A
3D5E6000
3CE5E3E9
3CC38ABC
3D67F4FF
3D51D524
BCCB70CB
BCC549DD
BC89E4A9
BD96132E
BC6D8523
BE330F60
BDE7D4E3
BD07E384
3E0787C1
BCE4FD90
BD9A1149
BD93A28A
3D090ED9
3BA0AE03
3CFF4C91
3BDAA5E7
BDC54E92
BE1635F6
3DED383F
3DB5AF4A
3E60E8F5
BD34BBD1
BDEF4848
BD06122F
3E8A3914
3E25212F
3DF4ED39
BD817794
3CA13A6E
3DEED29F
3DE852DA
3DBBA5D2
BD91BF3B
BD9C8D99
BD1339B1
BDE8FDBC
3CD5FB4A
BD45A820
3A8A5F0B
3D3A79AC
BDDD2E0B
BD359E66
BD3EBD9B
3D78E870
3DBAEEF7
3D901859
BDD83744
BCDA5C0B
BD0593F3
3D5626FE
3DD854C5
BD78122D
3CF6C0BD
BDC66C79
BD72935C
BD9229BC
3E242D3E
3B2F0290
BCAC565E
BD2F9A03
BC7BFDF9
BD1CB15B
BC38FD43
BD78BFCF
3D5551E4
BD3EEB11
BCB26210
3C9B4B20
BDBD5F52
BC7839D3
3D62E241
BC832FFF
3C8772FD
3D542570
3DC5240B
3E0CD859
BCD8DBA7
BC061E18
3E5B8CA0
3E10D3AD
3DEE331B
BDA7B102
BDF12E2D
3D02D232
BDB9B5E0
BD6B883A
3CCF9269
BD8B4FCE
BD986267
BDAAFEC7
BC96827F
BD4E1B5C
BA67EB73
BC04E822
BB974F32
BE0B2E06
BD1308E9
BD7990D3
3DA102C5
3E94DC2F
3E88751C
BDDD3222
3B95EA0A
BD9801E5
BB0CFA4C
BD3D104F
3DAD8381
3C1F7440
BCCFFEC3
BC9C5824
BE204B9A
3DE6A346
3D469E6B
BC585F52
BC704AFD
BCC4D300
3DB17673
BCCF70A2
BCC90F2A
3CF25B08
3E3A1DDB
3E31A087
3D85B577
3CA82DD5
3D17CCB9
BBA1E749
BDD7AC27
BE012248
BDB1E8B8
3CF505ED
3CB551AF
BBC60A28
3CCD4C4E
BD860D6D
3CF29239
3B3AADF8
3DA625EB
3DE367E9
392E7984
3CD6B652
BD3FD92A
3C70B2B2
3DA5EFAD
3D4D3D80
BD7388DA
BDCAFC3D
BDA0D13C
3D8ABC11
3DD18FC1
BD0E3FEF
3C663D8D
BD6EF03A
BD0C237C
3E6FCDAF
3D855654
BC41D46B
BDD7C267
BC5F92DF
3E04DD95
3D75BAEA
BD453CA3
3C3E1678
3CFC5B63
3D863941
3D8821FA
3D22E714
3D0CFF77
BD1849BD
BDA70926
BC259A7B
3CD98646
3DF90A53
3E542FA6
BC168456
BE36048B
BCF9B8E4
3D22BB6D
3D7B572A
BCDDA010
3BC4603F
BCEA6B09
BD8F7CE7
BD56AD31
BDF1E1B5
BD3C1D4A
3D6889DF
3C9AC3BE
BC866040
BCB660B5
3D9FE69F
3D31AEE3
BC89A49D
3D4029EF
BD8CE949
BD4A523D
3D511566
BC716F22
3DB87374
BD99115C
BDF0A7E6
B9FA194E
3CB729A2
BD50E0B5
BC97F232
BCAD2A6D
BCE75E98
3C6533E3
3D2F0B5C
3CAAC569
BD6AD9EB
BDEEAB16
BD8971AF
BD95888C
BD8B917C
BC4B1D26
BD2DE89D
3CDCDC33
BDA587BD
3CFCD447
3CECA39C
3DC4762D
BDDC001E
BD9EF1A7
BE124E47
3DA0F0C2
3E36E192
3E0A46E7
3DBB59F5
3C4B7765
BD5D61EC
BD06FBAA
3D978B80
3E013DCA
3D797570
3D812C47
BDE331C0
3DA062AC
3D75859E
BD716F70
3C33CEED
BBC2D274
BDAC57E2
3D742977
BBB9D046
BD5946D2
BDF96BC5
BD4752F1
3DA58ACA
3D5D405F
3D9D51F4
3DB2BDBD
BBF34CC7
3D156793
3DACFD11
3DD29D9F
BD669EEB
BD2CAE4C
3BC438ED
3D732CBA
3D00E6BB
3D7CFD1C
3B5BB53B
3CE98E48
3D11EE9F
3DA912D8
3DD579D2
3CC39763
3DD0A34A
3D7FDB6C
3D92623B
3E3F959C
3B69DDE9
BC1B03B6
BA16383A
BC9F9837
3D13CA4B
BE1F13C3
BDAA60C8
BE514040
BD593058
BD13999A
BE2727A6
BD9D6FBF
BC90BA96
3CEC3E69
BD2C74F3
3D0EF2C2
BE106733
BDAD291C
BCBD74DD
3D4D97B9
BDA63D7B
BD4B9FE8
BDF0D36C
BCD1E21E
3DE46F4B
BD297177
BC407E95
BCB98D12
BDAC114C
3D933D1A
3DD7164D
3E1FE2B4
BD5904D4
BCD1A6FC
BC890C21
3E064DA0
3E052671
BD91CC25
BC017540
BBD2C99D
3D3598E5
BBD76B11
BD388F55
BC91E019
BDB51C8A
3C8EC61D
BD78F35E
BCB81B8F
BD4BBC37
BC22A596
BE4419A1
BE1B030E
BCCDD32D
3DF9B566
3D7D9AC2
BDE25D42
BD6CB75C
BC83A893
3D3430D8
3D2F9926
3DDB5B44
3BF1D5D8
3CB7BD3A
3C67F6FF
3C906BEC
BD0F4B0D
BD91923F
3B571354
BC9412A3
BDE569F5
BD205F04
BB165D87
BC7CD8F1
3CA8079C
3E214B6E
3BDA81A7
BDB80AF1
BDB09EFD
BB4B9675
3DCAAB16
BC967E18
39B54AD1
BD64B2EE
BD3669DE
BBB1D5E6
3DC77211
3D5FBE1C
BD1B17AE
BD70A20C
BCE8BD5C
3DB42663
3D133A78
BD634B9E
3B852C4F
BCB9CA58
3C513CE2
3D96B977
3DCA6F47
BD772758
BE1CA689
BB96329E
3E0D4029
3D105BE8
BBA8C38C
BDAE6A62
BC9FEDB3
3C054FBD
3D738E3E
3CD3DF99
BCACDFDE
BC213449
3DBBB146
3DA7AC11
BDBDFF3B
BD471042
3DBC5E35
3DAD4391
3D02D4DA
3BCEDAA4
3C0E977F
BDB0B62B
3DED0456
3D2CF1B7
3DC2358B
3D0E3D77
3C899DEC
3E19F4AC
BCA5CD6E
3CA88E24
3D074428
BCCE69FA
BD92BA55
BE2A3A07
BCA78CBB
BD096415
3D8D21C2
3DBDA2DD
BB03BE20
3D9E1DF6
BE07E169
3D9A1D72
3E4BA88E
BC908403
BDDF7EE8
BA41D59E
BC2E03AA
BDE1738B
BDB470A1
BD390256
3D63FC0B
BD90BC2F
BE2E3612
BE020D51
3BC5B616
3D0EBA34
3D03BE31
3DA78123
BD69C5A0
3CDAC605
3D77B9DE
3DE0541B
3D761B53
BCFE8C75
3C9ADC44
3D861E21
BC13067A
BDCE0590
BD2E1C33
BDB7A6F4
BBE7B525
BDBD1AE1
3CB5F4BA
3D251C08
BCFB46D0
BD9E5A08
BE71DBB3
BDA0BACC
BDF2FA5A
BD424F31
BCB3F056
BDD2DC2F
3D1077D1
BC83B5D3
3D9DEB44
BDA43A9C
3CEDF708
3DBF2310
3BA8161A
BD11E5B4
BD786D65
3E053DE1
BD1643FC
BC759D27
BE004087
3CAE4536
BD7BA91F
3D031FD8
3C526A6E
BC6A90EF
3D96D43E
3DBD5B79
3D70956B
BD48BAF7
BC022CA8
BDBD0371
3DECC3B8
BBF0DFF5
3DA7908B
BCBBF873
3CA4BAE6
BDAAD018
BE1DD881
BCDAB8DD
BDA5EEC5
3CCD07FD
3C70007A
3D8466D7
3BB2D96F
3CEC6FE5
3CCC0899
3D13F0E5
3DF22B05
B84B11F5
3D65656C
BD57DBB9
3CEE52E9
BE03C228
BE30A9E6
BE2612AE
3C991DEF
BE16A1D7
BDB5F3CF
BE00EB83
BCFDF981
3D324AB0
3D60A6CA
BC1B63AD
3CF04C4B
3D011052
3D7FFB28
3B7F7503
BD9DF6EB
BD3C514F
BD820F00
BD310ADF
BC3F6D9B
BD244811
BD23427D
BC31B620
3E790A1E
3BE3B5B4
3DC71414
3C9645CB
BD7EF679
BE1377D4
3E2603E3
3DB973FA
BD8D1BCB
3C4DD6D6
BE1F38D3
BDF31479
BE0D6E83
BD5EE6C2
3D2AFEAE
3D69B3C4
BCF4406E
BDD08758
3D081349
3C246741
3DA1DFCB
3D14F305
3D4F27B9
3C436885
3D0B5007
BDC997F9
3C2F877C
3C97114E
3D90E74C
3D9CBDEB
BE0213CA
3D8593AE
BCD153D3
3CE62A6E
BD60ADDC
BD241BA3
BD9BF660
3D61F4E0
BDD20E6D
3DDB5A4F
3BC1EFA6
BDAF7792
BD56F669
BD84599A
3C7BA534
3C9AF74B
BE49F870
BE4E7892
BE0AE60B
BDFAAD38
BDDAAE00
BB14E71E
BD83A0F6
BD861567
3DC24E9E
3DBBEB6E
3E02D5DF
3DF47EDD
BC9BA5C5
BD869690
3D7815A0
3E651BA9
3E49C2DC
3E032EC8
BBB269BF
BD4F0D8B
3D6B7B39
3DC3FD11
3D5C4BFC
3CC2D758
BD1DD292
3CCBDD80
3D5F9761
3BFB4501
BCEBA03F
3DB00411
BDC7802C
3D68D422
3D22698D
3D810232
3C9354CB
BDDA9BF0
3D9DCE55
3D337938
3D40BD25
BDDA01A7
BCF70685
BE1CB9F2
BD6132D7
BCC093A9
BCFE17B7
3C9EBF5B
BD63A8D9
3D744364
3D89F2CE
3D0F5C6A
BD5109A9
BD6D2076
BDBBD796
3D951D43
3DF89E17
BE1EBF49
BE226F88
BE0C6134
3D92033D
3DEA40D8
3D452317
3DD310FF
3D8B15C7
3CDF1F9A
BD8B7CE0
3E31D95B
3E490996
3DA669E1
BDE015B5
BE794CA0
3DD4140B
3D8B6DD5
BBFFBA82
BCEB23E3
BE22EAB1
3D956584
3DDB9EBE
3D9C827C
3D806B61
BD9A2942
BD031304
BB07D7B4
3DD23C50
BD35AB4D
BD97C6DD
3C5686DF
BA87B524
BCFC053A
BD9A2CE8
3A9C8B15
3BDFC59D
3DE66716
BCB5CFFF
3D392BBC
3D35DCA4
BD6020F4
BD5B58C1
BD1083AF
3C2634B7
3D349F7F
3D6EC92B
3C831BF6
3D7C4F04
BCDF3368
3C8B34F7
BD9BCAE0
BC972962
BBB8E801
BC44FA8A
BC9C206E
BC610BF3
BD91857C
3D81F64C
3DC943C1
3D93C898
BE240C62
BDE0DA55
BD64A000
BE4FA9DF
BE1D2C83
3D415571
3D785425
3D9ABAF5
3D9315F5
3C7006A0
3D6DB566
3CA7732B
BDA588D3
BCCBDD35
3D185725
BDC04E6D
BD5F0574
BD92B952
BD527CF2
BDA40607
BD3FABE9
BCF81D5A
3D7D2AEF
3D4F6F75
BE080011
3DD372FB
3D578694
3E1A39CB
BB1361C9
BD4EA13B
3E16782D
3D16BB09
3D0BD8A5
3D165919
3B394AFA
BD9A54F1
3CCBC6C2
3DC273C1
3D09F912
3D85AFDC
BD9D188C
3CBCA61A
398DBBB6
3DB94B23
3E3DA861
BE5FB40C
BDA119E1
BD14B5A4
3D252780
3E058153
3D7C02F9
3DCF6303
3D3C6B3F
BD4B507E
BE2A30A5
3DEB7DCC
3D626CC8
3D633A06
BDA9ADA2
BDF50781
BD02FD99
BCA67328
BC79AA6F
3E2B4BED
3E508033
BC79E858
3D339101
3D0492FA
3BD52F73
3DCB4F95
BD76B8E0
BBBFA609
BD6C5FCD
BDF7A414
BE242017
BD9C3DC1
BE1C0CAD
3CCC01F7
BD543DC7
BD9573A1
BDE8108B
3D00E3F4
3D98C2AE
3B8B04A2
3DBE4A9F
3DBB3091
3D078CD3
3D91FDC4
3D3FC210
BCA62B9B
3E0CB868
3D8B5180
3CE3ADDF
BD661BEC
BE14CF45
BC665BBE
BB218A72
3C8E107A
BD2203CF
BDCE5673
BDCC9FA8
BD5953A1
BCD94321
BD0DF98B
BCEBAB99
BDFA81DB
BD70B0DA
3CD53385
3CE7DFCC
3D7230D0
BD827FF7
BD3728DC
3CF00BBB
3D74339E
3E2A2D96
3D8225EC
3D2E100E
3D985948
3BF28376
BD0B9CE1
3CAEC149
BC779637
3D7AA1C4
BDC67B09
BD8ACB95
BD89D163
BDC9A321
BD72BB16
3BBC4A3D
BD2E418F
BDBA6AD0
BD7DCE33
3D4FCD09
3C44E034
3D9481AA
BD9DBA99
BE0D043F
3D8C81E7
3CAFCE63
3DAB8489
BDA0E977
BDEC2D6C
BCE0DB5A
3DD77655
3E0BCDB4
BDB5CB8D
BD41C910
3DDDFD74
3D93FBE2
3A13EBBF
3E1A0F72
3E0BE2D3
3D9398F6
3BEF059F
BE5EA5FA
3E51B287
3DE8D360
3DAA427C
3D292146
BDBD9430
3D4BA4A0
3DEF6AEE
3CBAAA46
3DC0C297
3DBEAA6C
3D19B0C2
BD7A07AA
BD2AD2A0
3D63AE73
3C82971D
BDBD1EB5
BDF8C074
BDDD3297
BD1FD7A6
BD4FD6EA
BD5815CB
BD5AB73C
BC893EDA
BD9A5238
BD6BD9BA
BDA95E36
3DED3722
3DD52559
BD444AAA
BDABDAE0
BD56D9DA
BCDBB3BC
3BE05E98
3BB4B0D0
3D811B54
BDB177C4
3D1A3875
3AAF5DA3
3DDDA265
3D2396A9
3E0E230A
3D89B979
3CAEBE49
3BE3BF24
BE07DB72
3D50EC93
BC9287FA
BCD4B5D2
BDAA5CF8
BC74C58D
BBC845F2
BD046D73
3CC93A7E
3D268E52
3DD64CA5
BD00568D
3D155181
3CC3270B
3BF0FE81
BE09D3C0
BDB7A919
BD0C0ADA
BC0F13D9
3E2127A1
3E3F2498
BDDD9418
BE003BC8
BD8BEE1D
BCE3E2AF
3E0A0C30
3DFE1B66
3E23762E
3DF1D784
BC312F22
BDEABE0B
3E16F8DC
3DEAE29D
3E06005D
BD00BF0E
BDBD2310
3C27ED45
BC8BA26B
BC0EC6BF
3D5A5F7F
3D6C2A3C
3E62A38D
3D5EE2FD
BDC69290
BBF1B209
3D1809F9
3D81DAC9
BDE14A47
BE19AA6D
3C24FF61
BDDE4348
3D3B77E1
3CC9C4F1
BCC826EC
3D2A03C8
3DC8FDA7
3BD12317
BDC3366F
BDB63627
3DACF62B
3D18B8EF
3D719B29
BD2399C6
BC910CEC
BB590DAE
3CDBB875
3D6F72AB
BD1F7482
BD64CD6E
BCB0FF87
3CB8E666
BD5A719A
BDE16F3A
3D802B5E
3C0EB2E4
BD824D2A
BD17982E
BD51F1D6
BD5B7547
3D5645EC
3D6FC44B
3DAC9F03
BDFB7566
BC52B206
3BD4811E
3D0EC5CD
BE164A09
BD913781
3A2187F7
3B62EF63
3C9E5501
3E240BB6
B985249D
3CF70428
3C8F402C
3DD430D6
3DAAEEAB
BDA1376B
3C9B67B7
3C945A0A
3C265289
3B7ABC9E
BC2FA9CC
BDD2295A
BD8BA027
3D659CD4
3DB46769
BDE9A5B6
BC80B666
BC8406E4
3DF0C6DB
3C79CEEA
3E0CE3F8
3E4BB316
3DFDBBCB
3B29A468
3DC2AFDA
3DF834D8
BDEB1FA3
3D80A015
BD03F4DF
BDF42734
BD71EA5E
3DE0EEE0
3D7805D7
BCEDB047
BCA6F2DB
3DFDC4A8
3D97734A
3BEA1E8F
BD7651C5
BD317CD4
BCDC6B5B
3D2F4EF7
3D135DA7
3D17DC1B
BCE178B0
BD0C690E
3DFB21D1
3E17462E
3D4E24F6
BDACD802
3CBBDDD0
BD840899
3D81B26A
3E04451A
BD40A681
3D1FA2CD
BBAD114B
3C3E6691
3C4282C3
BCA333C4
3D247B9B
3D99ED26
BD8954E0
BE3D13A7
BD1BC549
3D8BF52C
3DA4E949
BC08D19F
3CAD1F7F
3E0B6849
3C14B376
BE15840E
BDC9E056
BDCE7ACC
BCE42463
BD4F1E9E
BCDB7775
BDD92F53
BC66FC2C
3D5AEC7E
3D466AE9
BC60CA83
BDAAF442
BD7D9F51
3D6854C3
3B839EB1
3D8FF0A8
BDFF4E83
BCD34207
3E267175
3D8CB7E4
BD54558E
BE04CFBF
3DC455C6
3DBE416D
3DDCF985
3DEDA417
3D40DAF0
BD864805
3DC8948B
3E1CCD0B
3DD16BC2
3C4B8567
BE1264AB
BDAF0C20
BD57A10C
3C310A88
3E616E3E
3DAEBF86
BE30D7B0
3CE1D8D1
3DFE0265
BDAB9673
BC6E867D
BD5EC91A
BE44BE8E
BD82B84E
BC702279
3CA70A43
BD0528C9
3D49919A
3E332677
3CD091B8
BD5142DF
BE0463DF
BD66624C
3CA03616
3E04BC04
3E0991E4
3D8A3ABA
3E84C48A
3DC0DE44
3D3D00A8
BD5D6985
3D84574F
BB5CCE61
3D83EA54
3DA1AF25
BDCB224D
3C7D9796
3E14B015
3DCEBFEE
3D6F18FF
BD14CF2F
3DB8B9E3
3C4DD156
BDA5033C
BD2DA1C5
3D69B90C
BD5A1722
BDC2E95B
BC987910
3DFF75DA
3D0C2246
3AD35E54
BE176B12
3C2AE04A
B721E6DC
3DE208C5
3B88773C
3CE8ABED
BE1CADB2
3CA1D5E9
3C7F56CF
BD23B52F
3D8BD6F6
3CCB5F26
BD680DB5
BDDAB941
3DA0C82C
3E4B34D3
3E4D3A94
3DEAA46F
BDCCFD6D
3DE08E8D
3CB05CE3
3D0B50C9
BE1C7852
BCC0AD26
BCAEEB06
BDCF9ABE
3DCA69BF
BD7B1BA0
BCF92A06
BBC26D88
3DB44480
3D113E51
BDA6B2A6
BCDDBE76
3BE03CA3
BDD372D1
BD430D38
BD798FEC
BD5C6914
BCA23905
BAD6F214
BDC0C162
BD9E637A
BB97B83D
BD107C2F
BC6DD143
BD91681A
BDD04B16
BD5AB60A
BDA43BBB
BD03BD29
3CA601D5
BC59444F
BD7B9001
BDCB8F19
BD8A93DE
3CC8094D
BCB8146D
BDC5A771
3D4FDF95
BD51E902
BE35F725
BDBBED93
3D91A658
3D2BBA3D
3DC54FD4
BC15E30E
BD56EB88
3CAFF177
3DA5F9E2
3E3079E1
3DAD7070
BDAA8CAB
BE0D18FA
BDC942E3
BE0C66E6
BCF2605A
3C5A8DE0
3BD1AA6E
BE104366
BCA7CCCE
3E1EC848
BDCE1D29
BD83401A
BC7B3591
3DF78989
BCE49B54
BD39A004
3D79F826
3CB7F761
BC025208
3D9E4FA5
3BCA527A
3D366C67
BE4B063F
BE62503D
BD1DF5F1
3E2AB69D
3C5E070A
3D300453
BC69CF57
BD06A287
3C864AD0
BC25A591
BD03C017
BDBCAA53
BDC54DD1
3D4261BF
BD80401B
3D2D8F93
BC6BB983
3DB2077B
BC60D7CD
BBCF01A6
3E74D1A2
BCCC3FE2
BE272DD9
BD1FC3A2
BC9903DF
3DDEE864
BE248512
BE0A856A
3D28AA77
3C9DEA3E
BD23FE7F
BE07F0DD
BE275A33
3DB2D221
BD059B22
BC515E88
BD52FD0C
BDA12E19
BD731E20
3D221689
3DE624D8
BE3FAB21
BDBCA861
BD965BC1
3C079DAB
BD4D6C75
3D457620
3CAB1B50
3D344DA8
3BE788A2
BDA644DD
3D72B4F1
BCDABA42
3C9654E8
BD81F217
3D492D2B
BB939DC3
BCC1DCBB
3D546A61
BD933028
BDA8C5A5
3C6AAC32
BD18FAEB
3CC5DBC2
BCDEE1F0
3D825842
3C899633
BCA00046
BC791375
3C8564F0
BCF89899
3B567250
BDBC5EFA
BD1D1AC6
B914EF35
3C4752DE
BD8FCBC6
BD5CD17D
3C4BDE96
3D994C2B
BD0A1011
BD9C0017
BE9C22E8
BD3BFD5F
3D958997
BD3E5049
BDA7D982
BDB7FA3C
BE0DC1C1
BC2472A8
3C293968
3CC69062
BD0CA023
BCA3D3F6
3C31E28A
BE32B73A
3C97DECE
3D1A7CFF
3BED9714
BE28C7DF
3D1EE9D9
BD1EA568
3C22B976
3C774F19
BD6DD5E0
3E419E36
3D30B264
BD356F26
3D3A30DF
BD2478CB
BD970C1C
BCBE6FA8
BD15C15D
3CE5D50D
3D8475F0
BD85BCE2
BD6D667D
BE0E6537
3D8F94A1
3E362257
BD83C560
BDFFD607
BC86C5FC
3DCA6143
3DBDC329
3CAB8DE7
BDCEA2F8
BD493FA0
BC7EE428
3DB8B3C8
3D21B2FD
3D07B7B5
BDB8749B
BD54EEB9
3CDF1482
3DA7BCDC
3C5E9543
BDE1D952
3CAB8146
3E04963A
3B79230B
BD79A2B8
BD02DE11
BB87979E
BC61D813
BE49E868
BE2AA896
3D6F7E5A
3DED17AB
3D7858FB
BC1C0802
BD8AC2BD
BD515F1B
3E16E5F4
3DFEE810
BE093BED
BD1939C5
BE2FC786
BD723230
BE3B9E7F
3DDEBEAB
BBD3CF0A
3DED5187
3CFB9C5F
BDA73F14
3DDE4587
3DAB89E9
3D3B7F93
BD25E26D
3CFDD38C
BCC5DFE1
3E1E5DBC
3E5847CF
3E59793A
3C50F967
BB823DA4
3DA50507
3CA88B84
3E6AD85C
3D32CB36
3D0CDA22
BDA7B891
3E40AEE0
3E256B84
BC8E87B1
3C4CFFA6
3DAB68C2
3CAD6A5A
3E00986F
3D685C5E
BD2336C7
3D4B682C
3D1D7107
3C3C5388
3CE959C8
BC3E7E4A
BCED63D2
BC8B54EF
3D98AFD2
3D8C2FED
BD0E5525
BD11160E
BD99EB05
3D486510
BD6F9E12
BE28355D
BE04DEB7
3C41DFDC
3D2F970A
3D84D844
3D81E2BB
3C940420
3B8A94CE
BE133FA2
BE667ED7
BD125FD0
3CDE848B
3CF4493E
BD892134
BD864038
3E2E4DA0
3BB7CFE5
BC35511D
BD540D43
3DD1DC9B
3CA81D54
BDE289BB
BCD53F75
BE24BCB8
BD66A508
3DACB446
BACA85FA
BDEA73F6
BE21E67E
3C89AED1
3D6BE6C8
3D054975
3AFB6100
BD540A3A
3D090655
3D691F34
BCCFB0DB
BDD5CF4B
BDF59ACC
3D4F9A19
3CA7AA90
3D0248ED
BCDC8062
3DB68ABF
3BDF651C
3E2AE3C3
3E007942
3D06A47D
3D06DCF3
BD379A15
3D85CA99
BC447120
3DB3458E
3E493F40
3D8904D6
BE5100B0
BD4F010B
3DDC6540
BE125FAD
BDD1434A
BDEFD8F2
3B663FF1
3D8F8680
BCDECBCC
BD578F8B
3D91A597
3DB24888
3E0BF963
3DB68ED3
BCDB5895
BC036AD1
BE147F1F
3D8706AA
3DC0210E
3BE1E2CC
BE0D79CB
3D664644
3D54123E
3D498ECE
3D7A2A34
3CAC0AC1
3AE45A73
3DE9E949
3D8A4A71
BD4FEE8C
3B47DDD9
3E42959C
3E360DC3
3D2AFFD5
3D6FF282
3E1B00A2
3D819C71
BCBCE4A5
BA59C90E
3E2B349C
3D88C7D7
3DC3CF9F
BDD8E08C
3DA85A20
BD2C697D
BE3EA132
BDB22FA0
BC63766C
BD17B213
BABC54C7
BE43EEC6
BDB040DC
BD7D95AC
3C90D39D
BCC32D84
BBE7C58C
3CDB6F9D
3DBED5A7
BBB7A15F
3BC0C8F0
3DED8466
3E694FEE
3DDB3474
3DF96BD4
BE21B348
3D32248F
3D5BBA67
3DBEDBC1
BDBBF245
BE5E926B
3CAEC75B
BD01CEB3
3DDAA8CB
BC90E051
BAEE48D9
BD8FCE68
BC585944
BC9CA633
3DCD74F8
3CDCCF85
BCC70B7B
BCB7130A
BD840C4B
3B798626
3C663566
3D0BE50D
BD6F3EA3
BCD37C9C
3D90C228
3D68D551
3CBFCF94
BE3FB095
BD053390
BDC56460
BD0EB931
3D0E4B09
BCFFE54F
3DA5429F
BE009A1E
3D9DC96B
BDF6751B
BDAB4B56
BD0C66A2
BD7F477A
3DBE573A
BDF5DF3D
BD9F7520
BDF73495
BCF5D344
3C671BC1
3DF56997
3A083CE5
BC916027
3C74E079
3DCAEBBF
3E302E8D
3CE934BB
3DADBA40
3C6669D4
BE160966
3D931C1F
3D504420
3D05DA39
3A9E9A81
3C6E5E08
BDC54526
BD44CED3
3DB4BB35
BDE27CD9
3E341E45
BC87B779
BC4CD56B
BDEACED4
3DB50075
3DA4831D
3CE09CCC
3D4EDD93
3E4684DB
3DF59218
3E299520
BE3726EC
BE2A44A1
BD4D802C
BC35860B
3DA765EE
BE602460
BE194C00
BDBC97DF
BDD5824D
BE37694D
3CC0DB2F
BD99B76E
3CEBDDA5
BD82027B
BE77871D
3DD4C437
3DA4D33F
3D7CABDA
3DD92E42
3DA46F1D
3E3F2C2D
3DBACD1E
BD8FB520
3D064B59
BC27527A
3E7EC331
BCC16A5E
3D463CEB
3D7FA101
BDA3C740
BC20A88C
BC94B957
BDCE1C24
3D9530D0
3D6DE98A
BE339E5F
BE2CF8FC
BDB42E3F
3D274FE2
3D499B42
BCD6C6D9
BDFC7D8C
3CCED51F
BC2C5C4A
3B2C0A24
BD2CB957
3D27E554
3D0264DD
3CF6934D
BCCA04C2
BDABDE2A
3D147B27
3D38E0A5
3DAA9A09
3DA8C640
BDAB23C1
BCD3AA52
BDAF6912
BDBAFF99
BE14165F
BDD87485
3C9B0C2E
3B881965
BC2F1326
BE131BB7
3D0D3AC4
3C3A4AF6
BD279FFA
3D563947
3D5428A8
BD649EB8
BD300C3C
BD1128E9
BDC13E06
BA46ACC6
3D2B2420
BC63A6C8
3CB0E7D4
3C41B707
3CB63C1B
BE1C793C
BE080EA7
BE9D4636
BE035051
BD985604
BE235BFA
BDAAE0D6
BDBB4D37
BE3DB57B
3CB93155
3BEBDB82
3D49FA7C
3CB27F6A
3D66F51B
3CF494A2
3C8C7842
3C4FD3BB
BC7D00E7
3D7150C0
3CFA0B49
3E5C7DC1
3D512833
BA8B6B46
B89E4EC6
BB9115C1
BD703098
BE6A5DA1
3D0CBB5B
3DB60ABC
BD12220D
BC6F63ED
3DFFDFA9
3D013E32
3D2EDFDE
BC6D8878
BD032FB4
3CDB8D22
3CD2006D
3D705F8E
3CDAABEF
BD584278
3D9BCE7B
3DD914A0
BDAF762E
3D0F8136
BCB2176E
3E0F8B3F
3D912AC9
BC097706
3ABD3C93
BD0BC72D
3CCD49B0
3E560320
3D69795B
BD7F5E33
BD1DF8F3
3D865CCA
3E25588A
3CA3A45C
BD1991B5
BC921151
3D08EB04
3D057230
3D06B72C
3CF83B15
3DCEDCFB
3D6382EE
3CAC40D4
3CD337F4
3D20084A
3CEE20D8
3E551E4D
3DB03C4C
BDA67B63
3BDEA9A3
BE3A14F9
BD0E0CEA
BDE086E7
BDA95D1C
BD956A6E
BE09A43C
BE15FB2D
BDB743C8
BDA77F8B
BDED94A2
3D7F0138
3CF753BE
BDA1FC44
3D38F1B3
BD8584FF
BD40804F
BD110DDD
BD557090
3D7BA00E
3D85BB92
BC9A58F1
3D1E3152
BD96DBEE
BCACF8BD
3C24A359
3D83741E
3D36090A
BD5B4060
BD7CD467
3DFCA512
3DBB1749
3E423277
BD80AD32
BC86D6D3
BCD550BE
BCB87EC5
3D20D47A
BC7BB681
3C94574C
BD65F99B
BC4516E7
BE0C85F1
BD29909C
3D3B7019
3D02005E
BDCBBD62
BD9EA6E1
BDA0F948
3E07A325
3E0277A7
3CA5C9EE
BD9FED05
BD3524A4
BD10E5F4
3DB19C4D
BBB8E09E
BC9CA22E
3CCC1F03
BD209D75
BE4BAB96
BD5F2A44
3CAF405C
BBE8E7DC
BD58C92B
BDBC08B1
BC045A8B
3D2137E7
BD7EB1DA
BDE18989
BD67283D
3CE7060B
3CF7014E
3B16E623
BD344F26
BC0C875F
BCC8C646
3DA14C1A
3E271B7C
3DFBA8F7
BD7FDCC7
BC25D83D
3C9886C9
3DEBAB70
3DEB75D1
3D3BD93F
3DB7634D
3D563960
3DA7F26A
BC20556E
3D14315D
3DBBD383
3C7F7C5E
BC30A483
3D95F609
3E28475F
3DAB08BF
BBBEAF20
3D404C85
3E5062DC
3E4AEC48
BDD8EA79
BDD4C81E
BDAC4EE6
3CB30A95
3D595A0D
BE61C7C1
BDB93862
3D62D22E
3CF367FB
BDB986B9
BDBBD2A6
BE05782F
BDDAB72F
BD5AE661
BCB4A4EE
BD209940
BCDD9DAE
BD392F7D
3D7E5C58
3D10F15E
BD2B121E
BCE44FCC
BD49175D
BB6CB197
3D89A4D9
3D98F2A1
3DC473DC
3D2B8253
3B328302
3DBEFF2A
3DC84569
3E0DFF29
BE040011
BDCD3A86
BC5A10CB
BC53AE77
3CBDDC38
BD037A3C
BD87FD75
BAE8E2E0
3D6B3FED
3C863B65
3D1289F4
3C5A29FE
BD2868F8
BE868A21
BE165518
BDACE175
3E2E1004
3CCC1365
BE4F6C3B
BDC5FC16
BB3A61AB
3D1E5396
BD699D34
3DA527C1
BDBEF7A3
BDE1A833
3D4A2CE7
BBEB1AB5
BD8FE05F
BE179333
BCF1C0E0
BC9E3FB7
BCEAA52E
BC35BD17
3D1D57F0
3D9674A4
3DD642FF
3DA281B2
3BADCAC8
3CBA36B8
BD227249
BD76180A
BD3D6C64
3D88DCB1
BDE82A6D
BD4642CD
BCEB80BF
3D006046
3D3AD6A5
3D235EDE
3A34A8B0
BDA5EC4A
3D0CA2FA
3D4987A2
BCE5F0C2
BDA90450
3B657302
BC8050A6
3D8982F2
3D88086D
39D87FD1
BBCCEFEA
BDD0215E
3D44F241
3D9C697D
BC8585CA
BE15BCE0
BDA9835F
3E3482E8
3D8C0012
3DC0E30B
BD5A2E70
3E1F3C94
3D6FB21F
3E22BFC8
3B0A0464
BD073C92
3DD5EDF7
3DE2E647
3E4A43D1
3D155F19
BCE1661C
3D25BB05
3D0A2B70
3DFE38B7
3E073926
3DC00C15
3DDAC869
BC8B974A
3DDDE1F1
3CA017F0
3C81CA32
BD899986
3B35A897
3AA9CE32
BE25CC3A
BCA831C3
BD957F57
3C4DBB2E
3E6F13C6
3DCED2B8
3CC35D94
BB9581A8
3C0572C1
3E182855
3D5097F4
3A95E6A5
BCA5CD55
3C62F04D
BD412E12
BD535C48
3AD5C19A
3E1CEED3
BDC1F96B
BE60F016
BE1EA594
3CCD1A04
3E0BA650
BD13E88F
BD8C23A3
BE04721F
BD5E413E
3CBBA24D
3DC53ED6
BE0977B5
BE401DBB
BD017D60
3D8253B3
3C90D1A8
BE22C1D9
BDD4C185
BC1F0CE4
3D83F408
BCD9671D
3C414E56
3DCA767D
BC82DD7C
BDE6E758
BE84BEED
BD8C6C41
3CE3F742
BD4634CD
BE2E0232
BDE63322
3DAE973E
3D00A26B
3C9E7A68
BD6CC53A
3D527638
3D8412A6
3D956E16
BD24298A
3C983610
3B0C498F
BD4BA24E
BD84C8E5
3BA1E308
BC4EC36B
BD23D152
3BDDDF97
3CD7BD40
3D7AF357
3E0F4FFF
3E300195
3D96528E
3CDFADD2
3D15C813
3CCC9BAC
BD07918B
BDBA8165
BCEC8FFE
BD8AC0ED
BCA03A79
BE5CEF21
BDF5E31C
3CD2902B
BD130C3B
BE1449C1
3D3BE95E
BCAE2C67
BD20938E
BD380C0B
3C333062
3D9D30A8
3DB9ECAC
3DBBD87D
3D82B371
BC080212
BCBB22D1
BE1FEAF3
BD3156B8
BDF6581D
3CEBD839
BE4AE343
BE1372B6
BE422D04
BDE50F90
BE0AFD22
BD92EBFE
BD9E9061
BE0F6065
BCCB4C48
3D3D78A7
BD2A1C3D
BDE97871
BD1B2379
3D200605
BCE97B33
BDB97E6B
BA226217
BBE2E621
3D547CA2
BE037CC5
BD8847E2
BD3EBD71
3B17041C
3C8097AB
BC086639
3C1BC437
BCF5C1EA
3CAA67A9
3C610549
BD42A225
3D295DD4
3DA1E66E
3D736362
3AC0EBBF
3B72E6F1
3D475C85
BDE45268
BE2A99E1
3D45D298
3E1AC6FF
BBB58676
BDFCDF5E
BCB20691
3D8877FB
3E0A6726
3D87651C
BD076880
BDF98E4E
BD42B3FA
3DB5036A
3DA78DF2
BCDF41E6
BD749E1F
BDC56D1F
3B837863
3D61C86D
3BBA8533
3CACE4E4
BDA74386
3DD34A77
3DC33C3A
BCD30E67
BD42B265
3BD587A9
BC0A3AFE
BB6F3C1F
3D50E30A
3D0E5751
3DA859CC
3DB76E20
BCA88AC5
BD9EF3AA
BC323423
3DFA1099
3D8C3CC0
BDC8F77C
BD910FA9
3D22986C
3D24E16C
BAC8174A
3D5A2EA6
3BA16DC0
BC8885C1
3DAE3A87
BD8C53D7
BC485BC1
BD90E51C
BCA3482E
3C9D980D
BCB87E8B
BD0372BF
3D798602
3E0EDE91
3D9E6230
BD6AD914
3D390795
3CB40695
3DBF6C98
3D9B1833
BB455C10
BD201149
3D448AB3
3E1A1D8D
3C96D315
3D0FC4B8
BD9ADFA3
3DD3C591
BAFEFDDF
3D045AC7
3D45A25A
BCFE418A
3DBFF6F4
3DF671AD
BC85C4E4
3D1AE74F
BD72B787
3D587D78
3D81D30B
3DB2E857
BD158AE5
3CDBA831
3D9C8221
3DEB4089
3D246BA1
BD3E88B3
BDF32C91
BE29FC91
BD9DEA55
3DD4716C
3D4E6C8E
BDE5A407
BDC208DB
BD1CABE9
BD95B39B
3D26A8F3
BD85B2C0
3DAA8E02
3D12E2C2
3DAEB24A
BCE4B311
3E2BDB4A
BBDA4CD4
BD968A95
BD44A3F3
3BDB4A82
3DBE80E1
BDED2544
BCFCB4D8
BE0530BD
BD81E524
3D6078D7
3CE08EB5
3C8D3C14
BE29F305
BCBC795A
3D82CC8F
BCE0BC31
3D23C6D1
BE00785C
3CB9E798
3D826A98
3CA65459
BE1327C7
BE0F7E31
BD14799E
3C7F0CDB
BCC1E22B
BD6980E0
3B81E6EC
BE08A1B2
BC206CB0
3DAE320C
3D46AC8F
3D65D33C
BE05FDAD
3C405213
3D0AB173
3DF580FD
3DFBA2DA
BBDF0BE4
3BF25A6E
3D8A4B81
3DE35E87
BCF1AE5C
BB75A2B6
BE03E7A7
3BEBF309
3DA76143
BD12C19E
BDB007D3
3CFD4478
3E0891BC
3E27169E
3BFB498C
BE219F6C
BD1F80B7
BB92E455
3DA75741
3E279495
BCFAE29A
BDD2AFB3
BB4322AA
3DC86695
3D66AFFA
3DA8A07E
BD9091CE
BCE0BB65
3D7701B4
3D1338ED
3CF513C8
BD575AEF
3DB461DC
3DF31172
3C8BC389
3DA20414
3D495D15
3D21FD5A
3C0E4841
BBC0FD15
3DA4E57E
3DED0AFE
3D79BAE6
BBC11FF5
3B1BAD60
BD8A5A51
3DBA3F14
3C4B8A52
BD55940D
BD8116C6
BD01C1DE
BE372ABD
BCA1FAB1
BD4D0628
BD0BC42F
BC8462F5
BDE080D7
3D814731
BCF5A98D
BBB70F6B
3DBAA90C
3DB1BFCB
3DEBD342
3D8E7B0F
3CA3AC2D
BE3B65AD
3D64C9B5
3D62213E
3CB2CED0
BD49747F
BE6122BC
BD92E43D
BD1F6B6A
3D6B8744
3D000996
3D43400A
BD18C5EE
3DC358C3
BC1B2BFC
3D9890F7
3D90CA0A
BDA18812
BD47DFA7
BD63D23D
3BDE043E
3C7C6C6D
BCAB01DB
BDB6072C
BD1DB1CB
3D4641FC
3DBB7F06
BDAF3280
BE397C44
BD579B90
BE11378F
3D501E4B
BC492526
BDB0E143
3DF05800
BD681F5B
BA48E558
BCFCFC39
BC6DC461
BC2368E6
BB9F1B96
3DBC5C8E
BC8937FD
BDF3BC37
BDEB2994
BD4158A8
3D7D9472
3E586DF7
BC9DA413
BC789E2B
BD9E12A0
BB784975
BAB7717B
BD82B207
3B975468
BD6BF0E7
BD75CAB4
3C81F958
BD869592
3DC6104D
3D99B990
BB0DD03A
BDB8E315
3D865508
3E137D7D
BDE798BF
3CA07213
3CC5D649
BC3B6837
BD4DE901
3D798A5B
3D38F9AE
3D961362
3DD21E18
3DFBCADE
3D626757
3D5F883C
BD23B7EB
3D7DB78A
3D6F126E
3C864005
BC819706
3C908DAA
BD9E56D2
BD374F57
BD191175
BD1BD46E
BDE594F1
BE3A3972
BC8A89D9
BBE7F2DA
BDBEB0D8
BBE1BD5C
3C88B3EE
3D8CF729
3C096380
3CB6EF11
3E459D44
BDCC4D78
BD5C97BF
BD4C4745
BCEE6DBE
3E53A012
3C2613B4
3DF4C873
BC84A696
3C6165C9
3D9A0129
3D30CB25
BD2A6990
BCA37969
3D3C6ADC
BD76C506
BDB49DE7
BD9CD94B
BCEE007A
3DF04D41
BD8296FE
BE498553
BDBF523C
3DC662F7
3DB8EB66
3C2DE623
3D9CBE0D
3D92CE94
3C27431F
BAACFCAC
BD2EDFAA
3B17621B
3CCED613
BD00F085
3DB6E719
BDBDDDA5
BDADCB40
BE009F68
BD4A74C1
BD61BC07
BCB66843
3DC77BAB
BD02ED6F
3CAB42DA
BC559730
3D687A5F
BC872773
3D595796
3D150038
BD950A80
BD9EFCEC
BDBB4A2F
BDC0778B
BDC736E2
3D8AE5DD
3DB27395
3D99F533
3DCA9B91
3D855127
3D222251
3D1D6544
3D8085B5
BC06633D
3D08D7B6
3CDB0068
BE0227AF
BE1362B0
BD7210C1
BE438691
BCD4F4C9
BDA219D0
BD6821EF
BBD09932
3D40119F
3DC88A40
3C91A7EF
BC84FEB6
3D2428AE
BC4C51AC
3E4D862E
3DAD0FEB
3CDFD3F9
BDB7F615
BE25FA61
BDBFA15C
3CE6BA79
BCE08DC0
BDCE86E4
BD7B1B85
BE04EE6D
3B80AE25
BD537997
3DBFBE67
BD0D4E13
3DF0BCC1
BD50D105
BCE83829
BC695804
3DB3D90B
3D024980
3D0741E0
BD009963
BCBEE9DF
3D0121E1
3B9816CB
3D19EC86
BCC74315
BE1A92E8
3C10678C
BD8B9C34
3C9CB1D1
3D351E97
3D4E7AA5
BCEF4FFA
BD0904D5
BC85E94D
BD1509B8
BCF16799
3D02389A
BB559477
3D7BCEBA
BD4C91BF
BD4264F6
BD5C375B
BCB8A44C
BE666B68
BD459364
BAB9336D
3D8A6EF6
BB1A7FD8
BC343A41
BDE3E796
BC71EFC4
3DCC5498
3E18FA2F
3D57A054
3B7A7D55
3D7BE72E
3CFBC3BB
BD3E0B25
3E22EF1B
3DDF2002
3DAE6222
3DB65165
BD7341D8
3CA2E91C
BDC19270
3D19791A
3DED0BD6
BD0C10AA
BB471BFA
3D430DC6
3E3CA6B6
3D9BB317
3D1B0E00
BB2BCC1A
BCE0893E
3D1328A6
3D0995D2
BCDDDFC2
BD24F915
3D3B9577
3DDDBA8E
BD7DD5B4
BDC6CC91
BD227794
3CF884E5
BD90F7C5
BC918904
BCFB8D12
BD04DD74
3C7AB4E5
3D526690
BD3915D1
3D5DD143
BD8DD1C7
BCCB1F6C
3D80A0D4
3DD4C970
BD32B6C4
BDDD5408
3D035D52
3D8BBE67
3E1D78C7
3E22A2E7
BDE81377
BD1E36D7
3C9FDDE9
BCD9B138
3BF66A17
3D69EEB3
BB9CE67B
3CD9DAAD
BDD44623
BE0F1E56
3DAFC58F
3DB71756
3D9957E0
BD5783F1
BCEC3278
3E4E78BB
3CCBC9FC
BE1496A5
BE429A1E
BE2181DC
BBBF4534
BCAA37D2
3D3BCE74
BDD184AE
BD995738
3CA27345
38DB1F82
3D485A14
BD2C254D
3AF10E4F
3DB18735
3C82D562
BDB53C67
BD3693C5
BC9655AA
3D476377
BDB0CE34
BE12EFCA
BDE4D2A1
3B11BE3E
BD3FD092
BCB61FAB
3D38BED8
3D763CC9
BD43AFDB
3D6C1B10
3D5A2220
3DD4663C
3D95B655
BD4DD0A3
BC616611
BA664B0A
3D930A14
BDB8446D
BA576794
BD20FF18
3CDF4ED6
3CE09319
BE51F2B9
BE1CBA52
3C13BC5B
3D543137
3E3BBB9B
BC205C53
BD50AF9D
BD51B558
3D74886E
3D0B36BB
BD251612
BE4BC83C
BDEF1409
BD54042D
3DD47D07
3DEFC0F0
BC91A9B2
BC8F500E
3CF292D6
3D9D8953
3D2A5273
BD8F96AB
3C9ACA36
3CAE788D
3E16BD22
BD41CDE7
3C7B43A8
3D59268C
3E15191F
3D8D723A
BD59C97C
3D65932E
3CE11FC3
BD531D98
3CD07C80
BCABB632
3DA79F94
BD25EA29
3CA1EA59
3D7C7998
3E4E9928
3E08B497
BC9C2680
BC6D720A
3D16847B
3D49876F
3DA9E15D
BDEE48A7
3C84D7F3
BD647D66
BD8E564C
BDFC9F97
3D8191E0
3D465A19
3D392F03
3C221227
BD1C6BEB
3D830388
3DA3EF2D
3DE086C6
3E13F037
3DAB5B45
3DB201B2
3CB713EA
BC90DFBC
BE217599
BE3246BA
38420E48
BD87CB50
BDA35DC1
BD7B9814
BDC74855
BD7BC0FE
3B94D878
BCC3A2CB
BBC5E3F4
3BAEB8E4
BD9E370C
BE0665E4
BCE72379
3E01AA39
3DC47844
3C943160
BD52D28D
BE111F34
B9E07517
3DB9DFB7
BC04F431
BDAD9F05
BDA7CE2A
BE44B39E
BE0D854C
BD5C1D3E
3C6F4709
BDC6FD39
BDCF03F9
BC5B342F
BE33A821
BD0803F3
BD6C4F19
BAAD54F6
3D30E00D
BD87D932
BE2EF4F2
BE2CF4EC
BD939CF1
3E372F23
3DCC6B3C
3D039B99
BC7EF29D
BC2D3989
3DACA2C3
3CF36542
3DD9775C
3C891E01
BDFB83A1
BE5AF276
3D399280
BCC20711
3D81731B
BE39A03C
BDC3C947
BDB8105A
BD16727D
BD4C490D
BDC1A4D7
BCD87C00
BD9274F2
BDC600D4
BDA19EAB
3CA7B7D2
3D35AF0D
BDB32FEF
BDAD48F5
3E3623A5
3E303D7E
3DCB46EA
BE516233
BDF4835C
3CCA9B13
3D21ED34
3DB20CFE
BD6718EA
BD5B4700
3DB50B88
3DCCE484
3D516C26
BC788DA8
BD34F5B7
3C250CCA
BE25BB86
BE2C8371
3DB141A7
3D257B3A
3D27AF4F
BCDBA364
BD9C7447
3E5FECC9
3D7E3EAE
BD8C8199
BCDC3B2C
BDBAA410
3DF752C2
BE0B3DA7
3D5BD8A2
3C3BB7E1
BDBCB5A4
BB15C2B5
BE20075D
BD808844
3C6E1872
BD591BA7
BD661DCC
BD9D5978
BDE8667F
3C28CBE7
BC9ACF69
BCE68407
BD26E50B
3CFE7904
3DB29C92
3D9206F0
BD4C612C
3D9C7197
3DC0C21A
3DA5F394
3DB8967C
BD91F486
3D99C80E
3CB8F555
3C92DC3C
BB23973A
3D27F72D
BD68ADE7
BDC15576
BDE482F1
BDB94431
BD2E850F
3DEDB0D0
BC217DB4
3D3A114F
BC9B76E8
3C8A6635
3D733D35
3D4C8A1E
3B23D1AF
3CF73546
BD6208CC
BD07915A
BDBC3364
BDFC1439
BC53F91F
BCF5C7FD
3D8FE762
3DECACFE
3D90CFF0
3DA351FD
BC71219E
3BA5D907
BD101D4F
3DCFBE07
3E250732
BD42E485
3D0F1E01
3C388D66
BE252530
3C83117F
3D8EDDDA
3D12F63B
3DA262A2
3DA048A1
3D12A972
3DDE9E3E
3DB5BE26
BD120DD9
3D99D829
3E17D2BE
BD66E079
BD1F22F8
BDB81E40
3D205945
3C856B31
3DBC0CD7
3D1A46FC
BD591BC1
3D7D1F9A
BE01212B
BDA4957E
BDD10B7A
BE3585FD
BB600B1E
3D3D3DD4
3D6E4483
BC29AC0E
BCD9B11F
BD7871B6
3DFAE645
3D89C249
3C8FA8D0
BD56520A
BC93D392
BD8DCAC4
3C2ACFFC
BD599519
3D297987
3CFBA3FE
BD49C8C0
3CF0F454
BD0AA597
3C1A3A7A
3D065CF6
BD9D279C
BD3695F6
BDA8C36E
B94148C1
3CC73F2E
3D2C509A
BD5C253B
3C21D87D
3D1D6E25
3DDC7B88
3DA0C386
BD055714
BD392752
BD588C28
3B98403D
BDE86310
BDCD526A
BDCF4655
BD8CD690
3E1F3AAA
BD3F6BE1
3E72F262
3D8D7EEC
3DC7FDB8
BBF2DAA8
3E0F1A05
3E64BED2
3E6587F1
BD7D630C
3BF24A4E
BCBDD954
3D438A20
3D3C0151
BD154C96
BDB19A8E
BC9DB94B
3D6E95BB
3D029252
BDA04CA5
BE052F09
3DBC29E5
BDC2DBC7
BD4EDCD3
3D5C4DFE
3D6B5876
3CEB1A30
BD6E4C08
BD639BC7
3D960030
3CC0F682
BDEEC0F0
BD4139FC
BDF18F12
3CEE6B03
BC000B56
BDC78326
BD91F41C
BCD18A34
3D567F45
3E1CB64F
BCF1D648
3DAFC19A
3CB43719
BDB7BB32
BCFFC618
3D936EED
3D8129E6
3B7050C0
BC82286A
BDBA3EA4
3DF6C135
3D9CF730
3E3ACCF9
3DD2C867
3DDD060C
BD1AE335
3D80151B
3E2D3E5E
3CDC2B6E
BCEA3CE6
BE55FDAF
BC810098
BD5EA18B
BD2D483E
BDD7B08A
BE037F41
BD3D9C45
BD5AD60F
3E030AB8
3E042C3C
BD50A786
BD87175D
3B1EAFE4
3B9861A8
BC4281D8
3CFA2844
BD139AA2
BCC1377A
BD6CA78F
BDC7F886
BCE6727E
BD96674D
BD688EBE
3D01CDCE
3DADA98C
3D6CA9BA
BE29ECE5
BE32152D
3DAA3105
3DDEAD4E
3CC223EA
BD381FCD
3C2E2D8C
3CA7AF8A
3C1AFCC3
BD218935
BD81CC6B
BD6BB346
BC952E43
3D0FDE2D
BCADFC1C
BD3DBA3D
BD5BE718
3DB47C36
3E13D41C
3CAE4E01
BD96017A
BE088C84
BDF34415
BD73E61E
BE03F7E8
3E2AD069
3E0F4F12
3D12B1D5
3DCBFF89
BCFDDC8D
3DACB9A8
3DB4A146
BDE47C2A
BD0E1981
3DBB6E5E
3D0AE2EA
BC763F43
BE1727C1
BDD3FF85
BD226DFE
BB480AA2
BDAF506F
BD858A8C
3CB91807
BD9F9065
3DAD1332
3BDD6766
3DB75A1E
38FF1654
BD410304
3CD9DFEB
BDEBAE58
BD1D625B
3D6D846F
BD8A77B5
BDA2C414
BD0FD2C2
3B92A7BE
BA02304D
3BCA8A23
3D4E7043
3D97EF22
BC44624B
BD4595FB
3E2490E1
3D644EA3
3D41B87C
3CC4D549
3DB863FB
3E271AD3
3E099D36
3DD4C62A
3DE9AE97
BC8F228A
BD8B2FA1
3D964637
3CA6F1CF
BD733418
BDA448C3
BE04DB6B
BD5497F5
BD98CD38
BDA34F36
3D644DBB
3E3C0F36
BE0D876D
BD18042B
BCEB2807
3E027FEF
3E7B6891
BDBB7C1A
3B3E8388
3CCF42B1
BD7C718D
BDE55BA3
BD1864EF
BD877DEC
BD429A91
BDC17714
BDFC6BBA
BD1E8CB6
3E157067
3E027358
BD12CD86
3D3AA497
3D7D22D5
BD647119
3DAC2FA8
3D549CCF
BC8425FE
BC5C5F87
BD5B7F74
3D95BBBA
3E050274
BD1FF64B
BC7AA5B4
BCD87BC4
3DE78978
3D454EDA
BE1C14F1
BE0E498A
BDC2C039
3D5FC0BB
3A74DA16
BDD12350
BD81E4FF
BDC0B36F
3E26392B
3DB46CAE
3C834C71
BD6FC814
BD6C2291
3DA4043C
3BA15F28
3DAEB2B0
BD298563
BE049C67
BCBD670F
3DB99816
3DA7B0E6
BD3E919E
BD04ED57
3D8B0C6D
3DD47B5C
BD8BBE8E
BD47480C
BE6908B1
BD96FB61
BD93687F
BCD3657D
3C8F6DA8
BDFF437F
3DD8BBB9
BB72A64F
3CDA8ACA
BDCEA9EA
BDF60FC0
3D659C64
3DD8B959
3D39243C
3D2128C7
3DCD2CEC
BB39132A
3E3278E4
3D89B8A0
3DB3B619
3DF0C99F
3E12C03F
3DD33DCF
3D236997
3E44581B
3E43A822
3DA0C656
3DA2738A
BE3005D4
BC87DCCB
3D5D4C6D
BC34AC01
BD0F7595
BE3E8378
BD3F8053
BD89B161
3D54DE41
3D326B32
3D9F4C01
BD5EADAD
3BC91C9D
BD9F4B87
3DAF688D
3E3A446E
BC109A94
BB116AEB
3C27B9B6
BB312905
BC18508C
3C52E3E0
3D655394
BD24EE81
BDD1DE42
BD32699E
BD4B7519
3DF63B44
3DC68640
3D233459
3CD5208C
3D89453C
BCB3B5B2
3D0EE611
3D55ED95
3D8172E0
BD9E0672
BD8F865E
3CF2D49B
BD0245A2
3B3B5E62
3D465EA2
3D91F7B6
3D842B6F
3CF44794
BDEC4885
3D849C50
BD6CB1D8
3C026DA8
BE2C2CC8
BDB6D130
BCB872C7
3D5E8164
BC884098
BC8CEA56
3D63B72B
3C640348
3B6E7B0A
3D046723
3C1EF644
BD3E0BDB
BD76CD46
3CB14576
3CDF701C
3DEB5B6F
3CA1B144
3D91FEF8
3C88CDB1
3D1D5ED1
3C8558F0
3E0B249D
3E874E74
3E0C0BE7
3E6484F2
3DE4A717
BD832C1F
3D8AEE7C
3DDE6077
3D402AC4
BDD366EC
BD9A9ABB
BD0AF18E
BD059EF7
3CAD9B6A
3DF1F9EF
3C475C5E
3D5893E4
BBD98FBC
3CFC3922
BCDB4F64
BCBEA427
3D7B7EBB
3C95972F
BBBF0501
BD010FF0
BD5B903D
BD1F5E80
BD1AC736
BDB538F8
BDCFA784
BC914E7B
BD0B0964
3CB25CA7
3D16B6A3
3CA223E9
3E059A3D
BCC5B1BD
BD933183
BD7A9852
BD1E0FFF
3D387546
BD352E9C
BD2387DA
BDFE8305
BD0C0483
3A943C92
3DF3450D
3C7D4C90
BD1DD45D
BD2A81BA
3D289651
3D3076FA
BC8BBB51
3D98F12F
BD2D305A
BC92A8E4
BD1C8AFB
BD55D820
3DD282B0
3D8397A1
BD3EB37F
3CB8C8D5
3D851460
3DCF5D5A
3D46780E
3E0E2C21
BD64FBB0
39F1B732
3D6E64D8
3B38E006
3D8F1AC6
BE037DC5
3D077201
BDA67FC5
BCD0340C
BC97DDF2
3B3408BF
BC344E93
3D7F2EE5
BD9E115C
BEA686BE
BD38549D
3CD1090C
BC9C8510
3D67D27A
BDBCA387
3D500D21
3D33AA27
BB0BA275
3D8BFED5
3D8377D7
BD628D0A
BD5BE55B
BD72FBA8
3D946627
3C6E2E50
3D49C9FC
BD100D12
BB973A5E
BBD59CB5
3C1D0484
3D470BD9
3DCEA61A
BE00F5C9
BC5C3F05
BD5DF288
3D14BAE0
3AAC4433
BC272B0B
BD8AD1BE
3C5B59C2
3D42BA5F
BCC74B5C
3CAC1F0F
BD611CD4
BB9BC9BD
3D14BCBB
3D0B11FA
3DB412B7
3CDBB88B
3CB527D8
3C056D62
BD944C37
3CF16536
3C8FAF09
3DCFA616
3CEDFA79
3D94FADC
BD2EA3B5
3D81FDFE
BD3EF7DF
BE01E7C8
BBE0BF44
BDB96CEF
BE1A2435
BE3DC89C
3C89E9EE
BD2106D8
BE4E51A3
BE19ED7D
BD23BC29
3D1A3A43
BC5E6A96
BDF13654
3D2AC77A
BD4F86AF
3D42F62D
3D374F32
3D34C710
3D21AD4E
BDAFEB74
3D720DCD
BD898CFA
3CE0C718
3DA7F646
3DFE449E
3DBE53A8
BD4BA548
3D18EBF1
3CCBBE4A
3D359B42
3D4FE04F
3D70DBC2
BD027077
3C9756EC
3DF46123
3DE4F259
3D1C9AC0
3D473EF2
3DA112B3
3DAAD0F0
BD9CF362
BE0547D1
3D3D7754
BE0A1465
BD5366A2
BE367B50
BDE2F377
3CD8D131
BD73754D
BE442A50
BD66AF6B
BD090826
BBA96A76
BC83183E
BD89E0DE
3CFFC1F3
BC7F675F
BD2613C4
3C83ACF1
BC3891ED
3D8C2D19
BD72628E
3D1C139A
3CDA7CD1
3DFF7F46
BDF98FD9
BDC6738E
BCDC807F
3DA2A0E5
3E07D775
3E29A556
3DC17D00
BBE3C123
BCFEACE4
3D73874F
BD8CA567
3D4FDD95
BD779CF5
BE620498
BD5CF8DF
3D84AF93
BD2EA0BE
BD3C362F
3D135C68
BB2E35EA
BD205D42
BC05D583
BDA0072A
3D2287B7
3CBDE03E
BDD29C85
3CAD3952
3D76410B
BC31A095
BC41F3A7
BDF2C7F4
BE0E123A
3BF049F6
3D0BCF35
3BFFBB2F
BCF7A6FD
BE080D7F
BDD4A75B
3D501435
3BD529C4
BD69AF04
3D33724C
3D9A49E9
3CDF3B69
3D8B388C
BC1AA107
3C796475
3C1104C2
BBD1E111
BE01B409
3CB89403
BB4D99E7
BDB42734
3C987689
3DD08DF3
3C977E09
3CF1865E
3C858C61
3C1EAFE2
3CCE8665
BC205270
3D9CB2E0
BD5D2D6D
3CF73F2F
3C9F7969
3A2C9A94
BDA6096D
BE040BC2
BDCBBB39
3D9924D3
BC538602
BD162D16
BD4FACB5
BDE63893
BCB59CA4
3D9EF9C6
3E0B801E
3D161191
BB2189AD
3E134343
BD8FC3F1
3DB7FA05
BDDAAF70
3AF495F7
3D721F11
B97925FD
3C330683
3D2E693A
BD2767E0
3D5BE172
3D582351
3BDFC8AE
BCAA747A
BC99B394
3D3A64D8
BC9D0D46
BC2E5F01
BA7D2335
3D1782EE
BCF5F4AA
3CC70BB3
3DE65E56
BCC27205
BD7B16B4
BC1525CF
BAD30E5C
3DC0EDCC
BE010CE0
BCE7FFB0
3D426847
BD123C58
BD27EA69
BD228F77
3D089997
3D3B0496
3C78863D
BD5AE4AA
3D900C54
3DA66B45
3E241695
BD66D418
BD85DD67
BD47980A
BDA42D82
3D4605F3
BDE5F746
BD83EA5F
BCC9B306
BCD63BB8
BDBF74C4
3D08CC92
BD9FE62C
BD7087E2
BC6CA7DD
BDC0C6DC
3D81B4B4
3D344D64
BCC7D637
BCECD801
3C525FF9
BB18083E
BD2190D7
BE0522F3
BD74B2E2
BC48CCB9
BD617330
BD0979A0
3D4CD3E4
3D04F42F
BDA2EA7A
3C8E6517
3D13F596
3CD1B914
BCCB1EDD
BCB3741A
BDB3C2C7
3B84F297
BD0B99A8
BB6291DB
3DB51BD9
BE12D888
BD3BB67E
3D1B7931
3DFD2B57
3D8F308F
3D8A1764
3DA1CFEA
3D45C329
3DB0DC37
3D5F9705
3CB29B42
3D5723F2
BBF53113
3D49BC59
3D26B491
BDB8A1FC
BCF1562A
BD36B909
BD95FF7B
BD8B2873
BE043D7D
BD89A3D1
BCA5AF38
BD5B6246
BDFB05E4
3C68574D
3D0F2480
3B03677F
BC8F654D
BC9336D5
3C637882
3C811061
BB9B6C0E
BD12B230
BD8C89BE
3C902091
BB3F848F
3BA79143
BE5EF262
BDBBF102
BD5D492C
BDBCF538
BD88F342
BDBCEC7D
BD8A04A3
BD8CDC8E
BD255FB6
BCAA297D
3BB0C55D
3DB5884C
BC98C3DB
BC35EF34
3C80BB86
3C03645D
BC52FE2D
3D113AFC
3DFC83E5
BBD4890D
3D47DDFF
3DA8AC8C
BD9E599A
BD0D03A0
BDDDAD14
BD38BAD3
3C5F497F
3DCA8448
3DE0BC4C
BD8B8B50
3C640168
BE3C4481
BD0D0E63
BDA53EE9
BE263C84
BD5BB273
3D7AD007
BCC0CC3C
BDADF608
BDA2CEC1
3D5E5953
3DF84A1F
3DC8C02B
BD1AA085
BCF88AEB
3D491E73
3CB53177
BAE14070
BD579D61
BD128D35
3D53884B
BC8EBA6C
3D04504F
BD101FD7
BBCC28C4
BD822270
BBB42F97
3D7DFC0E
BDE61ABF
BD8D320C
3C26E1C7
3D0000E4
BC345F35
BC0200EB
BCED7A9A
3D50A99B
3CFBBC67
BDA3ACB0
BDFBFF99
BC9FEAC9
3D2E2B94
3A7CF549
BDA83B09
BE6DAAD2
BB28D49E
3E31CF02
3C91CB36
3E6648AC
BC1902C9
3D695F31
BB28EAE8
BACB2DA9
3E8D0C85
3E6AB094
3AED3DFD
3DA33571
BD29A42F
BC66CAF1
BC85DE69
BD6F36F2
BD096A59
BDB800EF
3D916CFD
3DB3C3F6
3DF4DF9B
3D943A72
BCFFEB5F
3C30124E
BC7CD493
3E1A1570
3DBA1541
3D7812DC
BDC8E19B
3CD80E03
3E121072
3D0E7E09
BD7DE8E8
BDB8367A
BD15D7B3
3D1CC511
BD3B9536
BCAAF7EE
B97640E0
BC0640A4
3DC946FF
3DF628B4
3D29F4CF
BD1699EB
3C257663
3D02688B
3C80E5BD
BB003C86
3D7CEDE5
3D7EAC3F
BC58DB9F
3BFEA371
3DC3CE48
BD014E4D
3D10758A
3D414CF0
3DC6FCE3
3D45D3C7
3D4EDA1D
3D9CDFB9
BC938F90
BD508CB3
BE7AA6FD
3AEA2781
BD77F734
BC718DA5
BDC785B0
BE2B87C0
3E066979
BDCB2358
BCAB1EDD
BD26EAFA
BD2B4BE8
BBD139A2
BDD79034
3D3A3AFA
BD8F475F
BC258ECA
BC18A004
BBA85D42
3C8DCA34
BE0F4B3D
BD5166F7
BD6BC447
BDD2512F
3B7283DD
BD0BB4A7
3D963797
BC94513D
BDBE277B
BD2FCC11
BBE14668
BBD5F8A5
BCC6283F
BC5B45AB
3D38B878
3CC708A4
BD98F839
BBED15B4
3D00CB81
3D858ABB
BBB410AE
BDB22D6D
BDABF96D
3C8B913D
3D6A3A05
3E115992
BD09CC61
3BE9A8F6
BD1FB6AB
BD70E038
BE008771
BE06D4CC
3D8A419A
3D84563E
3E376A2F
3D8BA924
BDE8A070
3D393EC1
3DBCB95F
BC92D092
BD602BEB
BDA919BF
BC914216
3CA16729
3C98F242
3DCDAA32
3BBA4030
BDCFAE6F
BB9ECBE5
3DB5DE62
3D024C2D
BD9BE385
3C4362BD
BCF4664C
3E356DEF
3DB132D3
3D47D1B0
3BF13DB1
BCE4BFB9
3D840E05
3CACDD74
BD7E3743
BC7D1598
BCAA1ACA
BD030AE6
BD83E69B
3D5D4848
3CBC1BB4
3CE883CE
3C63C362
BCEB1296
3D6F3A2A
3C31BCB1
3D24D96E
3CE9B723
3D940F25
3E67EB21
BD2A1066
3D42A7EF
3CE7E544
3CA524E0
BDBE9EB5
3C587591
3D9602A4
BCBBB5C2
BDE0EC13
BDFABE6D
3CE68D0A
3D6A3843
3A8F0129
3B95D12D
BCA860DD
BC9CE224
BC1457CF
3D8DC101
3D0381AC
BD34C196
BD8BAAE1
3D566351
3DD18ED5
BDAC51BC
BD6268BA
BDF230FA
BD09ADE9
BBB7927B
3B9FF40B
BD5B6B70
BD49656C
3D445496
3DB51817
3DCF7B10
3DAD0D92
BD0669EE
BDE9B304
3BBD2070
3D52F16A
3D06E1A7
BD205479
BE0BD08D
BD0A8A31
BD44359F
3D34996B
BDEE5C5B
BDE40F01
3DAB0191
BCB98136
BE145905
BE5A13F9
BDD43A31
3CC54B5B
BD3E5F0A
3C281AE6
BDA935EA
BE773CFB
3D0A8308
3D35D8DC
3DCFBC46
3E1D7173
BD03EA63
BD04A2D6
BD877EAE
3D0AFF0F
3C9CAA01
BDF69AC3
3C58343B
3D55D97C
BCF265C4
BD079798
BA6445FE
3E2B03D1
3D855F3E
BC98DD55
BD904951
BE3BF804
BD17E12D
BD9C2E0F
3B2BD6C4
BD64CE90
BDE3673C
BC7F70BA
3D689B1D
3D7BAF80
BDA558F5
BD4AF6CF
3DBF6668
3DA59160
3D5BFB1C
3D0BC983
3D563D4F
3D3906A6
3DB98003
3A2C4CE0
BBE1BF44
3DD3276E
3D90322C
3DB8AE8A
BC7347BF
3D009C56
3D4CB57C
3D5ECBFE
BBC8E76C
BE44B16E
3D83F55D
3DAD5EDF
3DC8B7C5
BC45D918
BE0A01E3
3E0E8B59
BDC26B1F
BDF9CFED
BCFC5391
3DAC172A
3E388DB2
3CAD1C68
3D1ED351
3DF4B3A8
3E21206E
BCDA133B
BD4CBB86
BD10DA00
BC928741
BCAC7E92
BDAD44AD
BDB073AD
BDEDCADD
BD9F7639
3CDE3169
BCA30191
BD54F443
3DB8B109
3D0AB024
3D1791E7
3D98EB0B
3D335099
3D9A11C7
3DAE3876
3D196F85
BE18E487
BD043E47
BCF78EBC
3C255D8B
BA315FB2
3D2E5CA8
3C1F8383
BE0682F4
BDEF0276
BE449B5E
3DF30271
3D6127D1
3D8CB12F
BDC15ECB
BE135DC0
BD183C23
3D9918ED
3C874F5E
BA8DE9F5
BBF70251
BD3C0B66
BD851A1B
BCDD2319
BCBE5DAE
BD02BBF3
BCF2CB03
3C950F0C
3D97FDBC
BB773A0F
BCD9C539
3D406A76
3D0EC84E
BD8BEE17
3BE49670
3E4E3D0A
3DB063EF
3D3F5882
3DB05DBD
3D648C35
3C5CDBE9
3DF6D329
3D3DA125
BCB59B69
BD830D90
BCAA2611
BDBABE43
3DBB3CCC
3C6EF64A
3D2EB0F7
BE51716C
BD6CEE9E
BD5CFC92
BD8FBBA5
3DE596D5
3E423A10
3DF91A50
3CC6D268
BD320FD7
3DD8B8AF
3DBD7D19
3C02DD54
BD736A9B
BE355044
3CBD61E5
BD8C4D1B
3DADD6EC
3D578097
BCEE3380
3D000971
3D6E5543
BD7209CD
BDC03162
BC3E4754
3D07E2F6
BC830DFB
BC126F55
BDA049CE
3D485F9D
3D588720
3D896055
3B4AC483
BDC20825
BDDFA2FA
3CBEDEFC
BD895243
3DBE8F7A
3BBE81B2
BD605B48
BA15EBE9
BC67A999
3CA2C52D
3DAB4EB0
3D38766D
3DAF674C
3DB97982
3B881A94
BD8AB67B
BC5B4EDB
3DC62239
3A76CCA4
3D58DBF6
BD61EED4
BD540015
BDAF1520
BDF65054
3CC2888E
3DEF1EA1
BDDC95C4
BE2227B2
BDDD385C
3CBBB63F
3D1788B7
BC334DB6
BD96A449
BD853694
BD87FAD4
3D35E2CD
3D891D4C
BDBA76E3
BC204324
3D193A84
3E10DD04
3C2A33F5
BD05CE6E
3BF84C5F
3CE8A918
3DD20919
3DFCC2DC
3E4BF6A8
3D9A063F
BD42E336
BCC736D9
3D38DCE1
3E755EA1
3D8770E9
BC921D1D
3C1A19B2
3E0116C6
BC80A175
BD8E08AD
BAFDA303
BDC8FC1A
BC5AD9C2
3C7EFB6A
BD3C3714
3D22911D
3D415457
BD0A8E00
BD8E995B
BCA89B95
3DC5E39A
3CBE953A
BE1B0891
BE161503
BD58A58E
BD3DBD24
3DEE741B
3DB11CB4
BBEAC9E8
3D2306AF
3CEF5919
3DDD679D
3E0FB85F
BABA8630
BE03D1E5
BB4CC4CF
BE02A452
BCD90EC1
BDE8BDDE
BE19B0DC
BDBAC806
BE3C3923
3C15604A
3DA48CB8
3E5024C1
3B6EAF19
BE33E76B
BDBD3724
3DF2F184
3E34423B
3DB11841
BD6390D8
BE262D38
BD9BC926
BDB17E7A
BBE7B97B
BD4B9172
3B9AD31F
BB94F8C0
3DE65F98
BD0D7024
BAFB2422
3CFAA4A8
3CEC205C
3E093D55
3D83BF11
3C772966
3D11E998
3C241ADC
3E1E0FEA
3E0889EC
3D8C3793
BD82A202
BDEE8F87
3C37EDD0
3DB08124
BCA739F6
BDF6F1A6
B926F193
BD6396AA
BE2F2C82
BDDCDD30
3C8D2A52
BC863E5A
BDCBA139
BCEC1A84
BCEB4858
BD705A9A
3D535760
BC84CB03
3DC4CEED
3D3B7A75
3D99739A
3D4FB333
3DFA156B
3D8868B9
3A916BCB
B8F4F52A
3CD4D9F7
3E0F1A6C
BDC59930
3DB4C12F
BBADB282
3DA90CFE
BD8884AD
3DC34F3F
3CE98411
3D61BD80
3DE5B7EC
BD144254
BD019477
BD97FCB6
3D0BDAAE
BDB13F37
BE0D0123
3DC24498
BADA838E
BD9C4E12
BD278C60
3BEC5AD6
3DB9292A
BD968E78
BE031EE1
BE07D832
BE0E4C1D
BDE037EC
BD01A09E
BBE8D537
3C3DF2AE
BCC02CDF
BCB4294F
BCF6940D
3DFD8129
3DFB0A63
3DCCA035
BD3D6A8A
BCD94BCF
BD2B146D
BD48B1CE
BDA613EB
3D38E133
BB1ED394
BD56724F
BE0706F5
BE01FABD
BC955B5A
3D542A21
3D202A68
3DC59FAC
3D825BE7
BD32910E
3CB90229
3D7C50A0
3E2D571E
3DC21066
BD05F403
BB3DB7BB
BD4F3721
BAABDC7C
3DB1EA94
3D13D445
3CD804E9
BC824EDD
3AF816E8
BD621927
BD075CDC
BE1DA7EE
3C574EE1
3CBFE696
3DC37599
BD9456CB
BDDFE3D5
3DB015B7
3E319043
3DC3CE8F
3D5062A0
BD6AA4C5
3E0EC376
3CBAB241
3DC4432B
3D797A60
BD5643BB
3D9D19D0
BD1D156F
BD9A11CD
BC8F824D
3D17DDE4
3DEA8D4E
3DE51328
BD2B956D
3B5D6153
BDCA531C
BDDE9A8D
BD9443FF
B7E5AD98
3C2BDD3E
3A8FDAAC
BBC7AEDF
3D943897
3E09EE16
3D3A38D6
3D0C0671
3915186A
3E46D5DB
3E15904A
BD2A6A33
BD7214D3
BDC597BF
BD72673F
BBB668F0
3D9D2198
BD23EF8E
BD93DC5B
BCC52E12
3D924801
3D9C34C8
3CF3A66C
BD9FF6F6
BD41B9CD
BDDAAA21
BD38B53C
BCCE26D2
BC98BFA7
BE022786
BE307B8B
3CE03F15
3C6C92C1
BDCC330D
BE151066
BE0D70C6
BBEAD2A8
3DEACD5C
3E24BD1E
3E268030
BDCD69DF
BC388F48
3DB55E55
BD48F455
3BB3D120
BC019597
3D1022AF
BC8D2F8E
BE09B175
BD3C7C54
3AC871BD
3D29A7F4
BC56DB8F
BE2CE48A
3D368E77
3E452B9B
B8B4B138
3D9F5924
BE0C3B6C
3DAD77D1
3DC8C60D
BD8B4F11
BC840B48
BDA10922
BD372BE2
3DAFF28C
3CCFCF41
3CB39D04
3DAA02EA
3BCE66EA
BC3726DC
3D81847D
BCDAE203
3C2446A9
BCFFE9F4
BD21D8D5
BDEB0E47
BDB78183
BC8D9DF5
BC233543
BDD38F06
BC19187A
BCB58282
BCC11491
BD2BEC78
BD55F694
3C96DA1B
BD1DBBBD
BCBA2DE3
BDD58C8D
BC9729C6
3DA9E705
BCF9CE38
BD9DEABB
B691E346
BCE0A676
BC041C20
3CD851EB
3D17216E
3D091E99
3BBF6E7A
3D27F344
383F9B8D
BE7AF316
BE9241E1
BE61504D
3D4521A9
BC6791A1
BE8470BB
BE47BF6B
BDF3BC0A
3D99A9E3
3A9F558C
3D2F4A0A
3E09B076
3DCD1465
3DC331BA
BB80966D
BC9018E5
BD5A8D74
3CB82BD3
3DD179D4
3BAF7F15
3D0BC8AD
3D5B35FF
3EA9B8C3
3DCE8C7D
3E04637B
3D392BA9
BDB3F74C
BCE993D6
BDF65855
BDB5EF70
BCA9836B
BC84BF46
BE7640E6
BD806F09
BC98950C
BBDD723C
BD300CC9
3C8C88C9
3B1E7AD0
BDB5FBAD
BDC8CAD0
BC5AE177
3D9A2EC5
3DEE0130
3DF5A5B4
BD863FD1
BD91B6FD
BC90F341
3D9990C5
3D8CEBB5
3D8105A2
BC9112F2
BD032E77
BCDCC46D
BD402FDC
3E4592F0
3C085E87
BD6632CE
BDEF1876
BDB18C13
3DC6100E
3D7367DB
3DAE0659
BD1DF246
BE00A1B5
3BE0F84B
3D9649AE
3DF073FF
BE3B8046
BD30C8B3
BCC37FEC
BD20C6CC
BDB6509E
B9DC62CA
3D103E5E
3D9E13E7
3DAD0B42
3C8BE35F
3E376A61
BB555D4D
3DD8CBFF
3DC9E913
3DF986D2
3E245602
3DAD7C8F
3C99D8FA
3D88CC33
3D0C1F86
3D94BAA4
BE219173
BDE7DEEC
3D3B4D39
BDA8AFAD
BD219F6A
3D1E7B2C
3BCA3FFA
BD95C6A4
3E13860A
3D1B99E7
3CB471AA
BD4EA70A
3D089E94
3DC5AF92
BD8E5EDA
3D83DE5A
3CE97693
BD5A0DEF
BCCB81CE
BC0BEA5B
3D6BA595
BD262520
BE2682FB
BD8E629B
3C09212D
3C4BA7A7
3DA60E1B
3D73B40D
3D9D9243
BCC4EA65
BDA46AB2
BC9DDD1C
3D803A52
3D30C33D
BE1916D9
BDA6DE75
BD755555
3DF2F3ED
3E63873C
3D627EEB
3D979A0C
3DA5E0AA
3D38602F
3D1A3FDB
BC363DB4
BB9854D5
3CE9406B
BC760D7A
BE58086F
3DF76F89
3D9E7B51
3BA43144
3BE717B6
BDD1EF57
3D1E7E8E
3C6F95E1
BD138D71
BD46B830
BDEA3164
BCF9D894
3D01F355
3D277340
BD5D24D4
BCB1483D
3D516015
3D68D131
3DEAAAB3
BAD054BE
BCF6A408
BC6FB320
BA3B220E
3C056CCF
BD2A3EFC
3BD9EEB8
BBEF2F9A
BD5E0238
BDAF7C12
BDFE9C72
BB7E5526
3D3A6CF9
3DA08EB7
3D942898
BC48603F
3D7E90EF
BC10919B
3CD35C4E
3DC25470
3DD0DBFD
3D47B5E4
BE4B9D9E
BE067D58
3BB0BBD3
3DF95241
BCB8D0DD
BDE80138
BD724A6C
BD8E1900
BD67D9EC
BE214F53
3A706909
BDA3F627
3D62866F
3C0DAD37
BD84E8FA
BD39AE9B
BC24E4D1
BDD94C1E
BC95F2A8
BD74FD38
BE080BE2
3C57A182
BCEA4197
3D2AA9A8
3DA66E48
3DE619CC
3E115C67
3DD5AF19
3D073E6E
BD556560
3CF67005
3DE0DDF4
3E0DE0E4
BAD3B16B
3D2FFA3B
3D7E0547
3D8296EF
3D0C3C05
BC70CE12
BE00AB73
3D87BAFE
3C4463DE
3C9E7D32
BCF24814
BD2E70AE
BE12C2A7
BDCF1053
BD0CE01D
3E3A6125
3DD9AB4A
BD4F080E
BE1EB9C7
BDDB8F9F
3D8B12A8
3E7F3B16
3D13582B
BBBCD538
BC98392A
BC88CBD7
BE0D80CB
BDA19CA5
3CF09D91
BDD6B7FF
BDDF30AC
BDFEBFD7
BBAE6BA6
3CF87B8E
B99A593D
3DD6B704
3E559F5E
3C7A1455
BCE8E509
BC6AE24E
3B95DF56
3D3BA6A7
BC7D91BC
BB8DBE8F
BCFE2EC7
BE0CF9F3
BDACAF48
3C063BAC
3B13F332
BDA41067
BD7BEAE0
BD959C17
BDD2E493
BDC3CFA5
3DA04FA6
3D8692E1
BBEE5C9B
3D60CF61
3D99AC4A
BC64C87E
BCE75936
BC9C3351
BD207DB9
3D2400B0
BD343AA8
BE02A5E5
BCC1AACF
BD29BCDD
3CC508F6
399D1435
BE0387D5
BE14116F
BDEF1894
3DADEA8E
3D1E3CF1
BDB7E46A
3C25E0DB
BB9B4F8C
BE251E1C
BCF8CC2A
BAE9133D
3D8CCBE3
3D718B9F
3DD71676
3CECDACA
3D0EE288
3E2A04F5
BD111120
3DE62B19
3D14C2BE
3CD04F2C
BD3F0FB0
BDF3A391
BD030EF3
3D9C08E1
BDF6FC93
BDE4D7FE
BCAA8EAE
3D920EB9
3DC5F5DB
BE4FAED2
BE2E403E
3C093EAF
BD67A225
BD71599C
BC93844E
BC814D77
BDE49287
BDFEBC7C
3D6F09F4
3CEDBC97
3D601B0D
BDC21B23
BE09235C
BCC29F86
3E04294D
3DFF440B
3CF00EA8
3BC2A3F2
BBAA6654
3E0DA3FB
3E1A1BA1
3DD5A4A8
3D8BF899
3C9F78AE
3D296600
BDE6FF6B
3CE10B00
BD96A514
BCA664D5
BDBD9450
BDA903CE
3DA0E08C
3D043815
BCD7CE25
BD2AB104
BCBBC736
BD986E37
BE3B5CF1
BBA90187
BC242120
3D064F47
BE04D88A
BD011466
BDB47FE9
BCC7C052
BD9AD7C4
3CD3D3F1
BDA7E835
BE138A7F
BCFA91BF
BC8A39D0
3D58A884
BE34B94F
BE0DF07E
3D619CF0
3D3A4E9B
BCB967A0
BB469489
3D2A6F60
3D946C22
3DCD6CF5
BD62ECCD
BD50C57D
3DA81335
3DA4BB4A
BAE8ABF3
3D60BB31
3A5F818E
BD0DA229
BD4AF8F4
BD7C5A69
BCABA24C
BAA00999
BBE00638
BD9CC269
BE00D5BF
3DA5A080
3DC2DEA2
3CE72E61
3D83837D
BCF495B7
3CA72525
3DC0068B
3D183220
BC4E3490
BD90634C
BDC85FB5
BDFF7353
3D333630
3D85EF83
3D690CA8
BDC8C86B
BD86450C
BE29AF84
3C9255F6
3E3A9300
3E080BB4
3D6C19CE
3C0644E7
BD84D1A5
BD19C0D6
3D7A8353
BD2216E7
BDB1E570
BC0C62B0
BD0B383A
3B1AE8EC
BD8AFBD3
3D905A40
3C644D09
3DBB6EE9
3DA3D066
BC4C7B93
BD647F0B
BE00E247
BDC3A795
BC7FA23B
BE3660B2
3CABAD52
BC34CF12
BDC9A9D8
3CF01D5C
3D57E7FD
3E5C34B7
3BCF6555
3D998538
BDEAE6E4
3AD17401
3CF7442C
3D0AC0B3
BD426412
3D4030F1
BD1BB049
3D2C9B78
3C67E3A4
BD3C1475
3C82B92E
3D6DEFB7
BE0881BE
3C2FE1AA
BD901454
BD028513
BB9161BE
3E025DD0
3D72FCD7
BCA3C18B
BDE3F05A
BD4007B8
3CB4A428
3BD454ED
BC260854
3D885C93
BCA28C41
BCAF4198
3A3F8827
BD9A3379
BD5EE4EE
BD01B50F
3D4E0ED1
3CD19106
3D585055
3D379919
BBDB9578
3D1F6113
3DD45562
3E00F716
BCF1FB02
BE02A704
3DA3813E
3DD6D065
3D94C341
BE1505A4
BD54DAA8
BBB16691
3CBF0C79
3DE3626F
BB9F775E
BD026DFD
BCA4E672
3D826AD3
3D9DE013
BD8BF0FB
BD314F74
3DC1242C
3DC9A50F
3CAC51E6
BC9E1E67
BDB6074F
BE19B783
BE27CDCB
BE08A74E
BC1986BC
3C0BCF30
BD62CC4A
BE64795B
BD8E4BA5
BC84D130
3A275DD2
3D2E9CDA
3C82C0C0
3D0712D0
BC8D71FC
3CB25149
BD82A060
BDA93881
BC41E33D
3D21F51C
3D8CC53A
3E01A46F
3E034049
3D33E324
BBF9AD07
3DA49C95
3E4B5737
3E17C8B0
3D52F727
3D197532
BDB27A42
BD75FBFA
BD56A205
3C48E28F
3BD9CAB4
BDA59A12
BDF52903
BDB4B736
3D7E7AF3
BD9586B5
3CFA5BD0
3D5D9C3F
3D62441E
3DDF1932
3DA6A7FB
3DB3EBE7
3C2FD9E7
BE044089
BE5A65D3
3D68345F
3E19F269
3C7FF131
BE039D19
BE11C49C
BD06C6BD
3C3E0A20
3D9E43AF
3D83295D
3DB50643
3C0893B0
BD1E1DA5
BBC62716
BC7C2814
BD1C0B04
BC7D31E8
BD2CAA77
BBE0D40F
BC5FB55D
BDCFF5FD
BCF83B63
BD998933
3D8252EB
BD267066
BE49E7EB
BD948AF3
3D5A5400
3E018A38
3D554FA7
BD9909E0
BC775FF5
3D6F1175
BCB7DEA8
3C65102C
3C817649
3D5920DE
3E0569E3
BCDFF74D
BCF32DC7
3DCE50CC
BCB7E257
BC34BFE2
BD22A7C6
BD36A428
3D765AA7
BB197402
BD108785
3E03B9FB
3C282329
BE1239B4
3CB4AAAD
BB50B4C3
3DDE4F9B
3A587B18
BDA03535
BCA3EA29
3CB028B2
BD868C54
BD647447
BD39A860
BD5FBC4B
BD54EEF4
BD438B58
BDA2738C
BDBED71E
BC8E4FDE
3DA38E1D
BD4D7F6E
3D74B93F
3DF9D6E5
BD210429
3D0AF25E
3D812BB4
3C61A667
3D39C872
BE125CFE
3D59662E
3E13C07F
3E5905EF
3E1FB5F6
3E2F50EC
3D814392
3D55C00F
BDB12D14
BC136EC9
3CA8B2ED
BD4808C5
BDAEF858
BD06655E
BD8D7462
BCC6514D
3D672786
3D12B9A3
3D2243DE
3B86740D
BD8712DD
3D840CE7
3E0F7E6E
3D9F36E5
3C91C593
3D71C5BF
3C48F24C
3BB9F6FF
BE294193
BD92EC04
3D5361F1
BD4F8B12
BD0C0153
BE36F774
BCE1307C
3C87FCEA
BC3F819F
3D2B8640
3CB45F58
3C966E12
3BFC89F7
BC66B519
BCC42B83
BB0B6103
3D722027
3D64CCF7
3C7696D1
BB47C81A
BD963D96
BD036E93
3CAADA12
3D325A66
BE381C6E
BE4CBC5D
BD9B5836
BC658708
3C1C0E35
BD04A545
BB9B62D1
BD82C6B0
BD3FFEA6
3B78DF72
3D47FB1F
3D08CA5D
3B4E5282
3D9C5BEC
3D04516B
BC94ADC6
BDB30CFD
3C5EFE63
3D00B6E2
3E0241DB
3DE9F037
3BAD528B
BD67C84F
BB7886F1
3D991CFD
3D099EE7
BDFAFCA0
BE724E83
BDCFA079
BDB40B7D
BD85F6C8
BDEA3981
BD6AE6E6
BDAF9BC6
BCF88B85
3E0CFE08
3D4FCB29
3AAA35F3
BDB42E12
3D4E2924
3D219C9C
BD493CA9
BCF08E82
BD8429F8
BCFFB2B1
3E08C6D8
3E010E6E
3E0E1EB8
BC7B95F4
BC157F2F
3DDAE3A2
3E23EA29
3E014C31
3CD40879
3D858ECB
3D69E5F6
BC49C308
3D7A185B
BCDEA428
BDF232BE
BDCCF171
BE2E2D2A
3CE005A3
3D131669
BD71FA45
3D0C09C6
3CC33C99
3D892B6B
3D76DD3D
BDBA3405
BC44F905
BCC44B2A
BB712E5C
3CD10E2A
3CFEDF3E
3DB61043
BD50C1BA
BDDC673A
BC48FDB1
BE051984
3D27B704
BCE0DEAD
BDBEE53A
3DD3AED2
3BD98FCA
3E09A5B0
3D9E4558
BD814CD9
3D52ADD3
3DDFE18D
BD557697
BD939FCC
BD8892AC
BC9DD0E3
3B603DD4
3D256477
3D3D77EB
3D54FBC7
3DD34F83
3DFE401C
BC227E11
3B8B0A2C
3C4F51CC
BDADD1AE
BD52B5CD
3DA73E2E
BD4A5B03
3DD7ABCF
BD2F6FA9
3C3AB245
BC4F85E4
3E231FD1
3D583042
BDE54440
BC1012E8
3CB8EAAF
3C89CEA9
3D09CC4E
BD097BE9
BD417DF4
BDEC6D88
BDA19E7F
BBA5EC94
3CC978D1
3D8027C6
3E471558
3E868945
3E89264C
3D30B462
3D7219E6
3E68E2E0
3E265A2C
3D817CF2
3C87398A
BBEFB2D4
BD879C03
BD8C7296
3D11A884
3C8B2AE1
BA889DAF
3DD09214
3D9792B4
3D3655A1
3DC35068
3CFB269A
BD4F305E
BD2DD275
BB8ECF4D
BE076C50
BBA56442
BC6E1B17
3D1697BF
3D8240B2
BE02291C
BCAD0F9A
3D6EDE33
3AC602F8
3E06529C
BD087446
BC97F4AE
BD51503C
3D22A53E
BC02C780
3D9C4F16
3D40B2C1
3DD953CD
BD9BEE54
BD43C35A
BD00C282
3D06204D
BA59E3AF
BD56DC9E
BDFFCA86
BDA87AE8
3CBA8279
3E05D7F7
3D66A641
3CBC3ABD
BC873DD8
3CA39D36
3D048BDA
3D916303
3D02D6E7
BD328332
BDA644A5
3D23D9B7
3D072556
BDB9A430
BDB10090
3D9914A5
3D568BB3
3D86A74A
3D122B06
3E4FDF83
3DAABB17
3C27EF2A
BC566A39
3C243D35
BD2DE36E
3D5446D1
37B203C6
BDEBD9AF
BE21508C
3DC84384
3D93D67B
3D98F6D4
BD756D59
3DD3C0D5
BCE3CE27
B88BFF18
BDAA12EF
BCC994C4
3D8E967A
BD301571
3D890B3E
3D8F843B
BDB013B4
3D28129B
3C3094C3
BC66B1BC
BDD46B2A
BE2FE58D
3C6BB281
BCECA4B6
BD9D5456
BD382176
BDF21BE7
BD1EDA1A
3D69F52D
3C29469C
BE0E6F47
3A65D228
BCC91B08
BCA1417D
BD178110
3D07A7F7
BD2B4C1A
BD8FF1F5
BD03A03B
BDA372BD
BE0E215B
BC979730
BC88684B
3D83D851
3DB51EE5
BD4DC9C3
BCCF7CAA
BD117C75
3D8D4305
3D6D9391
3D6BC1A8
BE3394E9
3C68E64D
3DFEE1E4
3DE3F6E8
3C2E4EAE
3C031EEF
BD4D56CF
3CBC4EB7
3D3493BD
BCD47E99
3DE6537C
3CBD937A
BC94F04E
BE136245
BDBD8475
BDBC4B63
BD821AA8
BE3D79EA
BD8470E1
3DF454D9
3E0DC99E
BC164EDB
BD4EDC76
3D25E03C
BC6C9A7C
3E3CDE26
3DADB8E4
BD026EE5
3CFBA63F
BCB2703B
3DA6E039
BBE25DD7
BDD3E85F
BDBA14C9
BCD7C98B
3DD4831B
3D5A06EA
BDE37AF2
BDCF10B8
3E2CF661
3DD8F2C9
3D3649EC
BDA3BDF9
BCCB260A
BCE2B724
BD86BEBC
3DD6398F
BDFB17A0
BDC2BD00
BDD28B83
3C4C0B28
3D5F7B04
BD2FE371
BBC28BA6
BD99FD33
BE175269
BDE198BA
3D986BAC
BDAA878B
BDCFC378
3DABE72B
3E0221F9
3E09F5CB
3D6407C5
BE05FB65
BBE2CC4B
3DA7B5FA
3D5C2FC7
BD13EB1B
BCF89487
BCCBB212
3DC4577A
3E04768D
3DC358D9
BD4CDBCD
BE1CCAD2
3AC5E83F
3D49CC1D
BD93EAE7
BE1BF9A2
BD2A71F5
BD0F40B4
BBE3E647
3D215FB2
BDB454F2
BD7E388B
3CC90937
BCD70095
BE614BEE
BE2A5C7B
BC064474
BC668DE1
BD5A9126
BDACB99C
BD734C08
3D27159C
BE00C4F8
BD21AF7D
BD190DC1
BCF7F80F
BDD9F473
BCAC1FD2
3DCEB7F9
3E1DA422
3D6CFB0D
3B871D6F
BC2E8292
3E17ACCB
3D093909
3E08D158
3CF5D02F
3DA44A3A
3C1275EF
BDC720AA
BDE2E120
3CE4BCB1
BCA85B6C
BDB1DB7E
BDF88528
BDA7C452
BD7545E9
3DC063AD
BDCDD73A
BC22A474
BD9BFF0C
3D45A6AC
3E41ED28
3CCACA2D
3D36005D
3C4930A9
BBF4C5A3
3DE83AA9
3CCE15C3
BD198815
BC9FCB9D
BCDF4F09
BD0A7FBE
3D9F7977
3DF9EB23
3C9B6D43
BD16C6F9
BDA46825
BD805605
BD565F9A
3E0B55A8
BC511443
BDFBE366
BDDC372E
3D971CA0
3DFBA91B
3E158A26
3DAB6F0D
BB4396F2
BCBADDDD
3DA5D431
3E52FEF1
BD9999CF
3D9A92D7
3B8984F5
3DD40AEC
3DAB1580
BD66580A
3CD838B7
3E0AD26C
3E35EA09
3DAF09C1
BE0CDD71
BE2FA86B
BD82353C
3CA2C6E5
BD40F370
BE0A9CD4
BE21ABB3
BE03D673
BD630976
3DCFD664
3E32077A
BD2C2B89
3D693B18
BD6144DD
3DF4F24A
3D28ED4C
3DC84790
BCF84DE8
BDC67C8D
3DAB8259
BDC75D65
3D93C188
BD086119
3E04AD45
BD351BAB
3C10E26B
BCC63010
BD8D2FAB
BDA509D7
BD03AD64
BD796BB4
3DFD5BF7
3E1FDD60
3D184F91
BCABA4D9
BC300A42
3DD93E2F
3DDAADF2
3DC32D05
3CF56E37
3D7FA62E
3DC84CDB
3E0649C8
BCDBB5A1
3D3D3EE6
3DD938BE
BDEA238A
BCF31C6D
BD59346C
BDB503FE
BD02C7CA
BE40F626
BDE58B13
3D33938A
BB9079E2
3D232B99
BE650EA3
3DE61A7F
BD1569CA
BD07FA48
3D6093EF
3D03A0C1
3DE6A2AE
3D897492
BDA55AD5
3C91C963
3E0A5327
3E1662BF
3DC9479A
3C8BF4E3
B7FB6852
3CE10DC5
3E4073EB
3D4CDA90
BD21F91E
BC8BD91B
3C728FC7
BD2FDC75
BD8E00F9
BD860127
BCD9A862
3CF45E61
BC29CCF7
3C114A24
BD8F6969
BD276B29
3BAF5BC1
3DA92F6D
3CE75B3E
3B7480DE
3CE324FC
3DA342CD
BDB27DCB
3CFF178C
BD4CF4C7
3DC228FD
3D06F37C
3C7EA61C
BBE57A0B
BD38022E
3CEBA8E9
3D0FB114
3D6789CF
BC816B47
3D88443A
3D147AE6
BD3CA2B2
3D1D90A8
BD609175
BD0C9318
BDF9B553
3CB11894
3DBE88A5
3E3D669D
39CC8A88
3D21349A
3E492000
3E0C1497
3E315069
3E656A12
3B6B6A5A
3D24215C
3D5A0D85
3D87D009
BD0982C9
BC209F13
3E468328
3C5B3AEC
BB1A5BC1
BCA67839
3E0F5508
3D473519
3D0BE064
3DD34446
BCC30E7C
3D5C2EDB
BE835C61
BDFC623E
3D65AFC3
BD32A4D5
3D6476EC
3D099B1B
3E0FA373
3CB17363
BD9D5CCA
BBA31063
3D8ED44D
3CE1E547
BD83761A
BDA869C8
BDD28325
3D394575
3E00AE39
BD89CBE7
BE24C250
BDC32B2C
BD1F7C12
3DFE8879
3D128A7C
BD7C5680
3C0214DE
BDBFAF56
BCFBB618
3DB32640
3DA2E4C3
3CB7E528
BD7210E9
BD7F6DEC
3DF556AD
BD289B90
BD843416
3B63CBCA
3A96F2D3
BC9CC708
3D9A07B1
3D45516C
3E01E804
3E21CEC1
3B0A14BD
BD99324C
BD8E7AE7
BD3948DC
3DF66540
3DF5B246
BD5D8F22
3CC63B7F
3C6FF5F0
BDDF9F2A
3DF321AE
3DC08779
3E4C3F4D
BE0642B2
BDD2EA76
BE0191D5
BDCE0A02
3DCF9CFE
3DDD73E6
BD9AE2DF
BDF01981
BD4D80F2
BD091763
3C253218
BDDE8EFA
BE2A845C
BD7EF4DB
3D64D649
BB8FD4F2
BD890FE3
BE429525
BD8DDAAE
3D5818C7
3D23DAF8
3D84E432
BD72B2EA
BDA5F68A
3D8CF3E1
BBE96B25
3C1CB53C
3D7DBFA3
BD96B209
BDA6FAF8
BDA5D192
BD913D88
3D6E5FC7
BCF5CDE6
BDA49339
3D6AE437
3C348CB0
3D55BDDA
BD3427A9
3D8541EB
BC84C83B
3D3A2E46
3D4082BA
BD14922E
3E2B051C
3E12883D
3D65F43E
BCBC36A4
3E1DADEB
3DCBB002
BD0371BC
BD9D5EB4
3D42D188
3E43A22B
3E5897FE
BD2B86C6
BD3F5B97
BD944F17
3C9E8CCC
3E028D8B
BDF051CE
BCD48E13
BC88315B
3D4C346C
BD6AF667
BBCDC0BF
3E297B90
BC04A11B
B989D241
BD0F2EFA
BDC6873F
3DE45113
3D794068
3C0566EF
BD9ECBF5
BCB47FE0
BD78ED9B
3D1D86BB
BDBBACC4
BD999D02
BC9EB930
3BD23875
3D15C789
3CC956E3
3C1DDE9A
3D050BE7
3CC41737
3B92D26F
BDC1D238
BC46CA9D
BDCFC65F
BDF64A89
BBF56FE0
3D4C4A51
3DFDCD49
BE4921CB
BCB935E8
BD96AC10
3D47DF81
BC6A5DAA
3E0120B3
3DD25AD0
3BE8A96F
3E367452
3CC6A409
3D1CD756
BE3AEF95
BDF68CEF
BCE30152
BC28C9B2
3C274FED
BE12C9BA
BE036AD0
BBC9E3BF
3DF7BCC9
BCB377F7
3D82FEC8
BD9F557B
BDC13841
3D57F9BF
3E3034B6
3DC92B67
3C9AB390
BDBDA4DB
3C12DC8E
BDF7BE2C
3C093FA9
BDB2DC9B
3D1E7E83
3DC63D52
BCEFB7C9
BD578489
BDE8BEBD
3CC005C5
3C974FF8
BD9101CE
BDCC4BDD
3D16092C
BD6B2966
BDC81F83
BDC0EF6C
BDBA5CFD
3D270BF9
BC3414D0
3D4C31B7
3E061F38
BCCEE64E
BD72311D
BD2D9A8D
3D2BCFC8
3E313919
BD359805
BC3C1D75
3D1AE0CE
3DAEC41F
BDA17531
BDD9D043
BDA5900E
37DD2046
BC1472DF
BD9543AA
BE226731
3C1D4671
3C9EB1FC
3DF82415
BDBC8ACB
BD6B33E5
BD5122D5
3E083BF8
3E3B1542
BD25513A
BD5960DE
BC1C55FB
3CFD4BEA
3C676CDD
3E0F00D2
3DE51C19
BB2156FE
BDA5B42A
BD753642
BC8C8624
3D385804
BBC4DB0D
BDB95B04
BDA0E00E
3CBAB1C0
3D70FBA7
3D698B2D
BDF84A19
BE1544D3
BC4C9BB5
3E5155AB
BD82EA5D
3D34FF6E
3D60D136
BD8F5940
3DBE1B33
BDF58678
3D64E45E
BD7D8F08
3CE20A72
3D96EEEA
3C177AB8
BC975F78
BE112978
3DD944B8
3D6354E7
3D3ED1C3
BB1B4D44
BDADA5A4
BDFA9FBB
3E075F42
3C83F96F
3DA5FFF2
BDB0DE09
BDA16A1F
3C8ADF3E
BD868249
3D6C9E9C
3E0240AE
BD94171C
BCDBD039
BE1C2CDD
3D212E30
B8A72D02
BD007B2D
3DD43133
3DCF15EE
3D1FB054
BE19D85E
3D656EB2
3D6FB0BA
3D18EBD2
BD303C22
BD2BC2FC
BD98BBF4
BDEA4B1A
BDD4978F
BDC91B16
3CCE8B12
3E110103
BC9F9BA9
3CD1ED4B
3DA57D34
3CBD076F
3E1D29AF
3D78CD85
BC269F1A
3D33BFB5
3E6D21F1
BD1D44D3
BCBC07EC
BDD0CA3C
BC01381D
3E861F9D
BDA3ACA6
BE15B18B
BDC00E2D
BC9B71C3
BBB5F655
BE00DB52
BDEF77AC
3DF8B9B2
BD0B8262
BCF031A2
BE5A53AA
BD9D2162
BD7E6641
BD952A50
3D8E2005
BD1921BE
3D10F47F
BCBA1824
BD95F3C4
BD86D1B3
3E2568E2
3DA0522B
BC129F19
BC762BA4
BDA2A871
3DC75C96
BDBD5755
BE15947B
3D9ACD96
3C24F95A
3D9D6582
3BF8EF33
BD440FBC
3D076CE3
3CE88473
3E408B6F
3958CCF3
3D0B003B
3D196704
3B200A4B
3C1D9F8F
3D8689FC
3D86C290
3E4D6C1F
3E70DB00
BD2E3D13
BD8C8092
BC9EA13D
BBAD03EA
BC84CAF2
BCF72800
BCFA6C4D
BD7D2C7D
BD875F60
BDF47874
3D689204
3DC0259D
3CDC679A
3C0571F4
3C288693
BBEA0D4F
BD21243D
BCCBD5A1
3D35199C
3D171918
3D993E73
3D2A4F94
3DE84DBD
3CAD86C4
3CFE0E02
3D97B368
3C2E4AF0
BDA4A779
3C815EA7
BCFABB55
BD8B8A4D
BD3DDC81
BDA905CB
BD9744D5
BD13B596
BD6F584B
3D890A8B
3CBA2397
3E02BAC9
3C04BFC8
BCC44A3F
BD00B10A
BCF2579E
BD242315
BDAF5432
3DC8127C
BE055A31
3D7E4D78
3CF993BE
3A8460AD
BDB3694F
3D7F4855
BCC577D4
3CE68B6F
3C46BAFD
BD9A352F
3D16865C
3D822AB7
BD8847D8
3DFD76A8
BCE6F308
BD936DD8
3CAB5D14
BD19A409
BD0DF674
BD039FBC
3D37FD0B
BCAC9034
BCC2044D
3C0EA496
39276229
BA55D8DD
BB3E047F
3D3FD2B3
3C58FB26
BA05938D
BD17EF9F
3D9A9071
3DA7AA32
BD7BC5A5
BDC26528
3D009F01
3DF9007C
3CA64647
3C0EC8D6
3DBF040D
3D1CC188
3D8642F7
3DF63645
3DE171FC
BBECBB64
3C45FB51
BD397548
3E1889FA
3DB9C3ED
BE00725C
3B8B0BD8
BE003677
BDA72415
BDCC7C60
BDA81954
BDA4E184
3BB9BFC8
BD5681A3
BDB3E659
3B3C280B
3E0491EA
BBECCE9D
3DAC47B5
3CB45389
BC0F2CB6
BD7DE2DE
3C453FFB
3D1772FF
BB830E14
BCB35AA8
BD705E09
BCFF04FE
BCAE61F7
BD91D7D4
3E13E6CE
BDC24852
BBD88C42
BDD59EFF
3C702597
BC0179E3
BCC681FA
BDCAE109
3DCA757F
3BCD1C9C
BD57D24C
3D142ECD
BDBE9481
BD97FA78
BD579FB8
3D2308DD
3CD4DAE1
BCE57201
3D451CA5
3D940511
3BA8753B
3E0398B7
3D94D8BC
3D22F839
3D849BEF
3D70EE8A
BDB9D142
BD30002D
BCA08D17
3BD24CE0
3CE0E58E
3D325233
BDD8161A
BDCE7488
BD8E473B
BDC011F6
BDDB6926
BDE5911B
BDDE5166
BDA971EB
BC4170C7
BCB66B4A
3D29F4FC
3C2AF1AD
BDA84919
BC0058FE
3DDB6590
3B5887A0
BC97F3B0
BDD2C5E2
3CA16146
3D4AB1B4
3CABA0C7
3E23BEBA
3D93CEC2
BD07F9FD
BD0B9316
3D1A9001
3E13C370
3DB32AAB
BBE0A200
BD86FFF7
3E220829
3DDA3955
BD5791BC
3D165B70
BDB222B8
3D3AFA4E
BA95A87E
3D7B23AE
BCC6B7AE
BD6ECC3C
3C9B64FA
3E1E86A9
3DC5C0C3
BDDC7011
BD125A96
BB72DD7F
BCF318C4
3D358936
BE0838FB
3C2C7173
BCC05AA1
BD7EC186
BD818975
3CB244D6
3D35A5DB
BE044E7C
BDAFD526
3DC69E51
3C99DD2F
BC974B66
3C0FE12C
3CE65631
3C5B96CF
3E13A170
3CC58432
BD1D7298
BCF165EF
BDA90198
BD834BD8
BE286B68
BD397EC3
BD282CCB
3DC8216A
3E027AC6
BD8DD859
BE358F53
BDB223B1
BABA482A
BD3209E1
BD9A4EE6
BDDDA160
BD647924
BD20CF17
BD0BE450
3D38751A
3C848F8D
3E0888CE
3D85115E
BD43F097
3D39587C
BD2EFE86
3D767E15
3E1CD53E
3CC004E6
3DBE875A
3DECEC8D
3C2A5010
BE3EF84F
3D82DFD3
BD998A4D
3C9C08A0
BC85CF0D
BD79C81E
3C2FC9A5
BDD2FF70
3CDB88CD
3D131A4C
3C82D195
BD8E5030
BD0363A0
3D742A77
3E06EBEE
3D44AC3E
BC16FC8D
3D3CD7B6
BD3C15F3
BD8791F7
BD7B48DD
3DAB2A71
BD569F95
BD507DDD
BE160D30
3D0A3B50
BD22CC47
BDC5E17F
3D32095A
BC51064D
3D7E8688
3DF2C269
3E20095D
BD872A94
BD85C7C5
3D2EB765
3C15FA01
BCF188A8
3DE60B4A
3DAAD1A6
BD2CF952
3D4A2366
3C967815
BCC49A58
BDF8115F
BD90E148
3E3FE924
3CFBE109
3E033A27
BC5064B7
3BD30A5C
BD614E50
3B471663
3D062144
3D632DB1
3DEB7B41
BD4DD70A
3DEF6EDC
3DF72C65
BBC2574C
BDB94A8E
3B95D5D1
3D39D37B
3E5092B3
3D018D9A
BA576949
BDA6C763
BD1F95BA
BB5A0EE9
3DAC474A
BE1D763B
3D86A13C
3DBC6D1A
BC185B06
BB2E994F
BD951145
BC607B53
BD26D183
BCD1645B
3DFE7941
3DD47553
BDBD2912
3D79D11F
3D5A0F81
BBA8BD93
BCB92D94
BCAB121C
BC1D4CD5
3D56A436
3E3A1785
3E4BD01C
BCFD3813
3CBDE686
3CF0BAEF
3D8CC85E
3E13E3BF
BDA64191
