3D255250
BD071622
BB8CC2DD
BD20655B
BD434194
BCA6BABB
3D0DB48D
BD0F8E92
3D8F456F
3D1000E0
BD692606
3D239E48
3A7F5542
BD763A9E
BD6AA24A
BDA60733
BCCC610F
BD546326
BD995395
BA97579D
BC76ED03
BD8FE93F
BD26481D
3BCDEFE9
3C37DFFE
BB916AB8
3DAA90C6
3CB84B26
3C7CA244
3D22ADEF
3CF46158
BD3B6504
3CEE070E
BCF8D467
BD8088BA
3CC227FB
3D9206D2
3D66EC01
BDADE719
BCB5BADF
BCAB2B14
3D1E9A55
3D2D801B
3C88571C
3CBDEEFB
BCC6D3BF
BDA37AFA
3CF1D382
3A6F5A9E
3D14ED22
3B191005
BC98B96B
3D0659BB
3C8FE274
BD7A6DB9
BD3ABDFA
BD7F65F4
3D901B51
3D2875D3
BD4DA532
BD0A4484
3CED78EB
BD1EA26C
3A47206E
BB9CBF79
BC00F20C
3DCFE1D1
BC22ACCB
BD9837E3
3C8548CB
BBF069FE
BD332DBE
3CE8FE22
3DAA3745
3D06ACCD
3C64E39E
3D4B912D
3D6D20E4
BD2A1727
3D38D184
3B3304CF
BD44525A
BCA711EF
3D3162E2
3C485B3E
3D5BA169
3C2B3060
3D586A97
3CA72E32
3C5C1EBB
BC843160
3AD5022F
3D123070
BD628B87
3D132727
BD08E631
BC839B95
BD9245F6
BBE5CBD6
BB8397CD
BBD50228
3D33EAAF
BC2F979B
BD9C66C4
BC829F4F
BC359D5A
3CAA11B6
3D2B0FC4
BD1E68CB
3D147B38
BD3B7D7C
BD550A50
3C81C069
BC72C3B0
BD152A1B
3C56EC82
BCAC33EE
BC2141FD
3D0C9115
BD15C715

