BDE3FE49
BDC581C9
3DA5CCF3
BC1E97A7
3DBF877B
BE122B4C
BDD48E6D
3E55D27C
3AFE5A5B
BC948A26
BE425025
BE35CE0E
BDF76491
3E1E4010
BD934AD1
3E005F0A
BDFD3157
3DDFECAE
BDD323EC
3B682FAE
BDB17FB7
3D9ADDAD
BE1DD8AF
BC4723F1
BD438349
3E3DA44B
3DA6FD78
3C97A0D1
BE2F41FA
BDFCF018
3E2FF342
3DD4CBAD
3E077FDC
3E2524BB
BD730020
3E2D7BD1
3CF73083
3C8FDE41
BE46BD35
BDE977F5
BDFF9BCC
3D382EFA
BC0C6C8E
BD1EB3A5
3E1DEFCC
3DCEBBD2
3E30BC59
3DFCB25F
BDA1A16D
3D200545
3DD1B62A
BD5C0236
BE5A15EE
BE40597B
BC1D2AA4
BE309846
BDE77E29
BD858B9F
BE417BB0
3C2B978F
BE25877E
BE0B650D
3D5494D9
3DB8FAD1
3C98BED4
3DFAAAF1
BD950DBA
3DA42E65
3DEA087E
3DD0306C
3E167B75
BE29583D
3E2D7A66
BC8C77C6
3D6892F3
BE411F88
BE040202
BD691EAC
3E0D237F
BD8F4EEE
3E13936E
3CEA3841
3DE7EA61
BD8E177B
3DE292D8
BE17A209
BDE824EE
BDE9115F
3E2BC62A
BD9C6D63
3CA2199B
3DC67E39
BD9DACD9
BE317736
BDEDC7D9
BE0770DE
3E1BAEBE
BCE0D4A8
BDCE5A52
BDA5F21E
3E1FD904
3DBEB36B
BE145A3C
BD84E690
3D6766A0
3D1993CC
BCC76B1F
BE106541
BE433309
3E08B575
BE5E07AD
BE411854
3D7E1506
3DB92816
BD55CAE1
BC3AFB4F
BDED9F15
BD1F6A5F
BE23D724
3E1FDC1E
3DD1A5FF
3E2CE57D
3DC1C1CE
3E0778CA
3E09E997
BE0C09DC
3DC2C7AE
3E223B81
BDB454E5
BDE0D866
3AA6F8F2
BDBB0C86
BD89C444
3E2A3DB7
3E17671F
BE3DEE7D
BE1A276E
BD462A23
3E0B5958
BDAF4FC7
3E306BBF
BD55BC9F
3C5F39AB
3D2D87F5
BD0642C0
3DF5FAAB
BE249D6B
3E427B57
3E110939
BCA267F1
3B5924FE
3C53700E
BE0C895B
BE11AE0E
BB253D4D
3E0A132B
BDE180FC
BE549922
BDCB55E6
BD7DBF11
BD6C6E89
3E421BB8
3DCA9C4A
BD086C3F
3DB079C4
3D9C2DB1
3E35E829
3DC81B27
3D8345A1
3DB37AB0
3E306C29
3E2A7124
BDEE90AE
BE198996
3D3EB24F
3E19B65D
BCC36F4D
3D3283BF
BD73A726
3CCF0DB9
BE2F9EAC
BDA4FC78
3DA15EB6
BD3EA862
3DB44F67
BDDC9524
BE191D23
BDD09067
BDEAADCD
3E3C68F9
3E0109E5
3D54D5FD
3D4D7600
BD904FDA
BD448051
3DD21F18
3D8F6E0A
3D9A99D0
BDD72569
3C532616
BDE00321
BC0FD961
BE079C10
BE032D2E
3E117727
BE2AC1E5
BE0E4B67
3E2705C8
3DB3F0D0
BC975FED
BE12D898
3DE9B2E9
BD0C2491
3E34FD09
3E28B367
BD8CF666
BE0511F0
3E316D17
3DF77D9F
3D9E65DA
BD6FA118
3D735DEA
3DB395DF
3E1B120A
3D80EB8A
BE1D1955
BD5DF292
3D85A90F
BD6A2C04
BDE806F8
BAAAC727
BE1E507F
BD102893
3C98A8E9
3DD0BD97
3D869C51
BE1A4D24
3DDB6CB8
BE35CC4B
BE352A98
3C023CED
BD9689D4
3D9087C0
BDD18643
BE11793A
3D3A6FF9
3E1BDC2E
BDAF4896
3E3A11C0
BD2E8200
3BFAD5A1
BD63A665
BE1EE253
3DD3D9A6
BDB5D74F
BCC36AD6
BD3C797D
BE0EBFEB
3E20CEAD
3DC8875D
BE18A82D
3DBB78CE
3CF542C6
3B02C111
BE0B635F
BDA5A2E6
BDD072B4
BD7EED0F
BE19BF3B
BCD94CEF
3D8B89D8
BBDF7F33
BE0C4A6B
BCA1050E
3D090B79
3D903891
3C585272
3E22D47F
3E37AB6C
3DD0D73F
BD49751F
BE291FDA
BE0C2E6E
BE32A444
BD0C9F4D
BE284C6F
3CFDE8F7
BD9592A2
BE055BDB
3D3E6AE5
3DF84B7B
BE3D3E6A
3DB1BE6F
BC42BF42
3DC8A012
3DE00791
BE0A660A
3E0011FC
3D608BA3
BDF61FBB
3D2ECF0B
3D4239A5
BD5EE6DE
BD1CB30F
3C69906D
3D5A688B
3DB973C0
3D7FADEB
3E37C41F
BCA9B466
BAB68166
BD8A097A
3E409A35
BD54A1E2
3CD8A772
3D858505
BDEF6565
BE3B56D7
3DAFB33B
BE30FEA1
BA90D910
BE275C9D
3E0C5692
3DDE8D1A
3CDD2328
3DE53FCC
3DD1C8A6
3E033FAE
BD82F1B5
BCD5C11A
BE30059C
3DBF46FE
BDC22964
3D53C784
BD85F83A
3E2BBECE
3E3355E5
3D72F81F
3D42C9C9
3CE7755D
BD8DA3F6
3DAEB068
BE1691C0
BDC45E34
BE03A972
3CC1E780
3E35EAC7
3D48A9F9
3D77BB85
3E06EB03
BD88AD85
3D0E5E45
3BFEB6A9
3DD01DF4
3DD7726D
3C8F743F
3E228A38
BDE2738F
BBE622BC
BDDE0C0D
3C4421A3
BC161A9D
3DBAAC5C
BE048716
3DC4F99E
3E19B574
3DABAFBD
3D84AC5B
BE17985E
3E1B28F2
BE198E4B
3B949B9B
3D24BC74
3E20868B
3DFA4E2F
BD70F2E4
3E373CD3
3E0E7DB7
3DC70364
BE042886
3E0F6A2E
BDBC6C88
BE133448
BCA0D744
BE37F8D4
BD946255
3E1F625D
BE1428C5
3D33E048
3C3CD569
BD7929B2
3DBD3657
BD135CA4
3E3BA887
BD1633F0
3DB812FB
BE313504
3E4A9418
BD916282
3D20CFE0
3E59EB0E
3B2BA46E
BE155B00
BC65D77F
BCFC8595
3DF4B86F
BD0B5BD7
3DBEEE12
BE1D433B
3C634D4E
3E015FA7
3CFB0C94
3E1B21F6
3E4F5D14
3D920874
3DB491C4
BE2C547F
BDCD2790
BD1AB50B
BDD23C29
BDDE9AA2
3E070B15
BE24EFF8
BDDC9278
3D185A09
BB88D765
3E0305E3
BE22722B
3CD9E788
3D1A10F4
3D7C3A3C
BDD0264F
BDD67C57
3DC0C9B0
BE130EBB
BE3EAC6C
BD08994C
3DA698D0
3E30BBDB
3DE6C976
BDE83284
BD20E533
BDFD95D1
3D1D453A
BE5AF952
BDD311A4
BDF677EE
3DFCC6B3
3BFE4702
BC157C2D
BE1FBD5F
BE1D0F6D
BD164320
3D2B2AC1
3D61C653
BD877513
3B3738AD
BCEBC6B9
3D0A58E9
BE16FDDB
BE322720
BDE1037E
BDF44A21
BDC30113
BDE8CD5F
BD39614C
3DF5F5ED
3D4104DF
3E4901B1
BE181B6D
BC7F502D
3CBB9045
3E14A135
BDF3DE4F
BDF93C07
BCD431B0
BD2609D1
BE18CCBD
BC511B3D
BDA832CC
BCEC80E1
3E0EDCE5
3D901337
BD96E926
BDEF6AA9
BC5D7DA6
3E390C52
3E2C9011
3E0CBAE3
BE0F9FE2
BD9ABAEF
3D514A7B
3D4E96E6
3E34BB4A
BDBE1BAC
3E4A37BE
3E218075
BD8AE985
3D9F4509
3E211CE3
BD0BFBF1
BD8C9701
3E149BD3
BDCDDE12
BDDBECDB
3DB2A9FA
BC8170A0
3D429E80
3E4DD2B8
3DF895EE
3DC04801
BE4A29AB
3E16D75A
3E3BD453
3DC48F26
3C65A475
BDB586E2
BCC7BD26
3D228266
3E0122CC
BD3357A7
3E0F6321
BE079165
3D816ED5
3DD54855
BDFC37C6
BCE50D1A
3E431A54
BE2C85AC
3DFC279D
BD9A840D
BE21D337
BC5F8539
3E23EF84
3D8B97B9
3DF639BB
3DD2F22D
3E1FD5A0
BE34A8EE
3CB0DCAA
BDD4A78B
BE11FA20
BE058A18
3CC712E1
BDF14DC8
3C99651F
BE2029BD
BCED01B4
BE2B40CF
3E31AB9E
BDDD65D0
3E4504DF
3D78754E
3E35734B
3DE35A79
3E10046C
3D1A0C8F
BE7595D9
3E4CC60C
3E0CA619
BC99D7E7
BA9A9BAF
BD405596
3E1AE043
BE0F9004
3E210CD6
BD0498A3
3E012EFA
3D9AD360
BD0EA16D
BDDC6682
3E4FAAB5
3D8EFFD4
3E035886
BBD33018
BE0BB3A8
3DAA580A
BDD5E5B8
BE286452
3DC03C08
3C29DC17
3E2FA85B
BD0F1AF4
3E3B1F0B
BCDB51A6
3D6E9D86
3D600590
BB9B9D18
3E3443BB
BE4B4040
3AA581B2
BD1089A9
BD9A564A
3CDEFB4D
3E1427FD
3BDCFA9E
BDDFED29
BE01F014
BE4808D0
3C4864DB
BE1F677F
BE137601
BD6DCCCA
3DA55ECE
BD80008B
BE0C5D6A
3D99E699
3DC0B4A0
3DDCD221
3DDF1278
3D0A1E43
3E04AA0A
BB6C761A
BDADB511
BD66B3F3
3DB60644
3D248A39
BE029BAF
BE27AE01
3DC20936
3DBE5A1A
BD18AF5B
3E08DAC7
3DA6537A
BE0B305C
3C972C66
3E2F2DDA
3E0FC402
3E1CF658
BE2B9C44
3D06FCE0
BD84FDC2
3DD279B7
BE2E70B5
BE14A31C
BD67428C
BE01294C
3D1278C7
BDFCDF4A
3E049F8F
3E14D8F7
BD97A6E0
BCB9D017
BDD2F93D
BDFBC614
BD09EF1F
3DA6B977
BE1EEE55
BDEF87D3
3C6B9B9C
BE360686
3D092A39
3DA400F8
BC522624
BDFB80C7
BD401DFB
BE36DFE3
3C2CD189
3D144AAF
3DD17A29
3DEA910B
BD8A6D91
3D1A92E3
BE287AF3
BC5C4884
BDE76B32
3E1B0316
BE49FD1B
3DF8CCAE
3C9C343B
BE180EE1
3D9459CC
BE0A43C4
3DF31534
3D575C95
3CD14469
BDFC90E4
3D95822A
BD7B96C6
BE1243E2
BE1DC743
3DB270DA
3DD13157
BD522F56
3D769B31
3E0F20D8
3D8F324D
3D3E3D99
3DDBB7B7
3E0F646A
BE31CEA3
BD3F7597
3D72C9A2
3D896312
3D7F7193
BE323ED6
BD7B5DDC
BD649FB1
BDC55932
3DA92091
BD9D1E55
3D42D95D
3D75295F
3D96CE51
BBFF2EBB
BE1BC480
3DFB5B53
BD065D44
3DF896C8
3D19A933
BE2A8B77
3E0CC5AB
BA5DDAB2
BC933C4C
3E09AF2C
BD7A1613
BE21D332
BDD641D2
BDCFE68A
BDF160A6
3C159D38
BD5804D7
BDFA2427
3E0CB640
BE467540
3DB18A22
BD922E65
3D5952CF
BE361DA1
BE016439
3D80DF5C
3D1C16CC
3D507E15
BE014015
3DC6B2B4
BD4ABCDF
BE2B648A
3C5ACE28
3CCE19EC
3CA7CCAF
3D57F439
BDF73C04
3E0FB07D
BDFEECFB
BD9E95E6
BD9EB7F9
3DC6652E
3CC54C73
BDCD7001
BD7DAF93
3CAD2F0A
3DF01C43
3B79FB27
3E36459E
3DEE46CC
3DE74EC9
3D3D3714
3DC77A51
3DF5AE7A
BE0AB79F
BCF6D99A
3DF47C7B
BDF2F997
3D5C8E89
3DDFA011
BCE36AE1
3D1401EE
3DE7B088
3DFF49D6
BD631F5A
3C777C90
3D99F90D
BD07EFBE
BE2CF272
3E073C7F
B923CD96
3DBD988E
BDE1C42B
BDC0E52F
BB9ED0AB
3D66F43B
3C86BA87
3C055058
BCBD980E
3DB9A358
BE29D91B
3E1493D2
BDAE598B
3E1A2890
BDB0CEF2
3BF1E09F
3DCB91D0
BDF8812A
BD70638C
3D3B56E5
BD25A480
3E2074A3
3C7AE011
3DCB42B2
BCA4F50D
3DD3A2B4
BD85EB95
BE0F91A5
BD9440DD
3C837048
BD946047
3DA6F969
BDB6A1CC
3DB45CA5
3DEFD4A7
BDDCECAB
BE1C2D4A
BD954784
3D41569B
3D9BDF77
BDCD8F19
BD8F05BE
BCFE9EA7
3DB98314
BE0CD356
3E0890E3
3D2398B9
BD9AEEA4
BDDC88BC
3E31E04B
3D1BEDD5
3DFBC627
3DE072E8
BDE7E9B5
3E0A8739
BD911CBF
3C9FED7E
BD42D899
BE12073F
BE320695
BE5502D6
BE064040
BDBBCD2A
3CAD1CA3
BDF9A211

